#version: 0.2 - Trained by `huggingface/tokenizers`
Ġ G
ĠG d
č Ċ
Ġ e
Ġ d
G d
G f
Ġ H
Ġ h
Ġ J
Ġ a
Ġ j
ĠG f
Ġ Y
f G
ĠGd e
G J
Ġ g
j I
G Q
Ġ c
j f
Ġe f
G e
Ġa j
P G
g G
d G
Ġ S
e G
h f
b e
Q G
Q j
ĠGd G
m be
n u
mbe r
nu mber
h d
ĠY d
Ġ M
d c
S J
b O
Ġ [
j Q
Ġ f
Y d
j O
Ġ L
ĠGd J
Ġd G
h G
j G
Ġ T
ĠYd i
Ġ b
O G
c f
O j
Ġh Gd
f j
Ġe G
d j
g e
ĠGd Y
h Q
ĠH Gd
P dc
Ġd d
M O
G H
Ġg PG
ĠY f
h e
Y O
Q a
ĠGd S
P g
ĠGd i
G O
Ġe Y
Gf J
Ġ Q
ĠGd M
H j
L d
S G
Ġ N
e j
Q I
Ġ O
Gf G
Y e
Y J
Ġg fG
ĠG j
H Q
h b
Ġ U
d I
a j
ĠG N
b j
j S
e f
Ġ Pdc
J j
ĠGd L
g d
Ġj G
j c
h O
b G
H G
b I
Ġd e
f J
ĠGd Ge
j e
c d
Ġh G
ĠGd a
j a
M J
ĠGf J
Ġ W
Y I
ĠGd b
Q c
Q H
d g
ĠGd T
j J
h L
c hf
Ġ Z
ĠGd H
b J
M S
ĠGd O
Ġc d
V G
c e
ĠGd Gf
h a
Ġc Gf
g PG
P j
ĠGd f
ĠGd N
j d
U d
ĠG S
Y Qa
d bO
ĠT j
c Gf
G F
ĠG e
ĠG h
e cf
ĠGf G
d e
e I
a G
H I
ĠG SJ
Qj O
e d
H d
ĠGd Q
ĠGd U
c Q
ĠGde J
b W
ĠG J
Y G
Ġg h
Ġg Pg
eG PG
S j
ĠYd j
h J
ĠGf g
J e
h j
G L
Ġd j
Gf g
a Yd
ĠGdJ j
ĠGd h
j Y
O I
Ġj ecf
ĠG H
S e
L H
Q J
Gd e
Yd e
ĠGd j
ĠGd c
d J
Ġd c
ĠGd W
h Y
Q L
f I
Ġe J
T Q
Ġ QG
ĠH G
ĠGd Pj
f O
M I
G U
h H
M H
MS fG
N U
Q i
Ġ bO
ĠJ b
H O
Y j
h S
M G
ĠJ J
GQ I
X Q
M j
Ġh J
ĠS J
dc f
c J
e J
Gf j
ĠgfG c
Ġc fJ
S H
e Q
ĠGd d
Ġ R
Ġd Oj
G A
Ġj J
ĠTj A
G g
ĠS j
a J
] .
d H
h c
MO I
a S
ĠH Y
Pg H
g j
Ġ K
YJ bO
MO K
G c
ĠH T
W I
K Q
k o
n ko
u nko
w n
unko wn
Gd j
e Y
N d
ĠG Y
ĠS G
M f
ĠG a
ĠH Gf
K d
J c
ĠJ Y
ĠG b
Ġd f
Ġe L
jO I
U O
a I
S I
Gd I
Qj b
] ,
S d
ĠJ e
Ġ V
ĠGdO hd
Ġd J
Ġa bW
jQ I
ĠG c
R j
G N
T c
ĠYf O
ĠH YO
J i
ĠGf c
Q V
M b
Ġd cf
h Gd
W jY
Ġd jS
ĠL OG
h g
ĠG L
ĠGd dg
Q O
Y H
J g
Gf gG
Ye d
G a
QG A
Ġg j
h V
G j
ĠGdY Ge
b d
ĠGd K
O e
ĠL ej
Ġh L
ĠG T
V d
ĠH jf
j GJ
ĠJ f
M e
ĠH g
SG YO
ĠG PG
ĠGd Z
H Y
ĠGj VG
G S
ĠZ jQ
Q GJ
G Y
ĠGdG N
ĠGdGe Q
ĠGd fG
ĠJ M
H GQ
d b
ĠG MO
f Ye
ĠH e
ĠGf gG
Ġd bO
ĠGdeJ MOI
ĠG O
Ġc GfJ
Ġb Hd
ĠJ T
Ġa Yd
g h
h R
ĠHY V
ĠGde f
Ġg d
a d
ĠG M
hQ I
G PG
H M
Ġj chf
ĠeG PG
Ġd h
ĠGd g
h GJ
Q b
f S
Gf jI
Gd J
ĠH O
Ġa i
ĠM Ji
Ġj LH
Ġ OG
Q M
Q GQ
ĠGd P
g Q
f i
Ġh e
ĠH J
Ġe T
GO I
GQ L
Ġc Pdc
V Y
K jQ
ĠM S
ĠS jO
Ġ P
G M
R d
ĠH j
GQ j
ĠG Ld
L fI
ĠYd jc
f jI
F I
ĠS f
jf j
ĠG U
ĠT NU
ĠGdG SJ
Y Q
Gd G
d f
ĠG YQa
Ġdd e
Ge d
hb J
Ġj Y
Ġd g
ĠJ chf
d O
J gG
ĠhGd e
Z jQ
ĠJ dc
ĠGc KQ
ĠGde O
ĠG W
HO h
dj S
F jS
e g
V j
Yd i
X f
a b
Ġe SJ
MJ GL
b hd
h jI
a Q
ĠL O
ĠJ L
ĠY Ge
O Y
ĠN d
J d
g O
G Ld
Gd c
ĠGd GQ
ĠGN Q
W G
h U
Ġf aS
Ġd dG
hf j
ĠH Q
Ġ fG
h GQ
b H
ĠGdG hd
c ja
ĠY ed
d h
Ġe Kd
F G
Gd jI
S Q
Z j
ĠJ N
Ġdd J
ĠL jO
M X
Ġh dG
ĠGdY ed
ĠGdG W
ĠYfO eG
Ġd Gf
ĠM O
K I
a Y
ĠJ QjO
eG Y
ĠGdGe e
ĠYdj g
ĠGde Y
Ld S
Ġe O
ĠG QjO
ĠH N
ĠJ aYd
hL O
H J
e jI
Ġj f
ĠhGd J
ĠGde SJ
SJ WjY
ĠGd GJ
fG A
jf I
Ġe N
h Gf
ĠJ YQa
V Q
W j
GJ j
H jQ
T GQ
ĠHT Gf
Ġc ja
G R
d Oj
MG hd
ĠH M
Ġh H
h i
e L
ĠGd hbJ
ĠGN Qi
je cf
bO e
ĠGdG L
b jI
F j
ĠH gG
f Mf
ĠH f
ĠS ha
h I
ĠH c
T j
S c
Ge G
Qj Q
VG A
Ġh dcf
ĠHGd J
G P
hb a
ĠY e
b Q
ĠO hd
Mj M
ĠG Q
Ġe M
Qj c
K j
G W
g Pg
L O
Ġh bJ
U I
hd cf
h dG
ĠMS fG
N O
ĠGd R
G I
N P
ĠM b
c he
bj bI
H g
e h
P cQ
ĠGd dj
F jI
ĠQG F
cf J
Ġa Q
U Q
Gf hf
ĠGde M
ĠGdN GU
L j
h Qj
O J
Ġh S
ĠGdj he
ĠGdG T
ĠHN jQ
Ġ Oj
Ġe D
ĠJ S
Ġh j
Ġe S
ĠQ Ld
d Ge
b he
ĠN W
a Gd
jG A
Ġf Mf
ĠGdY Gde
Ġc eG
jc hf
Ġj he
S GJ
QH eG
ĠM Gd
ĠGN HQ
ĠTj FG
Rj R
ĠJ a
ej Y
ĠGde L
ĠGa Vd
Ġe cGf
Ye Gd
H c
bG F
ĠhG MO
ĠLej Y
ĠHGd e
ĠGdd LfI
Gf c
ĠGde D
QG F
G SJ
hb Y
j g
ĠGdG S
ĠGd jS
G b
ĠGf fj
ĠH eG
X e
g fG
ĠNd Gd
V M
h aj
S Gf
bj b
h M
ĠM j
Qj H
j LH
ĠGdJ f
Tc QG
SG A
Ġf J
ĠG K
bG A
Ġe QI
ĠGSJ WjY
G YJbO
U hd
b i
ĠM bG
ĠG YJbO
O O
W d
Ge j
ĠG jf
Qc I
ĠJ U
Ġa J
G T
gG H
ĠG YJ
QG I
h X
U Gd
h fG
GQ GJ
ĠG Yde
S jO
d eGPG
ĠJ O
Ġef P
Yd he
a X
dG A
Yd j
G jf
ĠG MH
H W
ĠU MjM
H Gd
ĠJ Q
ĠGd Hj
b GH
ĠGdYGe I
U a
S jI
c eG
Y jO
QG a
Ġj L
Ge I
fG eL
ĠGde T
SH H
Ġjecf c
ĠGde S
eQ M
ĠGde fG
ĠGj gG
ĠGdG a
ĠG Z
Qa I
dG b
W dH
Ġe fG
aj P
ĠGH OG
Ge Q
J eGY
cJ H
hd I
ĠGf j
Ġf X
ĠGd HQ
S ha
ĠQ H
Ġj T
GQ jO
Qj bI
Me O
ĠH d
g jG
Ġd SJ
Ġh b
Q jI
F d
ĠGdfG S
e Gf
ĠJ Yde
Ġj M
dG M
ĠMO K
Ġaj gG
Ġaj g
ĠGd GfJ
L g
Ġd gG
ĠJ SJ
Yd b
j R
G V
Q g
Ġh Gf
SGYO I
e GQ
Ydhe GJ
Ud J
Y fO
eQM HG
hO I
jG I
ĠGd hG
MS H
j H
dj d
h eG
Y jf
bO je
Ġj cf
ĠG g
ĠdOj c
QG b
ĠQ L
X je
Ġe g
O jO
ĠGdH dO
c dG
Ġj SJ
Ġj O
GH I
ĠGdS j
ĠS H
Ġh f
Y GJ
O i
ĠYdj gG
ĠM jGJ
ĠG hd
ĠOG F
Gd Gf
Ġ X
ĠGdQ Ld
ĠGdJ M
ĠH gPG
cd e
ĠJ H
GQ H
c QI
ĠT c
GL I
QG V
QG c
ĠGd gj
Ġh M
OG A
ĠGdQ FjS
ĠT F
OG O
a i
jG OI
S f
GQ c
L I
Gd H
W Q
b Y
ĠU Oj
Gf I
e Gd
R e
ĠM hd
Z G
e Kd
ĠH Pdc
Gd i
ĠGdOhd j
bJ d
b Hd
U GO
N GU
ĠGdc KjQ
h A
ĠS e
Ġdj SJ
L R
ĠGN J
HG M
ĠhGd O
Ġj hLO
hQ jI
e S
ĠHT cd
gfG c
ĠeY c
a jI
ĠeY j
ĠGd QG
Q Ge
Ġh c
ĠG aYd
Ġjecf fj
ĠG P
ĠGdM che
Ġj N
ĠH S
ĠGdGf SGf
Ġf Ye
h jd
Y hO
ĠK e
L Q
Gd dg
Ġb dJ
fS HI
ĠGdh W
ĠGdOhd jI
T GA
ĠGdG O
ĠGdS jO
MS f
Ġh R
Ġj S
X eI
H Zj
L f
Ġe hG
R jO
ĠhG MOI
c S
ĠGd V
QG L
G hg
Ġh ef
ĠGd OG
hd j
ĠGdG bJ
TQ hY
ĠG Hj
ĠSjO j
O Q
N Oe
ĠG MJ
Y jI
Ġb Gd
YG hf
ĠOhd GQ
G h
ĠH U
Y g
ĠGdh M
ĠGdT j
ĠQH eG
ĠGf fG
ĠG UO
e O
ĠP GJ
ĠS jchf
ĠR hL
d Gf
ĠJ MJ
a jf
h W
Ġ PG
ĠW Qjb
Ġh a
ĠJ Qc
Q e
eG A
Tc dI
b GJ
Gf H
ĠGdT Q
ĠGdJ b
YfO eG
ĠGda Q
Ġd fG
Ġj MOK
ĠGS e
Gd GJ
a g
ĠN GU
Ġh aj
Ġj HOh
Ġ be
Y f
ĠJ c
Ġ Qa
SG Fd
Ġe K
ĠYdj fG
R I
Ġe h
R Gd
ĠOGF eG
Ġe U
QG O
d PG
J Y
ĠGN P
ĠMj K
Ġd eGPG
Ġ Qj
M h
H GO
ja I
hL g
Ġb W
ĠGdP jf
b U
Gc jO
GQ S
T QI
Q jf
ĠMb hb
c j
ĠO Y
Z d
Kj QG
Ġef g
ĠdOj fG
ĠQG jJ
ĠO hf
Ġd Y
Q S
Gd d
Gf GJ
ĠGe Q
f Gf
ĠGb hd
fG J
ĠK dG
NO Ge
c PG
ĠGdG M
H GJ
W bI
Gc O
ce I
ĠGdG Y
ĠGdb Gfhf
Yj T
G Se
Ġa V
eY jI
jO G
Ġaj eG
d GJ
f hf
Ġef c
Qc R
ĠJb hd
ĠGS a
j L
Ġb dj
hG A
GQ J
S W
Gd g
Ġh GfG
ĠGdGe f
ĠjY fj
Ġh VY
ĠTc QG
Hj H
ĠH W
GH b
ĠGde N
L e
Ġa Gf
Ġc e
Ġf a
ĠGda J
ĠGdH M
G Oj
Ġe c
Ġef gG
O g
f jf
ĠGdHdO Gf
ĠJ W
H OG
ĠH Ge
ĠGf ge
H GH
Gd a
Gf XQ
Ġh GfJ
a bW
G MH
Ġe dj
ĠGdG b
ĠW dH
ĠG PgH
aG bjI
ĠG chf
Ġg jG
ef i
Qj HG
ĠGde cGf
ĠY OO
ĠGda b
ĠGd bj
R Y
Ġj QjO
ĠJe GeG
jO j
Z jQI
ĠQ FjS
h jJ
ĠL R
ĠGdj g
h Oj
ĠQ D
ĠGdK Gfj
ĠGdS dGe
dj GJ
ĠGY W
Ġe dG
fO b
Ġh d
H jQI
J fG
Ġa bO
Je Q
ĠGdb QGQ
ĠGdS jG
QG g
Z e
ĠYf g
L ejY
Ġe GJ
Ġc KjQG
MJ i
ĠO hQ
N j
Gd M
h jf
Ġe j
ĠH Mb
Ġf S
L G
ĠQGF Y
ĠG ej
L GQ
Ġc J
GH Y
ĠGde hG
ĠHGd fSHI
ĠGdNGU I
ĠGddj dI
ĠG QO
Ġe Q
a c
Hd Z
dG O
R hL
Ġe LdS
Ġj YQa
Ġa Y
bO Q
ZG jI
GH GJ
f Y
HG A
ĠGdT NU
ĠGdf a
Ġef j
Ġa MSH
Sd MI
W GQ
Ġd gPG
Ġc HjQ
Yd bI
Ġb GO
ĠJ cf
ĠGd jc
Z H
gG jI
Ġd M
Ġh T
HY V
J Qc
ĠH OG
MX I
G hd
b Gd
Ġb QGQ
Ġb Jd
ĠGdL R
P Q
Ġd GJ
W H
D dGA
G cd
hGQ O
ej d
D hd
Ġe eJ
W HY
ĠhL g
Ġbdj dG
Gd Pj
M GO
ĠJ SJWjY
ĠN GQL
X Ge
ĠGd dG
ĠY GF
ĠGdGe hQ
Gf ge
Je Y
Ġh gh
Gf jG
eG jI
V jI
f H
Ġj Je
HM K
Ġc j
ĠT Q
O OG
Ġe eG
ĠG bJ
h bO
Ġj bhd
ĠGdGW aGd
d a
ĠH SHH
Ġd W
Gg O
ĠH Gfg
Ġh Q
ĠY Oe
ĠaYd J
c I
R Ge
jQ Gf
GH j
SG S
Ġdd ZGjI
N Q
ĠH GQ
ĠGde LdS
ĠV O
ĠHO hf
g eG
ĠGdM bjbI
ĠH b
eh YI
GP f
R G
ĠLjO G
ĠeN Jd
GN HQ
ĠM jf
h Sj
ĠJ YJbO
ĠL jOI
hV hY
ĠGdL fS
Ġb Ge
ge I
M je
G Vj
j T
T a
h Hj
ĠjJ Ydb
ĠGc HQ
ĠY dG
Ġe MeO
ĠLO jO
ĠGdM b
H YO
ĠGde QGI
Ġjf HZj
Ġj c
ĠHG S
T WI
ĠHGf c
ĠGdGW QGa
K e
Ġc dG
ĠGd cd
ĠGde YdheGJ
ĠM d
aG b
Ġg e
M d
ĠG cJ
ĠhGd dg
ĠG QJ
ĠG R
jf g
ĠT Y
ĠGH f
ĠGdGN Qi
ĠGdJ Y
Mb b
ĠGdL eYjI
ĠGdeJ YdbI
fG hd
g hO
ĠGe Ge
W Y
ĠSf hGJ
ĠeL QO
ĠLej YG
Ġj Q
h T
ĠhL hO
ĠhGd G
YO I
N HQ
ĠGdef Rd
Gd Y
M bG
ĠJf ajP
ĠdOj g
cQ g
ĠJ d
j HOh
ĠGdL O
ĠGde U
j b
h K
Z W
ĠGdGT jGA
P H
ĠGdM jGI
bW Y
GQj N
ĠHGd G
Ġj e
ĠS d
Ġg cPG
ĠGde GOI
Ġe b
Ġd PG
ĠH jJ
Ġ PgH
ĠGdL ejY
Ge dI
Ġd Pdc
X Qj
he f
ĠQ be
ĠGdP gGH
aJ QV
Hj d
Ġb d
ĠGf XQ
h jQ
c G
ĠGdW Qjb
ĠS jG
ĠG QL
ĠGdS d
H S
X gQ
Ġh U
jG g
GH J
ĠYed jI
a V
ĠQ S
ĠGdGL JeGY
TQ jf
Z GO
Ġj aYd
QH jI
Gd O
h GfG
Ġdd M
ĠJ hG
QGA GJ
h QG
ĠeY g
Ġf j
ĠGdJ U
b hO
Ġd Oi
Ġjecf fG
Ġj U
Ġe TQhY
Sd Ge
ĠGdGhd i
ĠGdGe jf
Oe GJ
ĠHQ fGeL
GJ a
ĠeY G
Ġe QJ
ĠGdG YeGd
ĠGdG MJ
ĠM GdI
d SJ
Ġc G
g Je
ĠM bj
ĠeL OOG
ĠGde Gd
ĠGdGQ V
V e
ĠJb he
ĠGdfa W
hL hO
eg hQjI
Qj eI
g f
Ġd ce
ĠHM GLI
ĠGdhM jO
Ġa cQI
hd hL
GH YI
M jI
Ġf hY
G YI
ĠaV dc
N QL
ĠfaS c
O a
QG H
ĠGdL f
h HQ
Z I
Ġd eG
ĠGdQ L
Ġc fG
MO jO
fO hb
ĠeL Gd
Ġc HjQI
Yd je
W b
Xe GJ
ĠdG jc
ĠGdhW fjI
G YQa
d jf
Ġef J
Ġe TcdI
ĠJb QjQ
hQ c
ĠH fG
Q Ld
S hf
ĠS fI
f a
ĠH cd
ĠL f
OG HjQ
Ġdc j
ĠOG Nd
ĠSe YJ
ĠGdG H
Q N
c GfJ
ĠGdG YJ
h HI
H jf
ĠH L
ĠJ GN
ĠGde SGYOI
J fj
b T
GQ G
Ġj a
Ġedj hf
ĠGdN GQL
ĠGda Qjb
jecf c
ĠS Q
ĠdG j
ĠSJ chf
Ġh Y
ĠGdG U
GJ g
ĠS Y
Gj gG
ĠL j
ĠS YjO
Ge L
hG L
Ġb GF
Ġb J
ĠGdY e
M g
U dI
ĠGdM Uhd
ĠG cf
G Yde
Ġd ge
jJ c
ĠGdJ L
QL I
Ġd T
T G
hL H
i A
GQ jI
ĠGdab QI
ĠGdG K
ĠGdh dG
Ġj Yed
H Gf
ĠK GfjI
Ġe SGYO
ĠGdTQ WI
L GJ
Oj K
ĠJ Yed
J Q
Ġe QM
Ġj fJ
ĠJ MH
M Ud
ĠGd Gd
aG A
ĠHGd aYd
Ġd S
ĠJJ MOK
ĠfaS g
bGH d
ĠGdG SG
Ġg f
W Gd
ĠJ D
g i
ĠG Xf
d i
Gd S
ĠHg Pg
ĠGdL Mje
ĠGb d
ĠGdh R
cJ hQ
QH I
N hd
bQ Q
Ġj D
ĠHGe cGf
Ġf Mh
a dI
Qj J
ĠGdfG Q
ĠGde dG
VG aI
ĠY TQ
ĠGdTj A
ĠG Qi
ĠG YeGd
Ġf L
ĠHG SJ
b a
ĠGdH Y
ĠGdOhd I
ĠG ge
Ġh cGf
Ġg DdGA
ĠJ PgH
M Qc
ĠGdK Gd
ĠGde GF
ĠGdb W
ĠJ bOje
GY fj
ĠG V
ĠUOj b
ĠGd bO
ĠGSJ NOGe
Ġe d
hV Y
ĠGdS f
H jI
Gd ej
ĠGdH GH
L Y
ĠGd Qj
d jI
HGQ c
ĠGd bGF
Ġe jJ
O jf
Gd L
ĠH dG
Ġh gj
ĠGN j
ĠGde MJ
Y GOI
ĠN j
GF Q
Ġb U
ĠGd Oj
ĠLO jOI
Ġh bO
ĠL Yd
Ġf U
Ġb Q
Ġd ef
Ge jf
ĠGdG SH
ĠGde dc
ĠGW GQ
fG S
ĠGdQL Gd
V I
J eG
W GJ
Ġe V
Yd jc
H H
ĠJ Se
Y HI
ĠGdH TQ
f R
ĠgPG Gd
ĠY O
ĠGdGa Vd
ĠH dO
Ga MI
ĠGdhG bY
Ġg G
ĠGdf XQ
OG a
ĠW hj
. .
ĠM UdJ
hf g
Ġj bhe
Oj b
ĠGde TGQ
Y Ge
Ġd O
ĠGdGb dj
Ge f
ĠGdN W
F GJ
ĠGdSj GQI
GH bI
ĠcGf hf
P I
ĠGQO J
ĠGdbj Ge
Qj G
ĠHf aS
GS a
J U
Y RjR
ĠJN HQ
Ġa Qjb
he I
Ġef ge
ĠGd Ld
ĠSH H
UO b
Ġe HG
ĠGde g
ĠGdGbJ UGO
hQ GJ
ĠGdG Z
ĠGh dG
Ġd LfI
Q Hj
ĠJ fJ
fG g
c O
GQ g
ĠGdb GO
G Xf
ĠhG SJ
h Z
h HG
Ġh Ydi
hG H
T J
ĠGdGY VGA
ĠL hf
e dc
Ġe R
e jf
F c
ĠJ MJGL
ĠW hGd
jJ gG
QG W
ĠGT YQ
ĠGdS GYI
Ġh X
ĠH SQ
ĠY GO
ĠGj Ge
M Q
aG Y
M jf
eG O
ĠGdG j
b dJ
ĠGd bG
ĠY Qa
Ġe cJH
Ġc GQ
ĠGdG bd
L Yd
Qjb jG
ĠY HQ
ĠHG j
ĠGdJf ejI
YJ HQ
hQ O
GN Q
P c
ĠU hJ
ĠhGd Y
ĠhGd S
aJ M
hG F
bGF b
ĠW Hj
ĠG i
c Ge
ĠhL O
ĠLej d
ĠGdM e
ĠM R
f c
Ġj MH
ĠJY RjR
M U
ĠLR A
ĠH Z
T Gf
bG W
ĠY RjR
h Jj
ĠGdGJ UGd
bj je
ĠGdGJ MGO
D hf
ĠGdj gG
Ġbe J
Ge jI
ĠGdJ YGhf
Ġe a
jJ g
J dc
ĠGdeO jfI
ĠJ ha
ĠaYd g
ĠGdeGF I
O eI
Wd Y
ĠHGd c
ĠMjGJ j
ĠGdGf eG
a bI
Ġh eG
VM c
ĠGdP i
ĠQG j
SJ Gf
ĠG eG
ĠZ QaI
Zj jQ
ĠeJ GcO
Ġh ZjQ
ĠKdG KI
Gd f
h gPG
ĠJ G
ĠH fGA
Ġe Qj
g hQ
Q SI
hd O
GQ O
Ġdd Y
ĠhS de
Ġh O
W db
ĠLO hd
ĠG Yd
Ġf T
GJ gG
ĠG YO
ĠGdHQ fGeL
Yj jf
ĠGda fOb
ĠJM bjb
R eI
Tj A
ĠG ef
g dG
ĠGdGT NGU
ĠddJ h
ĠY bO
N J
N dj
ĠYf c
ĠM e
ĠGdJ O
ĠHGd M
D Gd
ĠGde a
ĠGdf SGA
ĠG QH
ĠNGU I
ĠfX Ge
ĠW QjbI
Y c
K b
Ġdd O
aJ QI
GF L
Ġa ge
ĠGde Q
ĠGS H
ĠGdY O
ĠGde fJ
ĠGdS HH
Ġj SJWjY
Ġh V
Ġdd g
J jf
ĠGde SG
ĠGdN jQ
hG YO
ĠGMH c
ĠY fj
Ġd H
Ġdd f
Y i
ĠGd MO
ĠM che
ĠeL ehYI
he j
h gG
h SJ
jf jI
Ġj H
h YI
Ġh GJ
W a
K dG
Ġf gGjI
ĠJ MOK
ĠcGf hG
ĠGdf h
Y fI
ĠG MJGL
ĠhGd GL
ĠS Qj
K Gd
Ġb H
ĠGdMche I
ĠhGd f
QG MI
ĠO bjbI
Ġdd S
L jO
ĠaY dG
GH g
h YG
Ġh de
Ġdj dI
ĠaJ QI
Qc GJ
je I
ĠY QV
f ajP
ĠYf gG
ĠGj L
Nd U
Mb hb
ĠHGd f
WG b
ĠGdGN Q
ĠGdG SdMI
Ġd cd
Ġfa Sj
Gd b
ĠGa QjbjG
ĠSG YI
Y QGV
ĠJ bOe
Q Y
ĠGO GQI
Ġe GQ
ĠG jI
Ġb Gfhf
ĠGdJ T
ĠS jJ
hX ajf
ĠM Ud
a ge
GY W
ĠJ Qi
Ġd Gfg
S g
Ġc hf
e c
ĠU O
ĠGg Je
NU hU
UO Q
Gf O
ĠS h
Ġb dH
Xf fJ
ĠGP f
Gdd ge
ĠGK fGA
ĠGS eY
ĠJQjO jf
ĠKdG K
ĠGde RjO
GF b
ĠGde W
Ġf PgH
ĠLej dI
ĠGdW ad
ĠGU HM
Ġd Q
hGd Gf
ĠGdJ MOK
ĠGdM bj
Ġc Qj
J ge
ĠY H
Ġj d
Ġj Yde
ĠGde hJ
ĠGdJb QjQ
V ef
g H
W Gf
hG Ud
H MJ
GQ jQ
Ġe QG
ĠV Q
Ġj b
hf I
ĠaJ GI
ĠGdK GfjI
ĠG Jj
f ejI
ĠGd Yd
ĠY HO
ĠGde GVj
GfJ XQ
ĠGdOG Nd
ĠGa ge
Ġh YO
Oj c
ĠGT J
ĠGdeL JeY
ĠGa cQ
N GP
ĠaQ UI
Jj GJ
Ġh jf
S SGJ
j jf
ĠGdL OjO
X GQ
ĠeG j
bO eI
QJ c
Ġe dc
ĠGdLO jOI
ĠGdU ZjQI
ĠQ M
GQ Y
ĠGdG c
ĠGde GdjI
QGJ jL
QG M
ĠL Gc
ĠGdGe Qjc
ĠGdGf S
ĠGdhdG jGJ
Ġe MJ
GJ c
Ġe Qg
ĠGdY Gdej
Ġa hb
ĠGdeY fj
ĠGde hGQO
ĠGdeY fjI
ĠjL Qj
ĠM Ghd
ĠGdG Yd
Ġdd Ge
ĠGd be
ĠGdb Q
dj R
Gd jS
ĠGdf XGe
ĠGde YG
d hd
Ġb hd
Z Q
dOj fG
ĠGdeM ceI
MS jf
h GfJ
Se HQ
Qa b
ĠGL JeGY
ĠU ZjQ
ĠHGd b
L jd
N W
Q hL
ĠGdW QjbI
ĠJ HOh
ĠGS aI
ĠQGF YI
ĠL GfH
T NU
N H
Ġh Pdc
ĠHY jOG
Ġe YdheGJ
GV jI
U j
Oj d
ej R
b Ge
Ġh W
M K
GF a
HGd WHY
ĠGdW Hj
ĠeJ i
ĠGdY Xje
Ġc Gd
ĠGdef WbI
ĠJb d
V HW
ĠGdW Qa
h Ud
ĠGdGJ aGbjI
ef Rd
R f
ĠJ hba
Ġj ge
ĠJ Xf
ĠGdY QGb
L F
Ġha bG
Ġf aYd
ĠhGd M
ĠU ZjQI
jecf fj
Ġh MO
ĠeD N
ĠJ TQjf
gG R
ĠG hO
ĠGdYGde jI
hj GJ
ĠGfJ XQ
ĠGde QI
Y GQ
Qj a
ĠZ OG
ĠeHG TQI
ĠGdGbJUGO jI
HG W
ĠdG MbG
NO QGJ
cQ J
fG FjI
ĠH GH
g L
QG SI
M hd
ĠJT YQ
J YQa
ĠTj F
L Gg
GJ Yde
a bO
ĠeG jc
Ġdd b
dJ c
T d
Ġc f
ĠHGdJ GcjO
Se jI
ĠGdeD QN
ĠQa Gb
ĠGN HGQ
ĠGde hVhY
Ġj Se
dG a
ĠM SH
ĠHGd S
ĠGdGSG SjI
ĠQG jc
ĠV Y
e b
ĠSj GQI
Ġdg Pg
ĠGdHj J
ĠGdU dI
ĠQL Gd
Gf S
ĠGdO hQI
ĠOj SeHQ
a f
g I
ĠGdK dG
ĠGde d
dj e
GSe Y
ĠJa ge
X d
Ġc Q
ĠH GJ
b P
ĠeQM HG
S jchf
Ġe MO
G Z
hGd dg
h Gdj
ĠG MGhd
Ġj QGe
ĠH hG
dc fj
ĠjL Yd
ĠYdG bI
ĠGdMche jI
L GR
Ġe ecf
Hj J
e HQ
U Qa
Ġe SG
ĠGM OG
fJ jf
ĠGdM H
Ġa d
ĠhL OJ
dOj c
U HM
ĠHSQ YI
ĠhG M
ĠGdM j
ĠHe hLH
N GQL
hG O
h OG
ĠYRjR Jj
hL jg
Ġh gPG
ĠeY gG
GJ d
ĠGb he
Sj b
ĠGNHQ c
ĠR j
ĠJ hb
ĠY OI
U GU
ĠGdaJ QI
ĠJ Z
eg dG
ĠdW ja
Gd GeQ
ĠGY GOI
ej jR
ĠGdb VG
ĠGdGN jQI
SJ Q
ĠJ QG
ĠGdGSH hY
ĠdOj gG
e SI
F e
O jI
J T
hd e
ĠYe djGJ
ĠY eQ
Ġj fG
ĠH QG
Ġd b
ĠG VG
ĠY Xje
ĠL eghQjI
M jd
ĠGQL hc
MG aX
Ġe YO
ĠGN QL
U hU
Gf fj
ĠeeJ GR
ĠGdQ S
ĠhG S
Ġdd L
Ġef WbI
Ġe hbY
Y W
dG HO
ĠGe QGI
ĠGd bOje
h N
ĠGdW G
U GOj
ĠYdj ge
Ġc KjQ
ĠGSJ eQ
Ġgf Gdc
ĠT QcI
QG Y
ĠGdM QH
ĠGdc J
ĠS Ge
ĠGJ MOK
O hf
ĠGdY OjO
G aI
dG Z
L jf
bJ QM
YG A
fj g
G K
ĠO bGFb
ĠGdU ZjQ
R M
ĠGdS jOI
Ġe ge
Y QV
Ġjc aj
ef P
Ġef XeI
bH Gd
ĠGdN Ge
QGb HI
H YI
Ġe QcR
Mj W
Ġdd T
ĠhR GQI
ĠGda d
ĠGdO e
ĠM Gdc
ĠYd e
c jf
ĠGf f
ĠGde H
ĠJ OY
ĠGdaJ GI
ĠGdS dGM
U M
Ġde OI
ĠGdHTQ jI
Qj W
GQ i
ĠY Gde
GF QI
Ġh Ud
ĠeY fG
hG P
S HI
ĠY b
ĠdGf c
ĠR jGOI
ĠGdhW fj
S a
QH J
HGO F
bW I
ĠJ GJj
h cGf
eJ Y
T i
ĠG QG
ĠH jQ
ĠGe Qjc
Ġc Ga
Ġf YQa
ĠHGf fj
Q R
Ġe Gd
ĠO Ye
ĠGdT Y
Jj LI
Ġb GH
ĠM jGI
ĠGdGQ gGH
bJ c
ĠGY VGA
Ġef Rd
hS W
ĠeNJd a
ĠL d
ĠJYQa jf
H QG
ĠGdeT J
ĠGdeS Dhd
ĠGde Z
Ġd i
ĠJ V
ĠWhj dI
ĠGdeO QSI
ĠGUO b
bO jQ
ĠJ PcQ
ĠGdZ QaI
ĠGdG hQ
ĠdG SJ
JeG Yj
ĠGdS GHbI
hQj G
U H
ĠHjf eG
GF dI
Ydj fG
ZGO Q
ĠS GJ
R dJ
ĠJb QjHG
Ġb fG
T O
ĠGdU HGM
Ge YI
ĠGdfG ejI
S Ge
ĠT gQ
ĠHO GJ
ĠG hQ
hd i
ĠGdO Ye
Ġe hX
ĠJGN P
P d
ĠL Gg
JY Gd
ĠYdjc e
Mj GfG
GQL hc
Ġe aJ
L he
G PgH
ĠG SGS
ĠGdN OeGJ
ĠGH h
M Gf
Ġj MJGL
L QI
ĠGT jGA
c GQ
ĠhGd T
f jG
ĠY jO
ce d
Ġj GQH
ĠW ad
ĠGU HMJ
ĠTNU G
ĠGdJ Ydje
Ġh GH
ĠbO e
ĠGdQFjS jI
ĠG Tc
ĠT iA
ĠZ QjH
Ġg g
ĠQL GA
ĠGde j
ha Q
a jO
ĠhGd Gf
Qj M
ĠGfJ e
ĠeD JeQ
Ġb QjHG
hU jGJ
HG g
ĠGL QGA
Kj bI
ĠGd X
Hj Y
ĠJ MGhd
ĠeL fhf
H GdJ
ĠG Yed
Gd SjO
J Yde
QL Y
ĠHGd WHY
Ġe W
ĠHGd VHW
dc e
ĠN WG
e hY
H Qj
ĠQD jI
c GJ
ĠU d
Ġe hL
dG MX
YJ eO
hj hQc
ĠY V
ĠU M
ĠGdGO GQI
hQ g
YG jI
ej e
g GJ
hQ L
j fG
S jf
e K
Ġe Z
GJ efi
ĠGSH hY
a Vd
hc hd
ĠGdM GdI
ĠW H
ĠhGd Oj
S cQ
ĠGT gQ
ĠN jQ
Ġj OY
ĠGdS Lf
h Ge
Ġe H
Ġh cd
Ġc dg
Ġe cJ
Me b
hd f
Ġh djS
Ġd MXI
dG Y
ĠS jQ
ĠN WI
ĠGN Jj
M bjb
ĠGQ S
Hj b
QG S
ĠGde ecf
ĠGde cJH
ĠUOj bj
ĠGdGbJ UGOj
ĠGdJ i
QGF Y
ĠSY jOI
W QI
Qj GJ
hG Y
ĠGf TGA
ĠeO i
GQ OI
Ġh dO
Ġef R
ĠPgH J
ĠGge jI
ĠMS f
Mj K
ĠGdY hOI
d eG
L GI
Ġf Ua
ĠGdS a
ĠdG Ld
ĠGdY f
ĠGdY QHjI
hG Lg
Hd O
jG LGJ
ĠS jf
Qj bj
M VQ
ĠGd aj
Qj d
dj dI
HQ fGeL
ĠGjL GO
hGf jf
cf hdhL
jS j
ĠJ ZjQ
Gd ja
ĠGde GA
ĠeY QaI
ĠW j
GJ QjO
ĠG jG
ĠGdYGe d
ĠeO jfI
ĠeSJ hi
Ġj heG
Ġc Ge
e GJ
Rj Rj
T ai
Gd T
bj J
d Gfg
ĠGdG g
GO jI
Y Ged
ĠSj FI
fG Fj
UGd M
ĠGdYed jI
ĠGdd ge
Ġf SJWjY
Q hS
ĠGdJ S
ĠHG Se
ĠJ hLO
ĠHGf gG
ĠeJ Gc
b g
ĠMjGJ c
bj e
Ġg i
Q ha
ĠGde GVjI
ĠHGd Z
Ġj hfj
ĠGdGbdj ejI
SG F
J G
ĠhGd Jj
ĠT GA
Gd Z
ĠGdY H
M ed
ĠJaYd g
V i
ĠGddj d
Y GO
ĠGdJ GdjI
ĠGdS Q
ĠGd chf
Gg OI
eJ i
H bi
ĠGdGW dGb
Gd eG
ĠGO Qj
c h
H f
Qj HI
ĠdOj ge
ĠYGe G
ĠSj eG
Ġhc Pdc
ĠL GA
jc G
ĠGJ efi
ĠG SG
g GQ
ĠGdM Gd
Ġdcf g
XQ ha
S GH
ĠGdh c
QGW jI
ĠJL Yd
Ġd L
ĠhGd b
ĠeS GdI
Gd Q
G YJ
Ġc K
ĠYf Oj
ĠHGd dg
ĠGdh Uhd
Pg Hj
Gg QI
ĠhGd L
ĠM dh
Q hf
hQ J
ĠGfJ g
ĠW hjd
Ġf WGb
J b
edc I
ĠS c
ĠGde hbY
ĠGdW YGe
ĠGdeD JeQ
ĠGJ NGP
ĠJ fGhd
ĠGdbGF eI
ĠGd ha
ĠGH J
ĠHU hQI
Ġf e
F g
ĠGM V
ĠH Sj
ĠGdL QjeI
ĠGdef XeGJ
ĠGdJ aG
ĠGJ Ud
ĠGdf he
hf c
fG c
ĠGdg GJa
ĠGdH fO
ĠGde hXajf
ĠGdef XeI
g Ge
ĠH hS
dj SJ
jR GfjI
ĠU GM
a h
F dI
Ġfj hjhQc
aj g
GdJ RGe
M GH
J hba
ĠGdS GHb
ĠHGd O
d Pdc
ĠMGd jG
gG O
MGhd I
jG O
WG bI
Ġd aJQI
ĠM V
S i
G MJGL
Ġcd eI
ĠGW aGd
ĠT cd
Ġb GdJ
gO a
Hc I
Q h
Ġd jf
Ġa G
eGQ SI
Ġj YO
Y OGO
Ġj dj
F J
ĠGS eg
jb X
ĠhGd ef
ac jQ
ĠhGdO c
GO Q
ĠJM ed
TQ WI
ĠGd hb
ĠW a
ĠJ fG
ĠH H
Ġe SGYOI
eGd Pj
ĠJb db
ĠGM VQ
GO K
ĠY fG
OY fj
U HGM
Ġe jd
Ġb hI
ĠGS d
ĠQS GdI
QGF e
ĠGMO ge
ĠGde bQQ
ĠGdfh hjI
ĠJY fj
ĠGde NOQGJ
ĠH NUhU
hJ hchd
ĠS Jj
ĠGdefG SH
Ġj PgH
ĠGe c
ĠGb UO
Ġf XQ
ĠGde R
eb QGWjI
ĠU GMH
ĠHW QjbI
U jd
Y dc
L GL
ĠGJ ab
ĠjM Ud
Gf fG
Qa Y
L M
ĠGdN QhL
ĠSJ aYd
ĠGdLR A
ĠGdGN Qjf
Ġe bGHd
ĠJYde jf
ĠY U
QGF jd
ĠGdeO fj
Ge c
G MI
ĠJ MOjO
ĠGJ aGbjI
F H
Gg dG
ĠbJ dJ
ĠGdh VY
Oj h
ĠGdZ Qa
Ġb G
ĠhGd U
ĠJchf j
ĠS hi
a Sj
ĠGdGLJeGY jI
ĠHGd Ge
ĠJ j
ĠM X
ĠGd HG
ĠGdeM djI
ĠPG gH
OG Nd
Ġb jO
ĠGdKGd KI
Ġh Sj
Ġe eKd
G jI
N eS
ĠGd QH
Ġe UQ
S O
O h
dg PG
bG P
Ġj MGhd
ĠGde aJQV
ĠHGd Y
ĠJ GQjN
ĠSG YO
Ġj RGd
G SJWjY
Ġh eY
ĠGdHY V
Ġg GJ
ĠS GH
Ġj GJj
ĠL Gf
bT I
ĠhH YO
dG L
Ga Vd
ĠGdJf ajP
ĠMbj bj
ĠN eS
ĠL h
ĠGdKGd K
P jf
ĠGdT YH
J HG
Ġc Ged
ĠbGF eI
Gd W
gG A
ĠGe S
Ġh GO
LH fj
hG j
ĠN OeGJ
QGJjL jI
OG F
MO O
a GJ
ĠJ g
ĠGde h
ĠM eGjI
GJ YQa
Ġa N
e hf
ĠJ YO
Ġdd Yed
ĠZ Qa
hJ Q
J QjO
ĠGdS fI
hG I
ĠGdN H
Ġj MJ
ĠeSJ YO
ĠP cQ
ĠY TQI
P QI
Ġcd gG
ĠGj JgG
Y hOj
Ġg GQ
ĠGdJ OGHjQ
ĠGdGeQjc jI
hj V
ĠGdH bGA
QGL Y
ĠGdM d
ĠdY Ge
ĠGdU M
Gd LI
ĠV ef
Z h
Ġc hd
f g
ĠGdG h
ĠS Gf
ĠGdHj GfGJ
ĠGdbW GY
ĠGdS GO
ĠJM Ud
Qj S
ĠGdd Yjf
ĠGdhM jOI
ĠdG L
ĠJa cQ
ĠaQ U
ĠH ge
hj g
ĠMR jQGf
QM d
a hf
ĠSG YGJ
L hR
ĠGdGN J
Ġf SJ
a P
ĠGdJ Gdj
ĠGfJ gi
ĠY eG
ĠGdGfeG FjI
ĠY TGf
Ġh jJ
Z jd
dG H
ĠGdH OG
ĠGde TcdI
Ġdd a
Ġf QjO
Ġeh YO
Ġec GaMI
YhO jI
hG ab
Q fJ
ĠH Yed
ĠS Hjd
Ġd dc
ĠG cd
ĠGdad SW
ĠGd VQ
ĠM H
ĠSj A
ĠMGd GJ
ĠW G
ĠJf XQ
ĠGdHM Q
ĠeN W
ĠJ eJ
Ġd Mbhb
Ġdcf j
Ġj GQ
aG X
ĠL ghO
fO SI
M c
ĠGde MG
ĠGdeSJ hi
QG R
Ġh GQ
ĠJ RGd
ĠGdc HjQ
ĠGdT e
Ġe Gf
ĠYQa J
ĠGdS cGf
ĠdGf fj
H jG
OY fG
hb GJ
Ġjhfj g
ĠGdehG O
X ja
GW Q
ĠL je
ĠG aJ
ĠGdGj Ge
T cd
GF OI
ĠH hd
ĠeNJd aI
ĠGdb VjI
ĠJ Ydj
hg h
PG A
gJe Ge
J f
Ġef Y
Z Gf
ĠGdU a
ĠY jf
jecf fG
ĠGdT Qb
j A
ĠM aX
ĠS ja
NGU I
hH GJ
ĠU a
j GQ
T I
ĠGde b
Ġe hLhO
ĠN GF
ĠH fj
Ġe GQS
H V
b c
Ġd U
Gf XQj
Q Gd
ĠGde jGg
h jO
ĠGdY fa
O GeI
SjO j
ĠjG NP
Ġj LO
ĠGY fj
P jI
ĠeS Dhd
ĠhV YJ
Ġh jd
Ġb QjH
ĠJha jQ
Ġh Tc
ĠGde QcR
ĠR Gd
ĠGde SGFd
ĠMche I
ĠGdGf TWI
ĠJN QL
dj hf
ĠGdeSJ bHd
GN QL
c fG
ĠM HjH
GN P
Ġf ha
hS ha
ĠHGd GeQ
G gd
Oj g
Ġe bO
Ġf hYG
S WI
RY L
ĠGd jG
Z aQ
Ġd YH
ĠGdh GQOI
c GaMI
ĠfJ MOK
ĠGf T
GfJ e
Ld I
QG bH
Je HQ
ĠGdbGO eI
ĠGdGe GfI
hH YO
ĠGd GQL
Ġjecf g
V QH
Ġb VjI
ĠN QL
ĠGY OGO
ĠGdL GfH
g g
ĠeT Gcd
ĠGde ge
ĠSH JeHQ
ĠGdL ghO
ĠGdf hY
ĠdQ D
Ġf bd
gh I
jOj h
ĠP c
e dI
ĠGf Jj
ĠU fOhb
Ġj SGYO
ĠS Ld
ĠM Hj
ĠGdb U
hd jg
je jG
ĠGe d
Ġj bOe
ĠJ hO
GW F
ĠJ aG
ĠJY hO
K GFb
Ġf chf
ĠS fJ
ĠeSGYO Jc
a R
ĠhGd GSJ
fJ GFL
j hf
ĠGdf X
Ġh MSH
YO c
Ġdd LfI
ĠGf a
ĠddGe e
h MI
Ġj YjT
ĠGdGL QGAGJ
W f
ĠM GLI
GO d
ĠJY Gd
Ġf jc
ĠH a
dj H
ĠGdGN jQ
eG YI
W g
ĠfaS gG
ĠJ OGHjQ
ĠQG S
Qj g
ĠW d
ĠGJ PcQ
b jf
Ġe hJ
Ġb UI
F eI
ĠJU HM
SJ chf
Ġb Se
ĠGde TQhY
N I
ĠJ SGYO
djR jI
ĠGdGfS GfjI
ĠGUO bGA
j U
d d
hH jI
ĠGdG Ud
ĠOhd I
NU U
ĠGdJL GQI
ĠGNHQ Jc
ĠGde YJ
Ġef ce
ĠGdU fOhb
ĠJ ZjjQ
ĠSj GQ
ĠH Qj
ĠU hQI
T f
ĠS N
ĠGQjO c
Ġe MG
ĠjJ MOK
ĠQ c
W hQ
ĠGdbGfhf jI
ĠGdJM bjb
ĠGdY b
ĠWdH J
ĠGW dGb
Ġe HQ
Ġdd efRd
ĠGdj hf
P cQI
ĠGf fi
ĠGJ Qc
ĠNd a
S de
ĠGdaQ YjI
K GJ
ĠH Gfj
Ġd Z
N aV
h eGPG
GQjO c
ĠJT GQ
VG Y
ĠjY hO
aG a
Ġe bG
ĠU Mj
ĠN Qj
M GJ
ĠJ WdH
ĠHG c
ĠJ QJ
ĠGde TQ
MG jG
Ġb db
L hf
ej dI
ĠGdMbj bj
ĠSG chf
ĠJaYd jf
Y fj
ĠhGd GJ
ĠGd Gde
ĠGdOGNd jI
MH g
Ġf MJGL
K hQ
ĠGdQ SejI
ĠH jd
V H
ĠJY QV
ĠM Q
HGdJ GcjO
aG jI
ĠJH bi
ĠeDN QG
ĠJe hR
ĠGdL jO
ĠGde jRGfjI
SJ j
V jY
ĠS HM
ĠZ GV
ĠO QG
dH jI
ĠGdO Nhd
ĠYe dG
GT YQ
X Gg
ĠHGd a
Ġe Mb
ĠH Ye
ĠeK dc
Ġf bU
ĠGdOj ebQGWjI
ĠSjO Jj
Ġh UdJ
ĠYGF dI
S GQ
Ġef X
Ġj Ud
Gd Jj
ScQ jI
Ġd Ge
YQa I
HGQ GI
ĠGdU fG
ĠGdGSJ K
HdO Gf
jO Gf
ĠGf TWI
ĠGdHM K
Ġe RjO
Ġdj T
Ġeg eG
ĠQGF YG
ĠO e
ĠcJ GH
Ġj Z
ĠS jOI
G hO
ĠR dJ
hGd O
MG A
b QGQ
Ġb j
QM dI
Ġfha eHQ
ĠGcJ hHQ
L Gf
ĠGe J
Y hf
GQ a
ĠG KQ
ĠGdefG Wb
P GQ
ĠGdSjG SjI
jQ hS
ĠfX QI
f aS
dJ g
Ld H
ĠhR jQ
OG K
ĠGde bOeI
ĠGJj J
ĠL jf
L GH
W e
ĠN eSI
fG O
ĠGdJ c
ĠL G
Gdd YfI
ĠGS W
U J
ĠGd Yde
bJ g
ĠGf aS
Ġe QGJ
hLg I
Ġa GQ
Ġj hdjg
ĠGdU MI
ĠhG VM
ĠGH Qjd
ĠO aY
ĠhGdJ fejI
ĠL GF
ĠGdJ ejjR
ĠGL QGAGJ
R b
ĠGdM OjK
ĠS dGe
ĠGdQ M
Ġf f
h jG
ĠSG aYd
ĠS eGY
ĠjSJ Mb
Ġh Ge
Gd U
ĠGdG R
ĠeY Xe
P QG
K G
Ġc jf
ĠGdeD bJ
ĠGdf gGjI
ĠJb UO
Gf hfj
KdG K
ĠGJab fG
ĠGL O
db i
bd b
ĠbO Q
ĠHhG SWI
ĠGeQjc G
dcf g
ĠGdf gG
ĠGJ NP
Ġh Z
ĠhGd a
ĠS GQ
Ġe hf
ĠHQ GeL
ĠGdhG VM
Se YJ
S GO
Ge GJ
ĠSjO fG
R jf
ĠH ef
M V
ĠG QV
QJ g
ĠGde aJ
W GdH
ĠGJ aGb
ĠhG V
ĠGM Ud
ĠM bjbI
ĠGS hG
ĠGddG ReI
ĠGdM X
ĠGSe c
ĠGda JjGJ
H h
HO hf
haj b
dGf fj
L jY
ĠHGd L
ĠJQ ZH
ĠdG YH
GfJ j
ĠGdH d
hc j
ĠY RjRj
ĠdY HI
ĠGf ce
ĠeY ge
ĠSJ J
ĠGdJO QjH
ĠJ Ud
ĠGda bQ
Ġd Gfj
ĠGe QG
ĠGdb hI
HGQ GJ
ĠGde Qab
dGb GJ
ĠGdS YhOjI
ĠYfO c
ĠGdW HjH
dj g
ĠGJ UGd
U MjM
ĠH HYV
ĠGdWG bI
ĠddG SJ
Ġeg fO
Ġe geI
ĠGe cGf
O Nd
W GA
ĠGdO QG
ĠGdGfJ QfJ
Ġa dG
ĠH V
P gGH
ĠaQ Gfc
ĠGdH GQ
ĠdG HO
ĠeGj h
ĠNW Q
Ġe QV
ĠH hU
ĠGdGe hGd
Ġe aG
jQ GJ
ĠQ hM
L h
H hd
dG bI
ĠG Ud
Z GQ
Gf i
ĠS de
Gd Ge
N dJ
ĠGdU OO
ĠG Ydi
Z Qb
ĠP h
ĠHY jO
ĠGj dhd
ĠGdg Oa
ĠJe dc
ĠGW dH
ĠY ej
ĠhGM OG
ĠU YH
Ġh N
ĠJ VY
GS aI
ĠJ cde
GH jY
L GM
ĠGdR hGL
jQ g
ĠGdLd SI
ĠGNHQ fj
ĠeJGc OI
ĠGdMO hO
ĠGdSf hGJ
ĠGW db
Ġd GfgG
Ġd a
Ġj YJbO
ĠN OeI
MX hX
ĠU Y
Ġa Ji
ĠL gGR
Qj e
jG S
ĠGMO i
ĠGQH YI
ab GJ
ĠS dGM
ĠGdf R
Gd QLd
dcf c
ĠGe jf
Ġf Hj
G MO
P f
ĠG QGO
N jd
ĠGdGg OGa
aj a
ĠGdHOG jI
T Ga
ĠHT jA
bj Ge
bjb g
ĠGdY TGA
ĠbO eJ
S dI
ĠeT J
ĠGdQ Ze
Q Jj
ĠY W
ĠGdeJ UdI
Q hH
GYJbO J
Ġje hJ
ĠeT JQc
ĠGT NGU
dG g
f SG
SG chf
QL Gd
ĠhGd K
ĠGda G
ĠHfaS c
ĠHGd T
ĠGdG V
ĠHGd NGQL
Q T
ĠGdeJ Ydb
j Gd
ĠGdGhQ hHj
ĠGdJ acjQ
ĠGde c
Gf Y
ĠGd SJ
ĠHG YJ
ĠV QH
ĠYd eG
Ġe bGH
ĠGe hQ
ĠfJ GFL
b GO
Ġf JjLI
ĠH hQ
Ġc GS
ĠeT cd
ĠHc KjQ
Ġa jf
ĠOhQ JgG
ĠO jf
ĠG QGc
O Yj
ĠGdGSJ bHGd
h cd
Ġc hQ
Ġh fMf
ĠM U
Hj QG
Ġe hVhY
Ġd jJ
dj J
ĠL hQL
ĠGdeT Gcd
ĠJ R
NOe GJ
Oj GJ
d Gfc
ĠhbJ G
GQ OJ
ĠGH MK
hGf GJ
Ġdcf fj
Lj H
ĠGNj QG
hG MO
ĠjU HM
Ġb VG
ĠGdcd Ge
ĠH h
ĠGdGfeG Fj
Ġh QGA
dcf fj
ĠGH fj
Y fG
ĠGde bQ
hf gG
GH d
ĠJ Qj
ĠGdJ bOe
ĠaYd Jg
ĠT HGH
W aGd
ĠJ Je
a GdI
ĠHdO Gf
ĠGdU YH
ĠJ MSjf
Ġj bJd
ĠGdU YjO
F fG
Q Q
ĠhJ T
ĠGdJ GHYI
Ġf jS
Ġdf aS
ag he
ĠGdef T
cfhdhL jG
ĠeT Z
Ġc QI
ĠJ YjT
e QI
GQ V
ĠHT OI
ĠcK jQI
ĠGdT HGH
GL Q
Ġa gh
a YI
ĠQ O
Ġj g
ĠGdeTGQ cI
ĠGdf eh
ĠQL dG
Ġdd U
ĠHGd W
ĠGdW dH
ge jI
ĠO Nd
ĠJL O
ĠjJ Ud
ĠM GdG
Gdj he
ĠGde YO
K HJ
HGd Z
YJ c
eGQ SGJ
ĠLf hH
g RI
ĠGdeTJ QcI
G aj
YO O
Hj g
ĠGdJ RGe
ĠGNP J
TQ GJ
Ġh Je
eQ GQ
hV jI
ĠGdd bGA
QL GA
ĠGY hO
ĠGdY QG
ĠMS GH
ĠL QjeI
Pj H
Ġf bhe
ĠGdSjG SGJ
ĠGde V
J ce
ĠGYd Gf
jQ c
ĠGdT QcI
ĠU hQ
ĠbGe J
Ġ XffJ
ĠGS ej
ĠHGf fG
ĠGdNGe SI
Ġe KjQ
N e
ĠGdeSJ OGeI
ĠJNHQ fj
ĠQ e
ĠGdh KjbI
ĠHjf fG
Ġh SJ
GYW fj
ĠGdS YhOj
ĠGdb dH
ĠM Gf
GY GJ
j he
YJ g
Ġage J
fS jI
NU UI
Hj V
M ce
aj Pj
aG R
YO OI
Ġd HYV
Ġc gPG
ĠGf S
ĠY T
LF jf
HG S
ĠGdJ GQjN
QGA I
Ġa df
ĠGda VGA
Ġg GO
ĠGQ Sd
ĠGdKdG K
j jQ
U GF
ĠGdS eGA
ĠMGhd J
ĠJSJ NOe
ĠJJ PcQ
ĠM hGdj
ĠGdT eS
fj a
ĠGd hQ
ĠGdJ Qc
ĠGdM GdGJ
ĠX g
ĠhX jaI
Ġbd Hj
ĠGdGd cJ
ĠGde eKd
ĠhGdGL JeGY
Ġaj c
ĠGSJ WY
ĠL Q
hf Z
ĠHJ dc
ĠGdGc KQ
ĠSJ I
j Jj
a Gf
Ġh HQ
ĠGK GQ
ĠO djd
ĠGdb VGA
ĠU GO
ĠGdM ce
ĠHO dG
ĠGdd YfI
ĠT YQ
Ġh eJ
Ge g
ĠeT GQ
ĠGdHY KI
Ġe TQ
hG M
jQ jI
jO Q
ĠGdHQ GeL
ĠGde edcI
ĠHG N
HG Y
ĠGS QY
ĠGdG SdGe
ĠSjO i
ĠU GQ
Qj Y
ĠGdh X
ĠGdL e
GO KI
ĠJ hU
ĠH dOj
Ġ Pj
ĠeY Qha
QL eI
Ġe GQc
GJ i
hG PG
ĠGP GQ
ĠGdO aGY
ĠSj MOK
ĠG gd
ĠG MjGfG
GNHQ fj
d Gd
G GfJ
ĠGdGfJ XGQ
U hQ
ĠGH fJ
ĠGK fGf
d Jj
Ġj QJ
ĠGdSj GQGJ
GY Q
QG j
Gc KQ
ĠGdM Gdj
jc j
dG c
ĠN O
G hdG
ĠGdeS GdI
ĠJH OG
ĠS jY
Qa V
L Qj
hd g
ĠbGO e
ĠhGd Pj
ĠJ YJ
ĠdG N
ĠhG b
Ġe Wd
Ġej dGO
ĠGd cf
ĠGdbOje I
Q Ze
ĠjN HQ
T aJ
ĠGdJ N
ĠT Qjc
hY fO
ĠfS jJ
eG FI
Ġh MOI
ĠGdg fO
hG LO
ĠG MS
ĠGde hSj
ĠGde QJ
UGO Q
ĠGda Ji
ĠGd cQ
ĠGdN d
ĠfjS Gf
ĠeL ehY
ĠN P
Wj W
jG W
GM fI
J H
GMH c
ĠK Gfj
ĠhJ f
ĠJ UOb
ĠhZjQ gG
R a
J HOh
R Q
ĠGdM eO
eJ dc
jO R
G gPG
ĠGdM G
U dj
ĠjfG jQ
j hLO
SGYO c
ĠeGjc d
ĠGd bOe
ĠJ HMK
ĠGdGUd jI
a dJ
ha jQ
ĠGdJ W
ĠGdJ GS
Ġf LO
NHQ c
LG hR
dG I
Ġde cGaMI
Ġj aJQV
ĠGdaQ UI
GH W
ĠSHM Gf
Ġe SH
ĠGVG ajI
S SI
ĠGdJ LGQ
ĠaV dG
ĠJ gO
ĠGda jOjh
ĠGdS hO
jc d
Ġe MXhX
Sd Sd
ĠGdc jejG
ĠGd GdJRGe
VM jI
ĠGde aG
ĠhG j
Ġdcf gG
ĠJ bjje
cQ Q
ĠefJ Ua
bj H
ĠGdJf ajPj
ĠGdeD SSGJ
ĠGdU MjI
J M
ĠQa V
ĠGSJ YQGV
ĠJf Xje
ĠGdN WI
bGJ d
Ġa Gfg
QJ gG
ĠJO Nd
ĠGYJbO J
ĠGdY GFdI
ĠHOG jI
ĠHYV fG
ĠGS QGFjd
ĠJT jQ
ĠY GOI
NO eI
ĠGdMche GJ
ĠS DGd
ĠGj GQ
ĠS hGA
Ġe GQj
ĠfS HI
ĠGde bWY
ĠeJ f
ĠGdj fG
ĠGdMb hb
ĠhG L
ĠGJ Yde
ĠH ce
GQ b
ĠGdQG HYI
ĠefG SH
a cQ
D JeQ
Z Gd
g QI
eG L
Ġa GfG
ĠGdb J
ĠabO J
ĠhGd H
hR jY
ĠGU dGM
ĠW Qa
ĠJb GQjQ
fG gG
Sj M
O S
ĠG jO
J S
M hG
SG PgH
ĠGdN OeI
hf S
F f
f Hj
ĠG D
aG P
ĠhGdGLJeGY jI
ĠhGd i
ĠS je
ĠU fY
ĠGQJ c
ĠU HGM
ĠH fO
L GHI
Oe jQ
Ġf Yde
ĠGdJY Ged
fGS HI
hd jf
ĠO QLI
ĠV eGf
ĠG MSf
H WI
ĠGS GHjY
G jG
QH g
Ġf RY
ĠL Gj
ĠX gQ
g hdI
OG Y
YG I
HG b
ĠGdL fGFjI
ĠJM Qc
ĠHGdc Ged
Ġh g
ĠfG Oj
ĠG cQg
ĠGdJb GQjQ
Ġb djd
N GHGJ
ĠHj GfGJ
Ġdd Z
Ġj W
Ġc HjQG
Ġd jd
ĠGL dc
bGF c
ĠGe dc
ĠGdNGQL jI
ĠGda Ud
ĠGdeO jQ
eG GdPj
b QjQ
ĠGf bP
NQ hL
cf j
P i
ĠRhL Jj
ĠGd QGF
ĠGdbGO e
ĠGde QV
ĠGdMe Ge
ĠGdGYd Ge
cde GJ
ĠJJ Qc
UQ jI
ĠYd eJ
ĠG jQ
ĠJ GcjO
ĠGdT GQY
V jJ
Ġje dc
ĠL dH
ĠGdeMJ ed
ĠG Ye
ĠGdL jT
ĠhGdef XeGJ
ĠGdO jf
ĠHGecGf c
ĠGh g
ĠHYO gG
ĠGO Nd
Ge cGf
V eGf
YO e
ĠeT GQc
ĠhS W
bG Fj
H eG
ĠGdQFjS j
U Ga
J J
Ġf R
ĠhG N
HO jf
ĠJW Hjb
ĠGdY QV
Gb UO
ĠZ d
hQ jf
Ġg Oa
ĠGdGbdj ej
ĠhH jf
ĠO Gfj
ĠL Rj
ĠGdb Jd
Ġj WdH
ĠGdSj WQI
ĠSG PgH
e fj
Ġdd W
ĠMj Gd
ĠGdS GM
ĠQ Ze
ĠGdU hJ
Ġf Qi
hjf HZj
cJ Ta
ĠhG K
ĠO cJhQ
ĠGdT QcGJ
ĠJ ecf
ĠGdc HjQI
ĠGdeT JQc
SG WI
GSJ eQ
ĠhGd Ge
db GJ
MX GJ
hc S
G MJ
ĠGdGK fjf
GO J
ĠGj bG
ĠGYJ eGO
ĠhGd c
hfG J
ĠTQ WI
Ġe GdPj
ĠO heG
ĠGdGN HGQ
ĠGdW GFQI
Nj U
ĠGf MGA
SW S
R R
ĠehG UdI
ĠQ hS
ĠGdeL Gd
Ġdd GJ
ĠGhQ hHG
ĠM adI
h ge
Y Gd
ĠJY W
ĠHZ jI
ĠHf aSj
Ġdcf c
Ġg O
ĠhS ha
Ġc P
ĠGde geI
QG jJ
ĠGdSd WI
hV I
ĠM eG
ĠGdcJ GH
ĠMjf eG
ĠJ QO
jf jG
ĠGdGJ aGb
ĠSH b
bJ gG
ĠYGe I
hc H
ĠO GQ
j M
ĠjQjO hf
ĠGdbO QGJ
T YQ
Ġj YJHQ
hG c
cS jc
ĠM jG
ĠGL eY
Ġb jeI
hb Gd
ĠhGd NeS
P L
aJ GI
ĠY OJ
Ġb hjI
ĠQ Se
ĠGZ SWS
ĠGdYGde jf
ĠGSJ W
ĠGdSGO SI
WH N
ĠGdQj GV
ĠGdb hGJ
L J
Ġc GedI
hf Mf
ĠJJ cde
ĠW hd
ĠMbj bjI
Ġh df
W W
Ġg Ge
ĠGdJLGQ jI
WGd HI
ĠGdNH QGA
ej g
ĠPG c
ĠGdd MXI
ĠcJ H
ĠGdY eQ
ĠGdSd WGJ
ĠLGg R
Qj V
ĠGdU MjM
Ġdd H
V hQ
Ġf gG
hY jI
ĠH GO
db g
Ġa GJ
ĠQG Sc
j bhd
ĠGdH O
GdG VGaI
ĠeHQ hc
ĠGde Qc
ĠhdG jI
ĠjT YQ
ĠGdY U
Jd a
Ġh jS
ĠM de
ĠS GfJ
ĠJ cd
ĠddM Uhd
ĠGdGSG Sj
GN J
ĠJL Gg
Nd Gd
ĠGK fjf
O QjH
ĠNW W
ĠYe dj
hGQ F
hdG O
ĠGdY ScQjI
J Qj
ĠR ef
ha bG
ĠT GQ
ĠGdg hGA
Ġf fJ
ĠGdYe djGJ
TGQ c
ĠGdf Mh
ĠNj GQ
Ġf M
WGd eG
Nd a
bH hd
Ġe Pg
Ġdd N
HO hG
U GQ
ĠJ he
ĠJ bOjQ
a QO
ĠW jH
ĠZ V
ĠGTc Gd
ĠGR GA
ĠJ bJd
Ġe MH
ĠjSJ NOe
ĠeM d
h ce
ĠQG M
Ġe SQ
Ġf b
Mj Gf
he Y
Ġe hba
ja G
ĠGdU hQI
ĠbW Y
Ġc jd
ĠGdd YHI
ĠGdM GLI
a QI
ĠS Gd
h Ydi
ĠGdN WG
ĠGdM S
QL GJ
ĠGdb UI
bj g
ĠGdQG HY
Ġf bWI
Ġc GJ
ĠGdeM dj
ĠGdO cJhQ
ĠGdeSJ Tai
ĠGdOG Ndj
h gj
L GQI
ĠGdeSG hGI
Qb U
Y OG
GHJ f
X j
ĠGdb djd
Ġa cQ
HGO d
hd jS
ĠGd Qa
Ġgj FI
bG YO
GH h
YJ j
ĠJd YH
hf O
Ġf TQ
ĠGU MGH
ĠGdb hd
ĠGa QGO
S GQI
ĠHd Z
S Y
Ġdd Gf
ĠGdS DGd
Gd LejY
Ġdh MO
ĠGdefG YI
J hb
dj T
ĠM ad
ĠGdb jGOI
Ġd LejY
ĠGdbVG jG
Ġj bJ
ĠU f
ĠeQj V
ĠGM cGe
ĠHV YI
HQ i
ĠGS jG
ĠGdJ d
Gd jG
Ġf Y
ĠhGd eJ
eL QO
Gd N
Ge fI
ĠM QH
Ġc PG
ĠZ Q
ĠeO jQ
TGQ jI
ĠJ MO
GHJ YO
ĠeG c
ĠHGd GS
ĠhLg c
a gG
jc e
ĠJJ Ydb
ĠGdH dGO
MJ c
ĠGdG Ydi
G aYd
ĠGdT gQ
ĠhGdGL JeGYj
Mj GJj
Ġa fOb
ĠLRj dG
HGO QI
J QG
ĠGdJb fjI
YJ gG
ZGO QI
ĠGdb fG
ĠGdS QjQ
ĠSe MJ
d YH
ĠGdGQ GVj
ĠOY fG
L JeY
ĠGW d
ĠdG O
ĠMO hO
Ġcja jI
ĠGYQa g
ef J
YG L
ĠGdeTGQ jY
ĠJT ed
ĠGde hL
Wj g
ĠGdeN J
ĠhG a
ĠK eI
jf i
W dGb
HG c
ĠGdHj FI
ĠJ bJ
dc j
Ġe bQ
ĠeMO OI
W M
ĠGecGf jI
Hj Gf
ĠJ eQ
ĠJ YG
ĠdG Z
Ġh HGQc
jO jI
Ga g
ĠGd fJGFL
ĠGdH dGZ
ĠGdU hQ
ĠGdT YQ
Lg I
ĠJU Qa
ĠbG YOI
ĠVQ hQI
dj c
ĠjfJ gj
ĠU di
Ġa cQJ
eJ g
J PcQ
j QG
ĠGdHM QjI
ĠS hA
ĠGhd Fc
Ġaj de
ĠW HjH
ĠN H
ĠGdQ be
Ġe eGQSI
ĠedG HS
ĠGdJ a
ĠGfJ gG
ĠT YH
he Gf
WH b
hd GJ
ĠbQ QJ
ĠGf Ld
ĠGSJ NOe
Y h
ĠGdd YH
ĠHMb hb
ĠaJ M
Ġe MGhdI
aG I
bJ fG
Ġa Gd
ĠGdJ hLjg
ĠM ce
W dGY
ĠGdeL ehYI
Ġd hS
Sc Qj
ĠGf hGY
ĠGdH W
ĠhU MHg
Ġb hGJ
Ġj VY
ĠGdGL JeGYj
ĠGdS fJjf
ĠJSe Y
K fGA
ĠjT cd
ĠdS fG
ĠJJ MQc
e SJ
ĠGdTY hQ
LH c
ĠGS ad
ĠL FJ
ĠWhj dG
jS I
Ġjd YH
ĠH GfJ
SJ hQ
hG b
HQG jQ
jG H
ĠJ XgQ
Ġb hj
ĠJ aS
Ġa f
Ġhb Gd
ĠGdSa jfI
QGL YI
YO J
hJ T
SQ Y
ĠGdQS GdI
Ġg Gj
ĠjN QL
QG Mg
ĠGQH Y
ĠGde aQ
ĠJe hJ
ĠGdM GdjI
ĠY GOj
U Oj
ĠS a
Gd eI
Ġe SGA
Ġef M
ĠGde QG
ĠSh jG
hG R
Qjb jI
ĠGdM Q
GJ ge
ĠMO hK
ĠGJ i
QGc R
ĠG QGg
Ġdf PgH
GQ fI
Ġa HQGjQ
VG F
ĠGdfh hj
ZW jI
ĠGdG MjGf
ĠGdbe I
ĠGaYd g
Ve Ge
ĠT Qc
ĠhJ YRjR
e T
GH jI
ĠeY fi
ĠGdN j
J Gf
ĠGdY gO
Ġe aghe
hV i
M UdJ
HG MG
HQ J
ĠGdLf Sj
ĠGYJ eO
ĠGdbQ f
ĠX d
hG Fd
HO Y
KdG KI
R GA
ĠGde K
bGW YI
Gd fGS
YO Ge
ĠG MeO
ĠHGd Yed
a PI
ĠbW YI
c Qj
ĠSYjO G
Gg f
ĠGL Yd
ĠQD jJc
XGg Q
ĠGdc Ged
ĠGdbQGQ GJ
Ġd hc
ĠM GL
ĠhGd Gef
eG c
ĠHY KI
ĠQGjJ g
ĠGde MO
df OG
ĠjY W
b dI
eG Z
ĠGdM eGjI
ĠJS Gd
hGf H
ĠGdf Hj
ĠGdeS de
ĠGdG gJeGe
ĠGdW H
ĠHGd U
ĠGde bH
ĠbO je
ĠehX aj
aG bGJ
ĠGYJ HGQ
S je
Ġh ge
ej J
ĠL eY
LR A
ĠcG aI
Ġhdcf g
Ġg jd
ĠT GgO
ĠU GdM
ĠGd ce
Ġh SG
ĠY OG
Ġj HMK
Ġd N
Ġeg dG
ĠHGd H
ĠdG S
ĠH Wd
ĠjO aY
ĠYe dg
Ġdd Q
ĠeY jfI
ĠJ Gj
ĠH hH
ĠhX ja
eg hQ
Ġj XgQ
ĠGf i
ĠJha Q
ĠGde bO
ĠT Gf
ĠGdTj N
ĠG Meb
ĠjfJ XQ
ĠaYd gG
ĠHM K
ĠJO QjH
ĠGdb db
ĠJG KjQ
ĠGdS de
ĠGf O
Ġf O
Ġe hQ
ĠGdGQL M
g DdGA
hJ c
ĠJYJbO jf
ĠGdGS hO
ĠJQc J
ĠGdU jf
ĠGSJ e
ĠG VY
ĠGdd Y
ĠGdY fG
ĠGdY KhQ
Ġe jf
ĠGddG LFjf
ĠGdGf a
ĠhG Y
ĠjD Oj
ĠdG MX
ĠGO Qc
ĠHGd N
ĠGdf bd
ĠT HcI
Zd Gd
hd h
gG j
ĠO Q
J TGQ
Ġj R
ĠHGecGf j
ĠMjGJ g
Z O
TGQ cI
ĠV hA
HGO QGJ
ĠGdG HjV
QG YI
ĠGdR ef
ĠH jO
ĠM ed
hH jf
ĠjO Nd
b hOI
hV M
Ġe VMc
ĠJJ Ud
dG U
VG a
Je QGJ
ĠJ je
ĠhYO e
ĠGdb hGfjf
ĠGe hGd
ĠGdHd OI
Jj g
N f
Gf hjI
ĠGJ UdJ
GW aGd
ĠJfJ XQ
ĠGb Se
hg Pg
Ġj bd
Ġj ha
Ġe OI
ĠJ gJe
ĠRhL Jc
ĠGdadSW jfj
Ġj eKd
ĠU fG
ĠGY dGg
GQ Gc
jG HI
ĠGde HGOF
Ġg dG
ĠQ Hj
J L
ĠJb Qj
ĠeTGQ jY
ĠJT cd
ĠHjJ Q
ĠGdG jOR
ĠL Qi
Ud MI
ĠGdM Qe
J QGc
ĠH GL
ĠJaYd j
ĠGH bi
ĠdJ YRjR
ĠGdJ Ydj
ĠG Qc
ĠGdhR QGA
hYfO eG
Ġj gJe
ĠGd XQha
Ġa GfJ
U GH
ĠGdc gQ
ĠGdTNU jI
ĠGdQ GejI
ĠSf aYd
ĠGg OGa
ĠOY fj
ĠO Nhd
ĠGdO Y
Ġe hd
ĠJ h
ĠGdGSJ TGQjI
ĠdG MO
ĠhGde D
g R
SJ jf
jc S
Jj T
ĠL fG
Ġa hQG
ĠGJ hbY
ĠSj F
GA GJ
ĠGdG Se
eG S
ĠR GdJ
ĠGdGS FdI
ĠGdGYJ HGQ
K jd
GdQ FjS
S Dhd
ĠefX heI
ĠGdeO fjI
Sj GQI
Gde cGf
K Gb
ĠGdY V
Q hj
ĠGb GeI
ĠGdSdGe I
c KQ
ĠcGa jI
Ġj Oj
dOj g
c hc
ĠJSJ Mb
ĠGdGLJeGY GJ
bG ajI
Y gG
ĠGdLR GFQ
a hG
ĠeTGQc I
ĠjSe M
g cPG
ĠH bj
Ġe UOQ
jS hf
ĠdJ Mbjb
Ġd UGdM
ĠGdLf hH
Ġe bWY
ĠGj g
h Gfj
ĠJ YJHQ
ĠGb QH
GH f
Ġh Uhd
ĠYed J
ĠU HGMG
ĠJ hLjg
ĠGdh SW
OG aY
Oj bI
ĠNQj Lj
ĠM G
ĠGdT Dhf
Ġd fO
Ġh dj
T F
ĠT g
ĠGdb HV
ĠbdJ g
ĠGdeSDhd jI
TQ M
ĠJ bO
ĠGdGO GQjI
Ġjf XQ
jG R
ĠHGd d
ĠGHf Jj
T Qj
GR I
, ,
ĠGdO hQ
ĠGf SGf
ĠGS Gdc
ĠGde SdMI
ĠGde QMdI
ĠH LO
T Y
Ġb GJd
ĠHGdG VGaI
Ġjbhd hf
ĠGdYd jG
GJ e
H GecGf
ĠjJ Yjf
e M
jS jQ
ĠGdGM eQ
eG OI
ĠYH GQI
ĠGdY jT
ĠGdG HJ
f OG
ĠHGSJ NOGe
U i
ĠGdY QH
SH b
ĠGNJj GQ
GfXQ hG
eg eG
ĠUMj MG
ĠM OjK
ĠK ef
ĠG bOe
H gG
Ge J
ĠaQ fSG
ĠGSe gG
ĠL fhf
h Ged
Ġh QO
Hd i
ĠGdSjG Sj
ĠGdGe J
fH dI
ĠS GO
ĠJN J
ĠJe hjd
Ġh Gfg
ĠN GFa
Ġg GJa
jJ e
Gdj g
Ġh dh
h jS
ĠeJ RhL
Ġdde SGYOI
Y je
ĠGdZ jQ
ĠT GH
h SG
ĠGMJ QGe
ĠW YGe
ĠGdbO QI
GSe Yj
ĠGdWHj YjI
ĠJW hjQ
ĠjOY i
ĠPG g
hV GJ
ĠM QcI
ĠQM dI
ef M
ĠGfJg J
ĠdJ fajP
G MS
Ġf H
Gej QG
Ġjchf hG
R dj
ĠGde HdZ
ĠehL hOI
ĠeG jQ
ĠO hQI
ĠSGH bG
ĠN dj
GF O
ĠGdT eGd
ĠGdcd eI
ĠhMO g
f L
ĠGdY dGL
Ġcd Ge
SGF Q
ĠTY hQ
dJ gG
aj J
ĠGdY GH
ĠGdb ghI
bJ Q
ĠGde KGd
ĠGde MjW
ĠS D
Ġh jQ
ĠGdM jf
Ġg PI
dG YH
ĠGdK GefI
e eJ
Ġjecf fi
Ġe Me
ĠGdO hQj
ĠHGd GT
U Qj
bH V
ĠS fG
ĠG HQ
MGaX I
S QJ
T b
K eI
ĠdW jaI
ĠGf bGP
ĠGdYO GdI
ĠjM aX
ĠGdh KGFb
ĠGdLfS jI
ĠH jY
ĠH bOQ
J MOK
hd J
ĠGdU Mj
ĠddG HO
ĠN GW
ĠY hO
d fG
ĠSJ Yed
Ġj Qi
gG Hj
YJ fj
T H
eG M
ĠGdf aS
ĠS cGf
ĠS MH
Ġj Ojc
ĠGdbGF O
jc jI
Hjf eG
ĠbfG I
ĠS jd
ĠMHjH Jj
Yd f
d Gfj
Ġjecf gG
Ġe Qc
X g
ĠG jOj
ĠeQM dI
ĠGdeY bhOI
ĠM W
T GW
ĠeL GdGJ
hd jI
N Gd
ĠY j
a GOI
ĠYe dc
GdJ Gdj
ĠL S
ĠhG Kb
GJ fG
Ġaj Ojh
ĠGdej dGO
ĠT OjO
aj V
f MJGL
ĠeV i
ĠLRA G
a jG
jd Q
OY hfG
ĠL GeYI
ĠT G
ĠGdT Ged
ĠWHj Yj
QG YGJ
ĠGdGa QjbjI
ĠGdTY hH
ĠJhG Ud
ĠGdJT Qj
QH hf
Hc j
ĠhJ Y
bj GJ
Ġh Yf
ja Q
Ġef W
ĠGdc QI
ĠH fJ
ĠQGF MI
ĠGdW Qb
ĠJ Yjjf
ĠHGd Gf
Gd HG
ĠG Qj
be J
Wj H
Ġh h
Ġf Rd
h gd
ĠJO aY
Ġc dj
OGF eG
ĠGdb hGYO
ĠJ Ydje
ĠeY J
jQ hf
Gf jf
ĠGdY bO
ĠJe Kd
ĠGdGa Qjbj
QGc I
ĠGdS GHYI
ĠGU GH
Je YGJ
Ġhb YJ
ĠedG jjf
Ġd Je
ĠUOjb c
ĠTNU jI
ĠMd bI
QH fG
ĠG Oe
ĠjH bi
ĠG bOQ
Rj hf
L QO
ĠL e
ĠhGd d
f hY
ĠGf SI
ĠeJ GNQ
de S
jO g
ĠJ Gcd
hG bY
eJ c
ĠHGd eGFI
SGA d
ĠHGd OGNd
ĠGdGMJ jGLGJ
ĠGdGJ LGQ
ĠGdehSj bi
H b
Ġj NU
g OI
ĠSj FG
R h
ĠGdf U
ĠGdLfS jf
Gdc KjQ
Ġj HOG
ĠfG S
ĠSjG b
jf gG
f Sj
ĠGh dGO
ĠjM ed
ĠYO jOI
ĠS bW
ĠJJ hba
ĠHL GfH
d S
QGJjL jGJ
ĠGdZ O
ĠecGf c
Ġdh jS
ĠGdV hA
ĠT e
SG hj
ĠeY GdLI
ĠT HGW
ĠGb hi
ĠJTGQ dj
GM VQ
gO GJ
ĠGdL QGFe
ĠGdT Qj
Ġb hGYO
YRjR Jj
ĠL jQ
ĠGMV QJ
ĠY jfj
SJ NOe
ĠJQjO g
ĠGdL Se
ĠGdMd bI
ĠGdedG HS
G YO
bhd g
R jGOI
ĠeM bI
ĠGdeN Jd
ĠGdgj FI
ab QI
Ld GJ
ĠJa Vd
GF j
ĠJMOK J
Ġb Vj
QG T
ĠGS Gd
ĠGdGYd Gf
Ġa gj
jf fj
Jj GQ
Ġd Yed
gf Gdc
ĠGdGSJ YQGV
Hj FI
Ġe Gdj
SJ hf
ĠGSJ YeGd
aG V
ĠGdefG SHI
ĠGdL eGY
ĠH jc
ĠJS Ljd
Ġdd LejY
ĠGdGM OGK
F jG
ĠTY QJ
gd Gd
ĠGdGJ LGg
R H
ĠhGd Q
ĠGfJ gj
ĠGdGS QI
G hR
ĠhJ J
Ġc GH
O f
ĠhJ fajP
Sc jf
ĠeN J
Ġe hGQO
ĠJhG ab
ĠdG H
eHQ hc
ĠZ Hj
ĠJhG Lg
ĠGddY jfI
ĠGde HG
ĠGbhd g
ĠGdG Meb
fj c
ĠL GO
ĠJJ HY
Ġd VeGf
ĠG OGA
ĠGSd MI
ĠGdO eGA
hJ h
ĠGdYO d
ĠjGQ Ld
S Gd
G aJ
RG jO
ĠjS YOc
Gf h
ĠO QGSI
Gd MeO
bGH I
K fGFj
Ġe ef
ĠHGd GSJ
ĠGdY GU
ĠGdeMJ Qe
Ġe e
ĠM Le
ĠeGJ J
Ġde SGYO
ĠhGd GO
gj H
h Gde
ĠGdb GJd
QG Fj
Ġf Yed
ĠQ hR
P fH
J hf
ĠHGQ jS
GF QGJ
Gfc djRjI
ZGf SJGf
ĠGdefG N
ĠHO hQ
ĠGdHQ hJhchd
ĠGdchf Zh
K Gf
Q fG
ĠGdea Vd
ĠefG Wb
ĠJc Gdja
ĠGdb Se
ĠGdMS GHGJ
ĠYV h
che I
ĠO NdJ
ĠG VGaI
ĠeSJ Mjd
ĠGdOG Fe
ĠJa bO
MH c
ĠjQ Me
ĠGLeY jf
ĠH aYd
ĠGdf bhO
U Ojb
ĠT Qj
d bj
gG OI
ĠT Dhf
e fG
ĠeQJ jf
X de
G hQGJ
GJ Qc
ĠGdbJ Gd
ĠGSJ eY
Ye djGJ
ĠHU aI
ĠGdS hb
ĠGdY QHj
ĠdJ dc
hf jG
ĠGde Gf
ĠGdJ eh
ĠGQ ZH
aj d
ĠY GdjI
ĠbO QGJ
Z Ge
ĠL fS
Ġe HdZ
Sd M
ĠGdTQb jI
ĠGfJ GL
Ġef T
ĠddO hd
ĠhGdS jG
Gd gj
dcf gG
Ġg fOSI
Ġf eh
ĠdT NU
ĠGde Gdj
ĠMHj Hj
ĠGeG cf
ĠJ NU
ĠeM ceI
Ġa MU
ĠG jGg
ĠOhd jI
ĠGfJ TGQ
ĠGdGe jQ
ĠMjf gG
Ġe Hc
Ġcd fG
ĠbW GY
ĠeK dj
ĠbO eG
ĠGdQ hSj
ĠGdb Gfhfj
L je
he jf
Y Oj
ĠY Q
Ġe Gdc
Qj fG
ĠGdNGQL j
hd bO
ĠJ Tc
ĠGde bG
ĠdG M
eQ V
Ġde Y
ĠGdG VG
ĠGHf c
ĠhGd GQ
ĠGdh MOI
ĠeG RGd
ĠGLd S
ĠGdY GOjI
ĠGJ cde
ĠefR dj
ĠYdG L
Ġj V
ĠGf LGR
Ġb je
Ġd Me
ĠeO QSI
ĠJ HG
Ġh OG
ĠGdJQc jR
ĠJbd bj
ĠJb Y
ĠGSJ QGJjLjI
ĠjJ cde
g hV
S h
GJ YJbO
Ġe da
ĠGde Wd
ĠGNJ HGQ
ĠHO A
ĠNGF aI
ĠGdGU dj
ĠhG MJ
ĠGdJGS YI
Ġfe hG
ĠH TQ
ĠGgJe Ge
ĠYfO g
ĠGd jO
T GgO
ĠGT ha
ĠGdQ YGjI
MeO g
S jOI
ĠQ SejI
MJ g
ĠJb Hd
ĠdfO f
ĠO Gf
H Mb
ĠHM dhd
M ceI
ĠGde Pc
Ġa b
f b
ĠGdJ bjje
OY jfj
ĠGdbG Vj
ĠeY Qa
SJ eQ
ĠH bjI
ĠGdhR jQ
Z i
bJ UGO
ĠGdW hGQF
Ġe eK
ĠGdR hL
ĠGdJeh jd
ĠGdN da
ĠeY i
ĠGdK bI
Ġf hQ
ĠGe Sc
ĠGT GQI
ĠeG cS
K dI
ĠY bd
ĠhG PG
ĠGde YQ
D jI
Jj M
c je
hS I
GJ Ud
ĠGdTe GdjI
ĠGdJ bd
ĠGdeH fi
ĠJJ NP
ĠM GOK
ĠJcf hdhL
ĠHSj W
ĠddL eYjI
Qc e
GJYde jf
hJj hH
ĠGQjO g
ĠGdGSJ QGJjLjI
ĠGdKdG KI
ĠGdQG S
ĠGdGa WGQ
Yd Gf
ĠW QO
hU hd
ĠM Ga
D cO
Ġj QO
Ġa Qj
OG j
ĠOhd GQGJ
ĠhGd Gb
h P
MX i
OG I
ĠGdT F
Ġj RjO
bW GY
ĠGdGT GQI
S fJ
ĠGda jOQ
ĠJ hUjGJ
ĠGde cJ
ĠR e
ĠhGdO Jc
ĠJY H
Ġe QGbHI
ĠGdh ZO
hLO J
ĠM Jj
GfJ XQj
ĠGdW GHb
GS ej
Ġf N
bG aI
ĠGL dj
Ġcd e
bO I
ĠGdhc GdGJ
ĠGdO QGSI
ĠaQ bI
ĠGdLR jQI
ĠGdbG YOI
Yj g
ĠY R
ĠL jT
hf fj
ĠG YjT
Sf hGJ
ĠHe aQO
N QI
ĠGdL eghQjI
ĠGdhR GQI
fJ GL
Gb Se
GO g
ĠGO fi
ĠH P
JY Gdj
ĠjN J
ĠeWd bG
HGM K
ĠjO c
ĠNQL J
Z GJ
ĠGdGf L
ĠGd Gdg
ĠSN ja
ĠZ QjHI
ĠQ Z
Lj A
ĠjT ed
ĠG bJd
ĠeSH bG
ab hO
Gj g
ĠeK jQI
UGd GJ
dj ejI
ej c
ĠGde cSjc
Ġj GJ
ĠGdc aGjI
ĠGd cdeGJ
Ġh NGUI
ĠGdP c
ĠS YQ
Ġf NQL
ĠhJ M
ĠHGd GfcdjRjI
Ġc hQjG
H QGW
ĠGNHQ Jfj
hQ W
ĠGde hLhO
ĠYGF dJj
YG a
ĠS jGOI
M Ge
ĠcfJ e
ĠSQj YG
Ġd aYd
O jQ
ĠjL hR
ĠGdNGe S
Kd L
ĠJSe M
Rj GQI
ĠJQ Jj
hb I
ĠG Qjc
W hjQ
ĠGdHGQ MI
ĠeK dG
ĠT jc
ĠhGdNeS jf
ĠGdbVG FjI
ĠGdGe fjI
ĠT QGA
ĠefG SHI
ĠS jS
ĠbO QI
ĠSJ PgH
Ġg OjI
GJ PcQ
ĠhG T
ĠGdU QGY
ĠdfaS c
ĠGdcd H
ĠUO b
ĠO hQj
ĠO a
ĠHGdJ YGhf
ĠH MjK
M GQ
Ġe hS
Se Y
ĠGd PgH
ĠGSJ ZaQ
Ġa hQ
ĠGd jI
aj c
ĠQ h
ĠhL gj
ĠGdJb fj
jJ jf
hQ h
ĠRhL j
Ġ Qjc
b dH
ĠH LejY
g jQ
hdf OG
ĠeSJ YOI
ĠGdMj hGfGJ
bO Ge
Ġh dcfj
ĠS GHb
ĠGMJ eGd
Ġdef Y
ef Y
ĠGdadSW jfjI
SH MGf
ĠGdS e
hU j
ĠjJ WdH
bj d
ĠjL Ydc
ĠGJ YQa
GO e
ĠH hVY
Ġj YJ
ej S
ĠdJ f
ĠGdbe Q
Yd jg
ĠGdMbj bjI
ĠGf XQj
ad f
ĠGdOG F
ĠegfO S
hf i
GdH fO
j QjO
Ġa Gj
ĠS Qb
hGQ K
ĠHb hI
ĠGde QGbHI
ĠGdeSde jf
Ġcd eG
ĠH hLhO
ĠbVG jG
ĠW GFQI
ĠGdGc HQ
hJ g
ĠGbJ UGO
ĠM bjb
ĠJfJ gj
dG S
V Gf
aGA I
G MjGfG
ĠH i
GdY GH
Ġbdj dI
d dg
J h
L Gc
ĠedG H
a jQ
ĠGL ed
he c
Gd SdGe
G cf
G jecfc
ĠhGd Z
ĠRhL Jg
ĠjYQa hf
ĠdT Dhf
ĠjJ Qc
ĠGdS aQ
ĠGdL ejd
Gdj hf
Ġ QjO
ĠGe cf
ĠW Qjbj
aS I
ĠGdJM ce
GW db
O jfI
ĠGde GfjG
Ġb QH
ĠGdaj de
Ġcd H
ĠeYO d
ĠGNQ jf
ĠhGMO g
ĠbQGQ GJ
YJ jf
aj aI
Ġj GH
hSj Y
L jQ
ĠGdSQ YI
O hA
ĠT aJ
ĠJL Qj
Sc j
ĠU dI
ĠdM eGjI
ĠbGF O
N jf
Ġj Wdb
ĠGdL ejdI
hdcf j
SG c
ĠHg Oa
Ġj PcQ
ĠJ dGMX
ĠGdV ZW
ĠGdY GgQI
ĠN HQ
d R
ĠhSj dI
ĠGj ecf
Gd hbJ
ĠGda fjI
ĠGde Mbb
Q hfj
ĠGU dG
Ġe GQJ
ĠY Ged
ĠhGd GS
ĠG aS
ĠG jQGf
Ġa LGI
Ġhdcf gG
ĠGdha hO
YG T
ĠOhdGQ G
ĠGdfgG Fj
GJ Xf
ĠGdjG HGf
Ġf HOG
R J
ĠGdGSJK eGQ
ha G
ĠJSJWjY jf
ĠG HdZ
ĠhGV MI
QjO I
QH jf
ĠeU GH
ĠeQG YGI
hS Y
dG hI
ĠHGe Gf
ĠS GQI
ĠGdL GeYI
ĠddJ fejI
ĠGdShO Gf
T jd
ĠGdU GO
Ġh jY
ĠGdO QLI
ĠHGd GJ
ĠbGO eI
ĠH GeQ
ĠGde jO
ĠGdGSdGe jI
ĠGdL Ge
Ye I
ĠeY ce
ĠGdJf Sjb
dG j
ĠHGf ge
ĠhGd HQ
GdH GJ
ĠGdY LhR
OQ SI
ĠGdY RjR
ĠJD Oj
ĠGZ fjI
ĠSd SdI
ĠWG be
hc ja
ĠGdJ GHY
ĠGg dG
ĠGdY dGbGJ
ĠS F
T jf
ĠGda VG
ĠhG YGOI
ĠGcJ Ta
ĠeS D
ĠS eY
ĠGdeMO OI
Ġeh Sj
ĠGYJ Qa
H bj
ĠQG Sj
ĠGde G
Ġbhd g
ĠGJ age
ĠGdJhLjg jI
ĠaY GdI
d hf
ĠO g
ha I
Ġh KGFb
ĠGdX dGe
Ġd fJ
ĠGdG jL
ĠGdT GH
V J
ĠGdW HjI
H SHH
Me Ge
ĠGe hJ
FG SI
ĠjJ hba
ĠJYdj b
GJ H
ĠeY GgOI
ĠGdc hjJ
O jOI
ĠjT Hg
ĠGdGe Ge
ĠV ZW
T jI
ĠSjG SGJ
ĠeD bJ
YW jc
ĠJb QQ
ĠddG WaGd
Ġaj ge
Ġjhe jf
G jJgG
ĠTj N
ĠGSJ jbX
ĠGQS Gd
ĠGdG HO
Ġj bhO
ĠJbQj QG
Ġa de
ĠSjJ e
jG ZI
ĠNW jQ
Ġdd aJQI
ĠGdY dGbI
ĠGdTj WGf
ĠGU W
ĠjQ ZH
ĠhH MeOg
Ġf g
ĠGY Wj
ĠGd gG
ĠLd SI
ĠGda hR
GNHQ Jc
ĠGK b
ĠH Oj
ĠGdH fc
ĠUhJ c
ĠdGZ QGV
ĠY GT
ĠGdM hGQ
hGQ Y
ĠGdQ UGU
fG bT
ĠjaYd g
ĠGdT cd
ĠM P
ĠGdhc GdI
ĠGa ZGfSJGf
hG a
Ġh Ua
ĠW Qb
H hf
ĠeS QM
ĠdjS hG
ĠGdK GfhjI
h jecf
GJj M
ĠeGjQ Ge
ĠR hGL
ĠGdJ hUjGJ
hG abI
ĠGdc HQi
ĠGde bOe
Ġj HdZ
gG Le
ĠTQ Wj
ĠQj Gd
Z dH
Tj N
hc GfJ
Ġe SGFd
ĠH eY
ĠJd bj
Ġb QGJ
ĠGdSjG SI
ĠSf PgH
S b
jJ fG
ĠN UhU
ĠdJ bOje
ĠQ hH
ĠGdebH dI
ĠRhL I
ĠGS FdI
ĠJ GHY
chf j
N jQ
ĠHe cGf
ĠhGdY TQjf
ĠGdG gejI
ĠGdg QGA
ĠJ HQ
Ġe Se
jJ G
ĠS GL
hX ja
ĠHGd Q
Gfj g
ĠeY Gj
e eG
ĠGO Y
ĠGdY bd
ĠGNHQ J
Ġd GQ
ĠT GQY
LG YI
ĠhGdJ YGhf
ĠJD cO
UO bGA
ĠJc PH
ĠNW hI
dO i
ĠOj a
ĠGdG hSW
jL GO
ĠRhL c
ĠZ j
jf Z
ĠGdGO dI
jS Q
Gd Ojc
bGH dI
ĠGdJfajP jI
b UI
N aGV
j fGJ
ĠefG bTI
ĠGdG hdGO
JU GU
ĠGde SjM
Ġdd ef
ĠHGYJ HGQ
ĠGdQ O
ĠGH Oh
Mj g
ĠGdJM V
ĠGfJ X
ĠGde bJQM
Ġf h
ĠS gd
GF RI
N Pg
ĠdO Ye
Ġf Xe
Ġf MUd
Ġg QGA
ĠcGQ d
ĠHYO e
Ġhc GfJ
ĠGbJ QGM
L hd
ĠQa Y
ĠVY ja
ĠGW hd
ĠGdY ejd
L eI
ĠJJMOK jf
hg fGc
ĠGdeYG jjQ
Ġe Zd
ĠGdVQ hQj
ĠH WGbI
ĠHjf gG
ĠbdH c
ĠJQ jf
G Tc
Lg hO
ĠGd QGFY
Ġdd PgGH
Ġgf Qj
Ga jI
hHQ J
fj J
Jb QjQ
hY g
ĠGH YO
ĠQ UO
G i
ĠM GS
ĠGdL gGJ
ĠGUO bGFj
Yd g
e hQ
X a
ĠGS HGH
ĠGdhdG jI
ĠfX QG
dj fG
Ġdd bjGe
U G
ĠL Ge
K bj
Ġe ejR
Gdj GJ
gG LQ
U jQ
GO GJ
Ġhc GdI
ĠZd W
Ġad SW
ĠGd je
ĠO hG
jG M
ĠdQD jI
Ġe bJ
ĠGde da
Ġaj QhS
hdG jGJ
Qa j
ĠeD SSGJ
ĠH K
ĠGdeOfj jf
ĠGdJ hba
ĠGdgj FGJ
S jd
ĠGdZ QHjI
U dGM
ĠGda Qb
ĠY GW
S GdI
ĠGdeg fO
ĠSG bhe
hH g
Nd i
ĠGdM adI
ĠehX a
ĠGdJc Gdja
hj LH
ĠGde jOGf
ĠJS jQ
Ġj eQ
ĠGYW fj
ĠN U
ĠJ YGhf
Q Gf
ĠGdJU hjJ
ĠJ SHH
ĠT eGd
ĠL SO
ĠLj ej
ĠGd gGO
ĠYfO gG
ĠfG FH
Yd I
Qhj L
ĠGdL gGR
Ġj UOb
j SJ
Ġe HGQGI
ĠeY bhd
aJ i
Ġb hGfjf
cGJ H
ĠHT Gfg
ĠhG LH
ĠGdJ bOjQ
ĠGdYGe djf
Ġj YJeO
ĠhW fjI
ĠGS hO
ĠGdGfJ NGHGJ
Hj GfGJ
ĠGdQ bU
QGg je
ĠN R
Ġha O
H Jj
ĠTQ W
GHY c
ĠH fSHI
ĠGdZ PG
ĠH SH
ĠGdG Ld
ĠGdZ GHI
dG Oj
HO A
Ġdde QGI
ĠGf W
ĠOG Yj
Gdj H
ĠGda FI
ĠLje S
ĠGdh GQO
Ġh SGFd
HY jf
GF d
Ġe jQ
e OJ
ĠGdH hG
S hQ
b GdJ
ĠdG Re
ĠGdj ge
Ġj Xf
ĠGdO fjG
ĠG SGYOc
ĠYe Qj
ĠGN HGQc
ĠPGJ g
ĠGd VMjI
ĠJYde hf
Qj L
Ġd ja
Ġf gL
ĠYfO fG
bJ jf
SH g
ĠHGdb QH
ĠGfgG A
SH hY
R GdJ
Ġh K
d QHeG
ĠeG RdJ
ĠJO Qc
ĠGdG Sd
e Gdj
ĠU YHI
hf L
ĠJ RhL
ĠJL GhR
ĠS dj
ĠH GQc
jJ ge
ĠGdLe YI
ĠGdGW GQ
hb jY
ĠbGO Q
ĠGdjc S
Ġhb Y
ĠGdea hVjI
ĠGdg Lhe
X QG
aQ bI
T jQ
ĠddG S
ĠYXje I
ĠGdH GdZ
HG j
Ġa U
ĠGdJd aGR
Qb jI
ĠH GQj
ĠJe RM
ĠGfJ eG
Ġe UGOQ
ĠSf chf
ĠGde eGQSGJ
ĠeHc QG
F Je
WdH J
ĠGdj ef
Ġa Qb
ĠGdG ad
Ġb UO
hG W
ĠZV hf
ĠJf Rd
Ġdd HdOGf
ĠGdJ hUd
dj a
ĠHJ S
HY KI
M a
ĠJY Ged
ĠGQS dJ
JYde jf
ĠGdb WGQ
Nj QG
ĠHG bj
H jO
ĠGdJ fG
ĠGj ej
PG H
fG OG
ĠGdGQ GA
ĠbU jQI
Ġa gPG
Ġg Pj
hJ jf
ĠGdehL hOI
ĠGdS YQ
b fG
QH W
ĠGf eG
f QjO
Ġh gPg
e e
ĠGdeL GdGJ
ĠGdL jOI
ĠGdM U
ĠGddG Re
ĠGde bHd
ĠS M
ĠSj GQGJ
Ġhb a
ĠGdfaW jI
GU O
Ġc QG
ĠGdY jf
U Ge
F jf
hU jI
ĠJ hbY
ĠGdGe Gcf
ĠGdY ScQj
ĠGdGfS Gfj
jf HZj
Gd h
ĠeM WI
ĠSf g
YH jQ
ĠeSDhd jI
ĠJbhd g
ĠGM dGe
QG HI
ĠGdW jQGf
ĠGdY GF
eJ gG
Ġc aGjI
ĠQG i
g Gf
ĠeLfhf I
ĠGdS L
ĠGj T
Gd K
Ġj hO
Ġc je
ĠfG O
ĠeJ Me
ĠGdZ OGA
GQ jf
f h
ĠJY Wj
ĠGSJ YOGO
ĠhGd W
ĠdGf fG
ĠGL gRI
ĠGdGK fGf
ĠhGd eY
ĠO eGA
ĠjT ha
ĠbQ Q
ĠL Oj
W ja
ĠGdY eGd
J GM
ĠeJ GN
P GJ
ĠdOj ce
hdcf c
ĠeY LH
ĠGdeZ QH
ĠdG hd
ĠT Gg
ĠGdOG FeI
f Q
ĠHOG Nd
WGd jG
Ġbe fG
jG Nj
f gG
hf fG
ĠJM djd
ĠGdGfJ GL
ĠGS eGA
ĠT jd
GSJ KfGFj
Ġd YOe
ĠJH GOd
X i
ĠJ Mbb
aj GJ
Ġjecf ge
H fj
ĠYf ge
Yd ej
ĠTNU jG
ĠGd hLg
G KjQ
Ġf HMK
N GH
Ġe PcQI
ĠhG bY
hGF e
ĠhJ S
ĠGH fGA
Ġf YhO
ĠGfJg jJ
bJ dc
ĠH WG
ĠL QGFe
QG Yj
Ġdc i
hSha h
ĠGdGa QGO
ĠfX QJ
ĠGda Yd
ĠOY hfG
ĠhGd N
gj FI
hf cJ
S jS
hGF O
Ġdd HjJ
GdO hQI
ĠYeQ g
ĠHG ce
ĠGdJ e
ĠGdhG MO
ĠJT LjY
ĠeJ GHYI
hfcJ GO
bd Gd
ĠGdfG Oj
ĠJf Sjb
ĠdJ M
ĠjJ Vef
VQ hQI
ĠGdN UhU
ĠhJ bOje
ĠGdGZ fjI
ĠGdG OGA
ĠJL QHI
ĠGdGdcJ Qhf
Ġbe I
Ġf Ud
Gde Y
ĠGJ LGg
ĠL dSJ
ĠSQj Y
ĠejJ I
L eY
ĠGdH QjO
ĠhGd SjO
ĠjLO Q
Ġd Yjf
Ġcd ge
ĠGSJW YJ
ĠGdJ ZjjQ
H YG
ĠGO QGL
ĠGd VY
ĠGdeM QR
ĠH VY
ĠGdGJUGd GJ
ĠQ hf
ĠG PcQ
ĠU Zj
ĠGdGK GQ
ĠJM hd
Ġf Sj
ĠH dGO
ĠGdg i
ĠGdJ YG
Ġa dJ
hV hM
ĠbJ dg
Ġh KjbI
f Sjb
ĠGdT Gf
Ġa X
ĠddG Sa
ĠWQjb g
ĠjT jQ
ĠGMJ jGLGJ
a GfG
ĠejJ G
ĠGdJMbjb GJ
ĠGe RM
fR jQ
Q YI
R i
Ġjd Re
ĠGdS h
ĠGdedc jI
Y bO
ĠJW db
P Gf
Ġbj Ge
ĠHYV ge
ĠGdN dj
ĠGg OG
Ġhe D
ĠGdGU GHI
ĠHj Gf
ĠGfJ gGA
ĠGdebQ QI
ĠN GWF
ĠeG GdPj
ĠGd gh
K QJ
V HGf
ĠeTZ hd
Oj J
HGd fSHI
ĠGdd Me
ĠGdeJ GMI
ĠGda cQI
TQ hf
ĠGcJ TaJ
jQ h
Ġb VjJ
ejR GfjI
ĠGdGhQ hHjI
j Gf
M aX
GSJ eY
ĠQS hd
ĠGQJ aGY
Ġcf OG
Ġe hQj
G aJM
ĠeN O
hGd G
ĠGdhW f
Ġ XQha
ĠGH b
H hS
ĠGdeJ YOOI
ĠT h
ĠfS NI
R jG
Ġdd Gd
ĠeSJ bHd
ĠJb hdj
ĠGdQG j
SQ YI
Ġh QG
hS a
GY g
ĠGdcf jSI
ĠebGH dI
ĠGdM QcI
hR GQI
R g
ĠbGO QI
PG c
ĠSJj a
ĠGSG SG
ĠGe jQ
ĠU abI
ĠdWja G
G bhd
ĠGdb Hjd
ĠGdG SGS
Ġf MGhd
ĠGdGS ad
ĠH Mj
S jQ
ĠS GdJ
ĠGHJ YO
ĠGd fj
ĠGSJ NO
ĠGdeY fhf
b GdjI
SG YhO
ĠGH bj
ĠO QLGJ
ĠGdGeQjc j
SH GH
J gj
ĠGdeW Ga
ĠGdJU Qa
ĠGdeS QM
Ġa GT
Ġa GS
Yf g
SJ f
PgH J
Ġcd eGJ
jS ja
bJQ MI
Hd heG
hd a
ĠM Ged
ĠGdGYJ eGO
ĠGdHQfGeL jI
Ġc gPg
ĠGf L
Ġj h
ĠGdM ed
O QH
ĠbQGQ gG
ĠGW a
ĠeG A
S jJ
ĠGdJf Xje
ĠefR dc
Ġg eG
Ġa QG
ĠW GdeG
ĠS L
Ġa ef
ĠG hba
ĠGdGU dGM
ĠLjO g
ĠG MG
ĠHJ bOje
ĠGfG S
ĠGbJ QM
R hGL
ĠGYO c
ĠJY Ojd
ĠGde SGYO
ĠGdQ hM
Ġb Gfhfj
W Ga
H e
ĠJ hUd
hJ G
ĠH dh
Ġcd jG
Ġe HGOF
ĠGZ dH
ĠaY GdjI
Ġcd GQc
a GO
ĠGdS Qj
aj S
WdH GJ
ĠGe Gf
W QG
ĠehG abI
ĠGdJaG Ujd
F gG
Ġc hH
ĠQ Md
ĠGdJ cfhdhLjG
Gfj jf
ĠGSJeQ GQ
ĠeSGYO Jj
ĠJ HdZ
UQ N
ĠGfJ XQj
ej RI
ĠGdGe d
hY j
ĠGdGd ZGe
ĠQ heG
ĠJJ UQa
ĠT Qa
ĠGdM dh
ĠGdGL GfH
ĠGdT GMfI
HG MI
ĠYed gG
ĠSjG SI
ĠJJ Vef
hdcf g
ĠhGd SdGe
ĠL fja
ĠS Lf
ĠjG cd
Ġc hfj
ĠYGF dJc
ĠWa dG
Ġh fG
ĠGdG UObGA
ĠaYd JgG
J bhd
f hO
ced gG
ĠGUO GQ
ĠGdf bO
ĠGO aY
L GLI
Gd jf
ĠdGj hLO
ĠeO g
ĠGdeW Ye
H U
ĠGdYQG bj
ĠddG T
ĠGdS QjY
ĠhUd fG
ĠOGF QI
ĠGdGM cGe
ĠJ dJ
ĠMd hg
QG gG
ĠZ GOQ
ĠJ bG
QGF H
jY fj
ĠGdY OO
ĠG cJH
ĠJT Zjd
Ġa FI
ĠJ SG
Ġb GS
ĠeTJ QcI
GdG T
ĠGdN J
ĠhLO fG
ĠGdGdcJ Qhfj
ĠQG Sg
ĠGdL hjI
ĠGdV MGjG
Ġe Nd
ĠGdGhd hjI
ĠSQ bI
Ġe jR
ĠGde hba
MS GH
ĠGdc GQj
ĠfHj fG
ĠGdM Ga
ĠhOG YG
Ġe HOY
Ġd MO
ĠGdf gL
ĠGdeNJd aI
Ġdcf fG
ĠUOj bI
ĠeJGc OG
ĠGdd GJ
hS WI
ĠGdW j
ĠHJ M
ĠG aJM
ĠJbhd jf
S S
MJ gG
ĠhGS Y
ĠGYW jc
ĠGdG MO
ĠL Se
Ġa QV
Ġef i
d dG
ĠGdef X
eG Yj
ĠGdJ Yjjf
bJ dg
ĠeO jf
QJ HI
ĠGdHj FjI
Ġdh M
ĠGda hQ
Ġdj g
ĠY Gd
J MJ
ĠGdGT JQGc
jf h
ĠGY jO
ĠZ Qj
ĠGdH QjW
ĠGde HGQGI
Ġdd NQhL
ĠeU GU
gj R
ĠV MGjG
ĠGjgG Gd
ĠhX GFa
Ġh MJi
J YJbO
ĠJ Kb
Ġe jO
je Gf
Q hM
ĠhM T
ĠGSHhY jf
Ġc hHG
cd aI
ĠGdeJ c
ĠhLg g
Ġddb Gfhf
ĠGdY GT
hG g
ĠGV WQ
R GR
eeJ GR
ĠU j
ĠT QG
ĠGdL h
ĠeW Ye
Yf Oj
Ġa GFOI
dG bG
ĠGdGQ J
ĠGdHj V
ĠGdJ bj
ce Gd
ĠNW jQI
ĠJ Gc
Ġd Pj
H GdGVGaI
ĠOj ajO
bG T
ĠGdLO hd
hG UdI
b jO
ĠJTYQ jf
ĠSJ f
MO GJ
Ġc hShah
ĠGS eG
ĠOY hI
ĠLGf HG
Ġfa W
ĠSJ bhe
ĠGdZQa g
ĠN db
ĠGdM ad
ĠL jH
ĠGHfJ c
Ġh fJ
ĠGdefG bTI
ĠGf OQ
ĠGdQ Mjd
Ġeg Je
ĠGf b
ĠGH i
ĠJJ hbY
ĠdG F
ĠS Je
ĠGdGM hGd
ĠLGg RI
da Rjhf
Ġc he
hY GJ
hGd Oj
G cQg
H Gde
ĠHfaS g
ĠL hd
Ġa JjGJ
HO GJ
Ġg GQj
Ġb jGOI
ĠGdh Yj
fj jf
ĠGdeh Se
ĠeS O
Ġc Y
GF f
ĠGdGYJ QGa
ĠGdQS ej
Ġg Gg
JYQa jf
ĠT ghQ
ĠGH QGgje
ĠHGce dg
Ġdde SJ
T GQj
ĠGdYGe dI
ĠGfaS ge
YO fj
ĠfX ja
hb YI
ĠT Qb
ĠJM VQ
ĠGTJ Qj
ĠGdeYG gOI
Ġa GfgG
ĠS ej
ĠhM eGjI
Ġde LdS
g dI
Ġdd GfJ
ĠL eGYI
ĠJYQa g
g dc
Ġe VM
TJ Qj
ĠGdSYhOj g
ĠGde WHN
ĠHjf j
Lj T
hX a
ĠYf hGf
ĠcQj e
Ġa QO
ĠjYed hf
ĠGdS jQ
GF g
Ġja cQ
Ġj ba
ĠHe bO
ĠbGfhf jI
ĠJe GfY
ĠHj dj
ĠGdaQ U
Ġhj dj
ĠddGd ajI
Ġjf Rd
ĠZ GO
ĠGYQa c
dG jG
Ġa ec
ĠGdYde jI
Lf hf
Gf b
Ge i
ĠGdf gQ
dcf fG
ĠGdGdcJQhf jI
NUhU G
ĠJ QGg
ĠhbJ c
ĠS fJjf
ĠJb GHd
ĠeD QN
ĠYe Qc
hJ J
ĠeG gh
ĠGdT cQ
GMS fJ
ĠjY LHfj
GT I
ĠGdhSW i
GfJ g
ĠGdT Gj
ĠH hLg
j gG
ĠGdU QGYGJ
Ġc SQ
T GH
ĠGdeDbJ I
d Q
ĠY GQ
ĠHSj WI
ĠbO jeI
ĠGde bJQMI
ĠfG Q
ĠeT GgOI
GdS jOI
ĠJN jd
ĠGdeO GQS
H hQ
ĠJQc j
Ġj bY
Ġh jO
ĠeG aj
ĠJY Gfj
Ġd hVY
Ġe hLgI
Ġhd dg
Ġh jecf
ĠSjGQ Jj
H Jg
SG YI
ĠGdTYH jI
ĠGdeS OS
H i
ĠHj Jj
ĠehG bY
ĠfU j
ĠGdHQ de
Tf Wf
Y RjRj
QGd jG
ĠGde eQ
ĠGdeM d
ĠGZ db
W hd
J aVd
ĠdH fGf
ĠHGdc GO
ĠeeJ YG
ĠGd gdGd
ĠGdO aY
ĠL ja
Ġf SH
ĠU dGM
Ġh HQfGeL
ĠJ HJ
ĠGd Qc
Ġa T
ĠGdS QjI
eJdc GJ
Qjc G
ĠJH jf
N HGQGJ
K eGQ
ĠJH bj
ĠGdcjejG FjI
QJ jf
ĠGLJeGY GJ
ĠZ GjI
ĠGd Ud
QJj HGJ
ĠGdLd hS
ĠJcfhdhL jG
ĠGdO djd
ĠGdN R
cGf hG
Ġf bhd
ĠV M
ĠV N
ĠJ bOQ
ĠGde QGg
fGO b
W hj
ĠdG Y
b GQ
ĠGdJL GQj
ĠGdcJ H
ĠGdd ZI
ĠSja Yd
H dj
QGa jI
MGhd J
Ġe bOeI
ĠeHG TQ
ĠGdZ GR
Ġja ge
ĠL hdj
ĠJhb aJ
ĠGd KdL
ĠeSJ hjGJ
ĠGde QM
ĠGdU ja
ĠhLg I
ĠGd bOQ
ĠGMH g
ĠGdhX GFa
QGFj dj
ĠGdZ QV
e SGA
ĠGdL fG
ĠeM Gej
Qc g
G hjI
ĠGdH QGR
ĠGfJ HGg
ĠGNHGQ j
hO g
NW W
ĠGdf UQ
e N
ĠSd WI
T h
ĠJY Gdj
PG cQ
ĠGL GRI
hf Oj
ĠMjGJ fG
ĠGfJ XGQ
hf J
ĠGSd hH
ĠfG NP
ĠGSe M
ĠGdGMJ QGe
Oj fG
K QI
Ġc Gj
ĠHY VG
GF W
ĠZ QjHG
ĠGde WQ
ĠGSW hQI
Ġhaj eG
ĠSG M
K K
e OI
Ġjhe jG
Gd cd
ĠhH NGUI
b Vj
Ġe QH
ĠJ haj
ĠGdJ NdU
Ġeb GQfI
T ha
ĠehG LgI
Ġg GeI
ĠecGf g
ĠGdJU hjQ
ĠGdGf SI
J SJWjY
ĠZ QH
ĠhH fGA
df PgH
ĠW Qj
Ġf jd
QGO GJ
ĠGdefT GI
hd gPG
Ġaj d
dj Rj
ĠL gO
ĠeV J
ĠcGf g
ĠS Hd
Qc GA
aY Gd
ĠGNJ UGU
Ġc aGdI
ĠJ hRjY
d GfgG
Yj fG
Yf a
fS i
NHQ fj
eG TGA
Ġhef XeI
ĠjSe i
ĠJ eG
Ġe WGQ
ĠGdeQ hQ
ĠNGQL jI
ĠQ UGU
Ġde YQaI
Ġc hjf
ĠWH YG
Vd GJ
hdhL jI
ĠGd I
ĠR Q
Ġh hVY
eGQ c
ĠL hg
ĠjM W
heG S
ĠJ MS
ĠGdfX GaI
S hj
ĠGdQM dI
ĠbGH dJ
ĠJXf jf
hV jM
hOG YG
G KQ
GF Y
ĠYjf jc
aJ g
ĠHhS Yj
Sj WQ
ĠGdS HJ
ĠGdJ Q
Ġd bGA
ĠJS hj
ĠHG cedgG
L QGJ
ĠJ HOjf
ĠGdN HQ
Ġe QGcR
ĠSf jf
Ġhe SJ
GQ bI
ĠeD SSI
ĠHS ghdI
ĠJM W
SG bhe
Gd Jc
ĠJSJ eQ
ĠH hVhM
ĠGdT QGH
ĠHQ hJhchd
QS GdI
UO GQ
ĠGde WGQ
ĠJf ejI
ĠLYd J
ĠHG M
ĠebG WY
ĠSH YI
GF jI
Ġf Q
Ġb HQ
j eG
VG jG
c i
ĠGdeMG ce
ĠGM di
ĠJQjO fj
a LQ
YO GdI
ĠYb dc
fG e
ĠGN hc
GF R
ĠG HG
ĠGK HGJ
ĠehG ba
ĠGNJ GQ
ĠGdehG abI
ĠGda SGO
e R
ĠGdYQG bjI
Ġc HGQ
ĠJL eY
Ġe hg
ĠddS cGf
ĠGdJbd jOjI
ĠGdQ bGHI
ĠH GQJ
ĠbGe hG
Kj b
ĠGdM aGX
ĠGdJY PjH
ĠGdYf UQj
QjW GfjG
ĠGdN ha
ĠGde NUUI
ĠehG O
ĠGdfG aPI
K GQ
Mj GJ
ĠGde SGA
ĠGdG hGf
W Hjb
ĠS QG
ĠGdT HcI
h Gfg
ĠhGd g
ĠGdeaJ GM
ĠeaJ hM
fH jI
ĠGdGSJK fGFjI
aG jGJ
ĠGdc GedI
dj dG
HY GO
ĠVY a
e hJ
ĠGda hVi
ĠT b
ĠhQ bI
ĠYfG UQ
ĠGYJ HQ
ĠGSG SjI
ĠbGH d
ĠJf U
ĠGH fI
ĠHGc SJGf
GH Yjf
f hGJ
Ġg R
ĠGdeWd hH
Ġjge fj
ĠGdGS fGf
jG SGJ
ĠGK HJ
Ġc jJ
ĠGdab QGJ
ĠdJ T
ĠGdT c
Gd jc
gO jO
Ġe dJ
jf R
ĠHGdGe S
hG SJ
ej GJ
Ġjbhe hf
ĠL edI
ĠfL GM
ĠGdM GOjI
Gg jd
ĠHJ fajP
ĠGdHM GQ
ĠT QGH
V ja
ĠGY hGe
bGF O
F ge
ĠeJ YOOI
H Jc
YG jjQ
ĠLR Q
ĠGdGe QGV
Ġg Gf
ĠY bH
ĠU MI
ĠYd GeI
ĠJaYd jfg
ĠH Pd
L ehYI
ĠT GedI
Ġj SHH
QGJ j
ĠQ T
ĠY Oj
ĠGfaS fG
ĠY OOG
ĠGdHQ J
GJQjO jf
Ġf bGW
ĠZ GdHG
ĠGdM QjI
cd g
ĠK GHJ
ĠGdGf VeGe
ĠGdeL Qe
ĠeYGj jQ
Ġf c
SGYO fj
ĠGdJS Ljd
ĠW GF
ĠeH fi
ĠGdN eS
ĠGdj GJ
QG K
aYd J
ĠGdY Xe
ĠGdSGO S
ĠGdhG LH
ĠGb QG
ĠS hjI
Gf Oj
ĠS hj
GQL h
hf jd
ĠJ YJeO
O aY
ĠWj HI
Ġh cfJ
ĠGdJ bW
O cJhQ
ĠH bJd
ĠGdgGO F
ĠGdYGT QI
gGLQ jf
ĠGdQG MI
ĠGdS GOI
Se M
Ġa dh
ĠGdeL ehY
GQ Ggf
ĠSG YhO
ĠGd hdO
ĠW GdH
GM V
d WGdeG
MG b
YO jO
ĠT a
ĠM Qa
ĠfT GW
ĠGdOhdj jf
SG aYd
ĠjJ ecf
Ġc ejI
ĠHY jOI
ĠhGd GN
ĠJJ ecf
ĠGQL Y
ĠGMOG K
ĠJ cQg
ĠGdU dGI
ĠS hb
hO jI
ĠM XQ
ĠHGQ O
GQ Jj
ĠchQ hfG
ĠJf Xja
je hf
ĠS cQ
ĠJ GJ
ĠJYQa j
ĠSj bhe
Ge S
ĠHe K
VG L
JTGQ O
GH O
ĠL hfj
bT GJ
ĠGf Rd
GU HM
G MGhd
S fi
Gd TjA
QG ab
Ġh GfgG
ĠUY HG
ĠGH fG
ĠGN Jc
ĠGb Ui
jf c
Ġbd bI
ĠGdG SQ
GF H
ĠZGV HI
ĠhGd GWaGd
ĠhHYO gG
ĠGd GdYGH
ĠGdaQ Y
ef I
ĠGdU jO
ĠV j
ĠGdb d
Ġj Gd
ĠeJ W
FfG a
ĠHhU agG
ĠGdGSJ GP
ĠhGd NOeGJ
ĠGdhb hO
ĠSa jfI
ĠGJ J
Ġd HQfGeL
ĠGde aV
ĠM a
ĠP hj
ĠJ aJ
O Qj
ĠGdWG hdI
ĠbGd g
ĠGdeaQ hV
ĠT gO
Hj hJQ
ĠY gO
ĠS QjI
Ġf SGA
Ġb GYI
ĠGS ag
GN Ti
ĠGda QO
ĠUY hHI
QGc GJ
aG bjGJ
ĠHL Gf
dh HI
Q D
ĠGdeU Qj
haj eG
ĠGdGfJ TGQ
ĠGf Si
MG aI
ĠaY Gd
ĠL eGd
hGdO c
ĠjJ MQc
fG jI
ĠGdGSH GH
ĠeJ Y
ĠGdUM QGA
hg GJ
ĠGdc hGQK
ĠGdeL G
Ġa Ud
M Hj
ĠJG jd
ĠGdeQcR jI
ĠSjGQ Jc
ĠGdG cd
ĠGdYfG UQ
ĠGdeJ hbY
ĠGdM GS
ĠGddGJ jfjI
Gd je
YO d
ĠGaYd gG
ĠGdQ hS
ĠPGg HI
ĠGQG Vj
ĠM QjI
ĠM Uhd
Ġj SHb
ĠM LR
ja J
ĠJb hO
ĠGdH fGA
O Ge
Ġjf LM
ĠaQ GfS
ĠY ejd
ĠfG MjI
ĠHGd QZe
hG HW
G PgHj
ĠNW hGJ
Ġfa P
Ġgh jI
ĠGdf e
Ġd hf
ĠL KI
hb GdJ
ĠGdWHj Yj
ĠMOK J
hHYO gG
Ġa hR
GF gG
ĠgPG Gde
ĠHH SGWI
ĠGdGdJRGe GJ
ĠH djR
Ġcd jI
hG FjI
ĠGN Qj
ĠeG TGA
Le GJ
ĠddG gJeGe
ĠffJ XQ
Gd GN
ĠhGS YI
Ġde SGYOI
ĠP cj
ĠGdeD JeQGJ
ĠGf h
Ġh gfGc
Ġc a
ĠGddG YH
Lf H
Ga ge
ĠGdS eGM
Ġd jc
ĠGdP GJj
ĠGMO ce
Ġhdcf fj
ĠYW dI
M Jj
ĠQj JTGQO
OY h
ĠeKd eG
ĠGh QGb
Ġb Hjd
ĠS gdG
ĠhGd Sd
ĠhR jGOI
ĠjaYd hf
ĠGT JQc
ĠGdJMV jQjI
ĠGdbfG I
ĠG QaY
WH YG
ĠHG Z
ĠJM hjd
ĠQSe jG
ĠOhQ Jg
Ġg QH
Ġb GJ
ĠGdeL fhf
ĠJU Ojb
ĠM QGe
ĠSc hJ
ĠL gI
ĠbGF dG
ĠHe LQO
fG Q
ĠJU eje
Ġf bhO
Ye Q
ĠH Je
H Z
jO h
ĠGdG aJ
g hd
ĠHjf ge
ej gG
ĠGY QH
ĠL jd
hM jO
ĠGdeSDhd jf
ĠGdeO Yj
VG jb
ĠGcJ TGa
ĠGH O
ĠhG Lg
hf R
ĠjYjT hf
Ġef XeGJ
Ġc GP
ĠGd MOjO
hG h
ĠL hdI
G jecffj
ĠGdeYG gOGJ
W jQI
ĠGd GdJ
ĠQ GJ
ĠQD jJg
ĠGdd hf
Ġjha bc
ĠjY Wj
Ġd dj
ĠQM dJ
ĠGdSh OGA
VGF Y
Ġd QHeG
ĠcGe dG
N Gf
ĠjJ hLH
ĠSQ YI
ĠdGMX J
Ġe aQ
ĠGdH TQj
hdcf fj
Ġa SJ
M W
Ġef a
hd Pdc
TGQ jY
M fj
ĠGdM V
ĠhG YJ
Ġdde LdS
QG aj
ĠhG TfWf
ĠeY jf
ĠJH Pd
ĠGdhX jaI
ĠGdOQG SjI
Gd GS
GF c
Ġe HOG
ĠH bjJ
Ġcd GfG
ĠGdehG W
J MJGL
fO Q
ĠhGdK bGajI
N dg
ĠGM QR
ĠGdL KI
ĠHJ f
ĠGdS ec
ĠGO i
ĠecJ Hj
ĠH hbJ
ĠY GL
Wj A
ĠjLYd fj
ĠQa j
ĠNW H
Q cfj
Ġddg hd
ĠGdS M
ĠhcGf g
hf jI
ĠhQ Hj
ĠSde Gf
Ġg jc
f Z
ĠGdZ PGA
ĠGYJ PQ
ĠT ha
GfG I
L hA
ĠGdS gd
ĠGdj hJjhH
hZ hS
ĠGHj V
ĠGdLd O
Ġdd MXI
Ġe jc
ĠGdc Qje
ĠdJ chf
ĠhGdGJ UGdGJ
ĠGdS GejI
ĠGjG gG
Ġe cQ
Q be
ĠQ hHQJ
jf eG
ĠGdGSJ bQGQ
Jj Gd
Ġb Hj
ĠhGdO g
ĠT Gfg
Ġf edc
U fY
ĠjOY h
Z PjI
Y Xje
ĠQ YGjI
SH M
ĠbGd hG
ĠKe GfjI
ĠGdUfG YjI
ĠG PgHj
he g
ĠGdJU Ojb
ĠGdJ hajb
ĠGJNP J
Ġj SG
hGF Q
ĠYHO Gddg
ĠdGO GQI
Ġe HGQ
ĠJ OejQ
Ġhe g
ĠeaJ GM
b Se
Ġj Ge
ĠT hf
ĠGdeY GedI
ĠLej dG
ĠJa c
H hH
GdG SJ
ĠeeJGR I
ĠGdb QjI
ĠHhU ag
Ġe bH
ĠhGO GQI
ĠQGjJ gG
ĠdJ S
ĠGdJN WjW
ĠGdHQGR jd
Ġe de
ĠGdU GOQ
Ld O
ĠZGV H
ĠdG YGOI
ĠGdGh QGb
ĠGdZ Hj
ĠHGecGf fG
ĠfaYd g
aG ajI
ĠbfG Jj
ĠJOY h
ĠGVG aj
ĠGJ QjO
ĠH QjO
ĠZGO QJ
W Ye
ĠHeK GHI
ĠjY fi
ĠGdGbJ VGA
ĠG Qb
GN jQG
ĠJT Hg
ĠGdf Lhe
Ġa GR
ĠLj Qj
ĠeK dg
ĠGjbG a
ĠGdG hfcJGO
ĠGaJ bO
jG L
QJ H
ĠGdG hbGJ
ĠhGdG bJUGO
Ġa QjO
ĠGdL fI
ĠGdS MQ
ĠGdJ HQ
ĠdO QLI
ĠGSH GfjG
ĠHGdGS ad
ĠhGdJ Q
hW f
GH bj
ĠH HW
ĠeJ Q
Oj dGJ
ĠGdN WH
ĠGj WGdjG
ĠGdS N
Gg Je
ĠGdjc e
T HGH
ĠGS YGQ
Ġj bOQ
X QI
ĠGdJM OjGJ
ĠjY Gfj
ĠGdSj FI
Ġe jOGf
ĠHJ Y
Ġj ZjQ
ĠUZj QG
ĠSG NP
Qj Lj
ĠJV WdY
ĠJY jO
ĠQ he
ĠGde QL
T hf
ĠJ Gejf
Ġdd NGQL
ĠGdZ QjH
Ġe GdjI
Qa J
V ZW
Ġe QGLYI
ĠGdf LGM
Ġc GQJ
LO hd
Ġh HG
ĠM OI
ĠGdN WQ
ĠGdJ hGUd
j GQH
ĠGSJ Q
ĠS QGM
ĠJ ZGOQ
ĠH hJ
W jQ
eGQ S
ĠYed fG
ĠjSJ eQ
QG N
ĠJMO jOG
ĠMUd fG
Qj GV
e Ge
g jI
hdhL j
J R
ĠdGf ge
ĠGdhR GQj
ĠGe g
ĠGTc Qc
Ġg Gd
Ġe HJ
ĠGdQM ef
ĠJQ MH
ĠeM Ge
ĠGdR aGa
ĠJQJ Oj
ĠJJ fGhd
Ġg jQ
hj jf
ĠGde Nd
ĠGdGN VQ
Ġb VGA
ĠGYW jJ
ĠddG L
gj g
Z HI
OG c
YG bH
ĠGdf S
b Qj
YQa J
ĠGdYGU eI
ĠGdaQ Yj
ĠJb a
J MQc
ĠNGQL G
Ġd GfJ
ĠGdGad Ge
SG NP
Gg OG
ĠGdU j
ĠGLd g
Ġdd Gejf
ĠJD KQ
d gG
P jQ
ĠO aYI
T W
ĠGdeHG TQ
Ġaj Ud
Ġhj SJ
J HOjf
ĠGdeaG hVGJ
ĠJhb jY
ĠdG Mb
ĠcP HJ
GQ jG
ĠQGjJ c
gG cGJ
ĠcQj S
ĠGd XgQ
ĠehG ab
Hj YI
ĠY GgQI
Ġf cf
Ġdj dj
ĠePg d
Ġj cJH
gG c
Ġe bOe
ĠhJ c
T Gd
P a
Ġhdcf c
ĠJf Si
ĠGdY G
ĠGdGMJ jGW
ĠGdSf hjI
GH bi
ĠG MOK
ĠGdL eghQ
ĠHM GdI
GQ gG
ĠeNO QGJ
ĠOj c
Ġec GfG
Ġj cQg
ĠJ GL
ĠLO jOG
Ġg GL
Ġh aQ
gdG c
H cd
ĠGdUa MI
ĠGO dI
Hc GJ
ĠGM jGA
ĠHG T
ĠGdGN Jj
Ġg Lhe
ĠJSJ eY
hGO K
ĠQe VGf
LY dc
ĠNUhU G
GJ Qi
ĠGdT GWF
Gf SI
ĠdG a
ĠGR GdI
Jj Gf
Ġc Ta
ĠGfJ bd
Ġf WGdH
ĠS hQjG
ĠGY Xe
b hf
ĠGdeY QcI
ĠGdaQ fSj
S HG
ĠbH hd
MJ jGLGJ
ĠJ deS
ĠT Ged
ĠX ghQ
ĠGdef UhU
Ġh ab
ĠjM VQ
ĠeDQN I
ĠGJ HGY
K GfjG
hS d
ĠNj QG
Ġcf Jj
H hG
ĠGdbW QjI
LR I
ĠHGdf XQ
Gd dj
bG b
ĠGdeW GdHGJ
Ġh Sd
ĠGef I
Ġc PH
ĠeM bG
ĠGdJ gOjO
GJYQa jf
ĠGdQj ajI
ĠGd jf
ĠGZ QGV
ĠGfg eG
ĠGSJ GP
ĠGSG Sj
ĠN Wj
ĠhL HI
ĠbGO QG
ĠP Gdc
h hO
b YI
ĠP cQJ
ĠeL JeY
ge GJ
GH OG
ĠhM jOG
HQ O
ĠGdMQ GQI
ĠhGfJ e
ĠT QcGJ
ĠeQ hQ
jS jG
QGF b
ĠGY LH
Ġgj FGJ
ĠJ PgHj
ĠGdSjG b
ĠN GdO
ĠJS de
bU i
Ġa eG
QG YjI
hc GdGJ
Ġj QLY
HGd dg
ĠSQ bJ
Qa jf
Ġj aS
ĠGJ ecf
ĠdGL dc
ja jG
ĠGYW GA
QGe jI
ĠGdGSJ eQGQ
ĠH QL
ĠSG bhd
ĠJ hej
Q Gej
ĠddG O
e jQ
ĠGdJ Gejf
ĠMS GHGJ
ĠGdeSJ TGQ
ĠGdbQ Gf
ĠY Gdej
a fOb
Gf Z
ĠUOjb Jj
Ġjecf ce
ĠhM jO
ĠGde WGdHI
ĠMjGJ gG
ĠWHj YjI
ĠJY Gdi
D Oj
ĠGdjhf jSja
ĠJ ge
ĠGdS GHY
ĠM GQ
ĠGdHj Gf
H hW
ĠGdc dGH
ĠeQj M
ĠGdeD S
X Qi
ĠdG T
ĠhGd R
ĠhG U
ĠJ bj
ĠHT GfgG
ĠTQ hW
ĠZ Ge
ĠU OQ
dH S
ĠGdcd jI
ĠGd Rj
ĠGded Mb
ĠJ LdS
ĠGdeaV dI
KQ jf
ĠdJ fGhd
ĠL Qj
ĠU dj
ĠJje hQ
Ġh aGI
ĠJaS jQ
ĠGdg LQI
R GH
ĠGdfgG FjI
ĠM jI
Y PQG
ĠQ Ge
ĠQH fG
ĠSY hOj
ĠGdGS QGFjdj
ĠGUO bGFc
hd eGPG
dOj gG
ĠHGd efRd
ĠGdH Gd
Y hH
ĠRj GQI
Gd SHH
ĠJNHQ jfj
ĠGdGhd jI
ĠGMH HJ
ĠGdePc hQI
ĠGdV eGf
N dc
O d
GW QI
Ġde DJeQ
O hL
TG hQ
ĠWj dI
SJ G
ĠjJ ZjQ
ĠGdZ GA
L jI
ĠGN QGL
ĠGU ZQ
f Rd
d MXI
ĠGd bGA
ĠGdf WGb
Ġe HGdZ
ĠGdM Le
ĠGdb S
ĠhGd GH
e ecf
ĠGdYV hjI
ĠJ Yj
OG jG
ĠGdJf aS
LG gd
hc eG
fJGL GJ
Q K
fG bTI
ĠGT Hg
Ġb GQ
ĠLej dg
ĠGNJ ai
ĠJhU j
ĠGdeN GWQ
aY GdjI
Ye GQ
Ġe jGg
Ġh dbO
ĠQhS jG
ĠGY GO
ĠGdGQ bGe
hO Y
ĠhG Ud
ĠGdHhG HI
ĠHGdO Nhd
ĠGfLd hS
hJj hHQ
ĠM PQG
ĠGdSf hj
Gf fi
ĠeMe hO
ĠGdeL JeYGJ
Ġj hGLg
ĠTY HI
Ġef Wb
ĠGdK e
ĠSj GJj
ĠGdedc I
ĠGdeJ NP
ĠGJ HY
ĠbU U
GH MK
ĠGdMbj HI
ĠGdeYO GJ
hc G
ĠdJ MSjf
ĠJS dje
ĠOG a
ĠGUO bGF
ĠhGdO Jj
hG jI
ĠGdS fjf
N SQ
ĠfL he
bG YOI
Ġd jchf
ĠGda Y
ĠGSJ QGdjG
ĠeY QV
ĠadSW jf
L ejd
ĠGO fGg
ĠGdLf hO
a a
ĠhGa bJ
QH c
ĠGdYO h
ĠR eGf
T Gcd
ĠGdGZ QGV
ĠGe i
Ġa c
U fI
Ġhj T
a dG
ĠeJ LQ
ĠGSJ fGOG
ĠddN WQ
ĠL eGY
hj T
OYj fG
M fG
ĠGc jO
ĠQ hO
ĠeaJ hMI
ĠT GHg
ĠGdc GejQG
ĠGddj dg
Ġj dG
ĠeO QjO
ĠGdSd Y
ĠGdeU Qa
G YH
Ġec GdeI
ĠGf Oj
ĠM SG
he HjG
ĠGdU he
L QH
ĠGdO SJhQ
ĠhGdeD SSGJ
ĠL jS
F P
ĠM GOKI
ĠeSJ bH
hG Rf
ĠHGSJ WG
Ġdd MO
ĠGa cGQ
ĠGdVQ Q
ĠGd hL
Ġj eJdc
ĠeZd bI
ĠGda f
ĠW adI
ĠJU hjQ
ĠMche jI
ĠGdfHj P
ĠHYV gG
ĠJQc jG
ĠGdbO he
Ġa Sha
e cGf
ĠG hb
ĠGO NGd
ĠJ Ge
ĠGO hGJ
ĠGdW a
Ġj aJ
S fG
Sj W
ĠcJ HJ
b gG
ĠGdL Hd
ĠRhL gG
GQH YI
Ġd hbJ
Ġh cja
ĠGdGS eGc
ĠLR jQI
ĠhGd HdOGf
ĠGWd bJ
YJ fG
ĠJS hjI
ĠGdaVG FjI
ĠjJ HY
cd eG
GQ Jc
ĠdG NP
jf J
ĠGdbj eI
Sj g
Oj KI
ĠaX jY
Q FjS
ĠGdJU Oj
ĠGdO hGA
ĠhS f
ĠJhb aj
ĠHb QGQ
Ġde SJ
ĠW GQ
ĠJecf J
Ġb WQ
ĠGdSd hc
ĠGdGVG ajI
ĠjJ hbY
ĠhG cKQ
Ġh QHeG
ĠGdH fGJ
Ġe hb
ĠGdc JQ
Ġh HYV
fj GJ
ĠGdGL GHI
D ef
ĠhL ejY
ĠbO Qg
ĠGde QjV
ĠJgO jO
ĠeeJ Y
ĠMbjb jG
ĠSJ YhO
h Pdc
ĠGdGfJ bGd
ĠGdM SGH
ĠH Qa
ĠW Gd
Ġef NaV
ĠGde UdMI
ĠS jc
Ġj ZGOQ
ĠMbj HI
ĠGde QGbH
ĠGdGQ hGM
V WQ
JU GH
Ġh dJ
U aI
ĠGdGe HQGW
ĠN QhL
ĠJ hfj
ĠGdYf hGf
ĠGdT hGQY
ĠY GU
ĠGdP cQ
ĠHGd GM
b hW
ĠN SQ
d Y
ĠHGdGe cGf
ĠGdO Nd
Ġb he
ĠG LH
ĠTY Qc
ĠS YhO
ĠGdbW Qj
ĠGdT OjO
hGd Pj
ĠY hOI
hQ f
L i
QO O
Ġc GfG
Ġj dJ
ĠGdg QH
ĠGU hGJ
ĠY Gj
QGQ G
Ged GJ
ĠN aV
K hb
Gd djdI
ĠGdM VhQ
MX g
ĠJS dj
G hba
ĠeT GhQGJ
Y hQ
Ġb QGAI
hJ f
Ġh LH
ĠGdGeJ KGd
ĠGdHO A
J I
SGJ Ud
cJ hQI
ĠeT GYQ
dc jI
ĠGS Q
ĠGMH gG
J eI
ĠM L
ĠHGd Mbhb
ĠJ cJ
ĠSj UHM
ĠGdT QGcI
Ġhjf HZj
ĠGdcGQj Hj
Ġj eJ
Ġe Sd
Ġjf U
ĠSf bhe
ĠJ hd
P hb
ĠjD KQ
b V
ĠGdS cQ
ĠGde jJ
e Yj
Ġdd HMK
ĠcGa jG
GfJ J
ĠZ HjI
ĠGdGQ Of
GNHQ jfj
hQ fjG
ĠG QMd
ĠGdeMG ceI
e MeO
ĠJ cQ
ĠGdGO hjI
GfJ eG
ĠGdegfO Sjf
ĠGdJ Mbb
GJ jI
ĠY QHj
ĠQa jb
ĠNGF aG
ĠeY L
ĠO h
GQ Sd
ĠSG Yg
Ġc Gde
h MG
ĠeJ T
ĠGdGa cGQ
ĠT hj
Z db
ĠGL RGA
Ġb QjI
ĠGdd LhA
ĠGdfG MjI
Ġhf Ua
OG hd
ĠQS ej
ĠGdN ejS
ĠJf aP
b UO
Ġdd hUhd
ĠJYW jfj
ĠGdT Qa
ĠGc S
Zj H
ĠJc ai
ĠGde MOO
ĠG aJQV
ĠGf UM
ĠSQj YI
h je
W ad
ĠK GeQ
ĠeG OI
ĠJ RjO
ĠhJ Qc
ĠH fGJ
Ġaj jfG
ĠHG A
ĠGdb hej
ĠGdGe GQGJ
Q bI
ĠGdL eGYI
R hf
GY PQ
ĠaYd fG
e hdI
ĠGS gd
ĠeJ c
Sc h
ĠGdeTQ hYI
ĠjQ Sd
ĠdeY GdLI
he GJ
SG M
ĠT OjOI
ĠQFjS jI
ĠGSJ YGOI
ĠGdc Gaj
N Pj
Ge hQ
ĠHGd GL
ĠGdc PH
ĠhL eghQjI
Y V
ĠGdGQ VjI
Qj GA
Y HO
ĠGdg OhA
ĠGZ dGb
J HI
ĠY LhR
ĠGdH WG
ĠGdW hjd
ĠHGdf jGHI
a hb
Ġcd jQ
O fG
ĠGdT bI
ĠOhQ GJ
Je J
ĠJYde J
ĠdG R
Ġh YfOeG
GT J
ĠhJ hajQ
ĠPGJ gG
ĠGdf gGQ
ĠGdGSJ aGOI
ĠL hj
GN j
Ġddf he
Ġdh dG
W i
ĠhM jOI
Z hW
ĠYbO J
ĠJ Vef
MG K
ĠZ GR
ĠSj SJ
ĠHGdJ RGe
Ġb QjHI
ĠJMH jf
Ġdd HjFI
ĠfG F
ĠhGJ hH
ĠGdf hG
U jO
ĠMe Ge
ĠGdK ef
Ġe bHhd
ĠGdG jQ
ĠGS hA
NU I
ĠGdG YOGe
GY OG
ĠJQjO hf
H dG
cd a
ĠG Oj
ĠGdNW hGJ
ĠdJ J
ĠGR YGL
Y bH
ĠGh GeQ
ĠHGdJ Yjjf
Sd d
ĠGc PH
ĠGdb GQH
ĠGdSjO GJ
ĠeTcd Jc
ĠGdGS QGFjd
ĠQ SGFd
ĠN SQJ
ĠJY bH
ĠGdQ SGFd
ĠhH GdJGdj
ĠYGO J
hG MOI
ĠJM Oj
hb jJ
ĠQ ZH
S jG
ĠddJ YGhf
ĠGdQG gf
ĠGde YQaI
HQ Hc
ĠHYO eG
Ġa gO
Ġdd WGbI
ĠHGd g
MG V
ĠY Gdj
ĠGdeJ hSW
ĠGde eJ
D c
ĠhdO J
T FI
GH jf
ĠQFjS j
ĠGde YjT
b HI
ĠGdjG H
ĠSdGe I
W dI
ĠGdGNJ HGQ
Ġj QL
ĠGe GfI
ĠGdajOQ GdjI
Gd TQWI
ĠYV hG
ĠjMH hf
h cfJ
ĠGf fJ
ĠJL jH
ĠG hLg
ĠH eGPG
hG bH
ĠeQj VI
aj dO
ĠGdeMJ dI
SjO Jj
ĠSG YJjf
Ġa fMf
ĠGdJYdj b
Ġf YjT
ĠeMO O
ĠhGSJ NOGe
ĠGdGSd Gej
ĠGdbGF e
Ġa Td
ĠGdc Ge
M HjH
ĠGdGSQGFjd jI
ĠGdKdGK GA
ĠeQG bH
ĠL GS
ĠJO Ye
ĠGdJ GcO
ĠJSe Yfj
ĠGM eQ
Ġc hcH
hR Gf
ĠL hGfH
Me g
ĠGdcgQ HGA
W J
hGLg I
fJ c
hG TGQ
ĠGdGS hGb
ĠGdc Mhd
ĠGdGfJ gGA
ĠGe fG
ĠjO hQ
a MU
ĠJGN QJ
ĠHG MO
ĠGdGNJj GQj
OJ ce
Gd TNU
ĠhGV MG
ĠJ UO
Ġh jc
ĠGde djhf
Ġhj LH
ĠcJ GHI
ĠPGgH hf
GN jQ
ĠGdJT Zjd
ĠG QGA
hGf OG
ĠH hHj
ĠGdf ghV
hc GdI
Ġe SdSd
ĠGdd Hf
ĠeDN QJc
dGf fG
ĠGde ZGOQI
ĠS hd
Gc S
ĠJ MOO
ĠeY QcI
ĠHGde QGI
SGF W
, .
ĠG OGI
Yed jI
GdY Gde
ĠGdLf hHjI
ĠGdaQ fSjI
ĠGdGfJ HGg
ĠJ aJM
ĠdGL QGA
ĠGU jH
QG Vj
ĠJaG Ujd
ĠT gGOI
Ġe Qab
ĠSJ Gf
ĠT Hg
hH Gd
ĠGdY GW
ĠJ QLY
ĠK Q
ĠNW GH
ĠS fO
ĠGdGSJ LGHI
ĠGdS YGOI
ĠGSJ Y
ĠJOY i
ĠeT GY
Ġ Xf
Sc Y
ĠHM GL
Ġbe jU
cd fG
a Qjb
Ġbd hH
W GFQ
ĠGdGZ PjI
ĠGdYf UQjI
c TGa
ĠGdeW dhHI
hH jG
hQ gG
ĠGMJ aX
WY Ge
ĠGYJ eOJ
ĠGdS WM
Ġdh MI
ĠGdGbJ QGM
ĠG gO
LO jO
ĠGdGhd j
ĠS QjQ
ĠL QG
ĠJe Kjd
ĠGdhb ha
G aJQV
ĠHGdJ MOjO
Jhb aj
ĠGYd f
ĠJT Qj
ĠGdWHj YI
ĠhGK bI
ĠU jGZI
Ġe bGWYI
Nd b
Gd Pjf
GYJ PQ
ĠGdGUdj jf
ĠJN ajV
Ġf dJ
ĠjSJWjY hf
b f
ĠGdJO Nd
ĠeYQha G
ĠGde Me
Gg j
Ġhc jd
N aja
ĠGdf Ua
ĠOY jfj
Ġh Ye
ĠaVdc e
ĠjQJ Oj
ĠOhd j
ĠGdG KQ
ĠJYQa hf
Ġdd eJ
ĠGH hc
ĠGdJ hUjI
Ge QI
K i
ĠJT LY
ĠJL QH
ĠGdMb jQ
ĠW Q
hS fI
ĠHGSJ eQGQ
GQL Y
ĠGdLO GQ
ĠGdGQgGH jI
ĠGdW GFQGJ
Ve hf
ĠGdeJ bOeI
U hJ
Ġjc PH
Ġf he
ĠJ MjW
Ġd LYd
R jd
ĠY KQ
ĠJ Pc
ĠY cS
Ge Sc
hG YJbO
ĠS dG
ĠGdf Xe
ĠGdR Q
ĠGdZ QH
dJ fG
ĠV GHW
ĠT Zd
ĠGdH c
Gj VG
ĠGQ VG
ĠGf Ve
ĠGdeY gO
ĠJeJ dc
ĠGdYXe i
ĠT bjb
ĠGde OI
ĠJchf jf
Ġ Pg
ĠGdf TGW
ĠU jO
T M
ĠOGF e
ĠabO Gf
ĠJT GgO
Ġddb VGA
YO GJ
ĠeeK dj
GQS Gd
h GQjN
Ġh fYe
L Gd
Ġd bJd
jG cd
ĠjD cO
fJ g
dOj ge
ĠL dO
ĠGdGd ajI
Y T
ĠJQc jR
a aj
X I
Ġf bO
ĠO bj
eY PQI
ĠK d
Ġedj FI
Ġc Qg
ĠGdGQ gGHj
Ġj hf
ĠG bOGe
Gg h
ĠR Yje
ĠGdU O
ĠGdehG ba
ĠgGJ ac
Ġb S
ĠddJ MOK
Ġj HOhG
Ġh Qb
ĠXg QJ
ĠGdg GeI
ĠhG h
ĠGdeJNP I
g hf
ĠGde Kd
Ġb hGFe
fO jI
ĠdQD jJc
ĠGde QGJ
ĠJ heGS
U b
Ġjb UO
Ġdd eGOI
cJ GH
ĠGdGHJ OG
VG LY
ĠHGde NOQGJ
ĠGa dGe
ĠGdQ MH
F GH
GSe g
ĠT GP
ĠGdg fOSI
ĠG SGYO
hG VGa
ĠGdO bjbI
SJ g
ĠHGd TQWI
ĠM dbGJ
ĠJY Qja
Ġdde MceI
ĠGdeSG geI
ĠGdje jf
ĠGSJ eJY
ĠGdhM T
Ġdj dG
ĠGdS cf
ĠGdGV WdGY
ĠGdeh YO
hQ HeG
ĠGdMe QGA
a dj
Ġdef XeI
ĠGdeQV i
Ġdd GQ
ĠhGde SJ
ĠGdU abI
b S
HY K
fJ XQ
ĠhJ MSjf
HGQ j
ĠT QH
ĠS HY
eK dI
ĠGdha GA
Ġc gQ
ĠJT GQc
ĠGdGW HGA
ĠcG aj
GH YO
ĠGdGh GeQ
ĠGj eG
GfJ Hg
Ge H
Ġc h
ĠGD ef
ĠGdeSJ Mjd
ĠhGf eG
ĠGdGJMGO jI
ĠGdGe cGf
ĠhGj VG
ĠhH Gd
Z hG
ĠGdefG aSI
ĠGdHY KGJ
hd eI
ĠO YG
ĠGW dGbG
ĠGdL Z
ĠGdU Y
h MJi
ĠHQ D
Ġe bJQM
ĠJc ad
hj H
Ġe cS
ĠL g
ĠVQ hQj
Ġj bQQ
Ġj KjQ
ĠGdcgQ HG
ĠGdGSJ eGY
ĠGdedG Re
g fI
ĠGdL hj
ĠJf S
WG Ye
L GA
ĠGdGMJ aGX
ĠL GQ
T GJ
ĠGeQjc j
ĠSjQ Gdjhf
Ġa hd
ĠGde Yde
hb jf
ĠeaG LGI
ĠMj hGf
ĠdH fGA
ĠGdH fJ
a hR
e Jj
ĠHL hGQ
Tj T
SG NHQc
ĠJY fjf
ĠhGd GT
ĠGO eGL
ĠjS jQ
ĠSLd GJ
ĠedGH Sc
ĠGdeTJ Hg
Mjf eG
ĠO eGZ
hj dI
ĠGde HGOQGJ
ĠGdQj GVjI
Ġaj Q
ĠdGf bGP
ĠLGA J
ĠJb QG
LO Q
ĠGdGH dGZ
ĠGde eJdcGJ
ĠGda jQhS
Ġh dc
Ġe Yde
fa W
ĠjSe Y
QJj H
G jd
eY c
ĠT GMfI
ĠGdbO S
ĠJ HGQc
ĠGdNd aj
ĠGdehG VjY
ĠGfJgj fG
ĠhGd j
ĠGdUGO QI
ĠGQJ Oj
ĠaN hQ
ĠZ jH
ĠGde cGJH
cd Ge
ĠGT QH
ĠJTc jd
Gdj jf
Z QH
aQ Gfc
J O
Ġde cGf
ĠJ hdj
ĠGdGf LGR
ĠGdeO i
ĠHj FI
ĠdJ MOjO
ĠbU jQ
ĠGdM LR
Ġd GeQ
U QI
ĠGh VM
Ġd R
ĠhHQ GeL
ĠdhM Oj
ĠL QGA
Ġc hc
ĠY QG
ĠGdSj GQg
ĠhGd Ga
fG W
ĠWHj YI
ĠMGd eG
fG SH
a GQ
ĠJ ejjR
D g
ĠGda GQ
ĠY GLd
ĠGdGH hGH
ĠhbJ gG
ĠGTJ QGc
GO dI
ĠGdGe Gf
ĠJY bO
ĠMS jf
ĠHG Pf
ĠhGd gQ
ĠGdMche j
YfO gG
GfJ gi
ĠGN Ti
ĠGdYd hj
ĠhO Ye
ĠGSJNOGe gG
ĠGO di
Ġf hG
ed J
ĠfJ cde
GdM bjbI
OY g
ĠehL hOG
aG M
Me dg
ĠJ hSjY
GJa ge
ĠhGdGbJUGO jI
ĠjS Gd
MG ce
ĠfL MJ
d bI
ĠGde GS
GZ db
ĠHO GfG
ĠOG j
ĠH R
ĠQ HW
ĠGdeSJ hjGJ
ĠGdOY hI
ĠJ cJH
aJ gG
ĠGdJ YQa
hL j
ĠHGde SJ
SGA I
ĠhJ b
ĠGdNJ GejI
Je GeG
a gh
ĠjG Nj
ĠUf YJ
Ġf VY
hM T
ĠGdJM Qc
ĠGdM GOK
Ġd Gd
ĠQLGA G
Ġddf XQ
ĠH bO
ĠGfJ i
ĠV QHI
ĠGdJ GcjO
ĠMe dI
ĠGdf abGJ
hK GFb
Ġj hSa
GO Nd
GZ h
Gd SJ
Ohf jSjG
ĠGdL gI
ĠHM QjI
ĠJD ef
hY dGhI
ĠGdU chc
hX aj
ĠOa YJ
Ġc GHJf
hO jf
U W
ĠGdJ YHjQ
ĠGdOj hf
fG R
ĠJQ Sd
ĠT bI
Ġd chf
ĠGdGSJ NHGQGJ
QGQ GJ
ĠJ dh
ĠSJ GJj
ĠGdehGW fjf
ĠGdGO GQj
ĠcG jd
L hGH
ĠGdN V
ĠMV QI
QGJj Lj
Ġj KHJ
g OGa
ĠJYQV J
ĠMV hQ
ĠGdeQ A
h PcQ
Ġed M
a Qj
Tc Gd
H bjI
ĠJTGQ dR
GS QY
ĠGdJ cfhdhL
ĠM GQS
J SJ
ĠGdMG VQ
ĠGdGL gRI
ĠZjQ J
Rd fG
ĠGdGS W
ĠeYO dGJ
ĠV Mc
ĠefG SHG
ĠGdeJ NUUI
Ġe abhO
ĠhG ab
ĠGdY TQjf
ĠjGQ aGb
Ġe hVY
hG NjQG
ĠY TGA
Ġchf c
Ġjhe j
ĠJJ WdH
ĠHY jf
ĠGdN jGQ
ĠGdS hQjI
hGd i
ĠGdJW hQGJ
Oe g
Z fj
ĠGH WGd
ĠJJ RhL
ĠGMV GQ
ĠGSJ QGJjLjGJ
ĠGdQ D
ĠSd hc
Ġb ghI
ĠGdjS GQ
MX G
ĠQ Fj
ĠGHf g
hR jd
ĠGdGR Qb
Ġe bJd
ĠGdhR f
ĠJ dG
ĠPc jI
ĠU Gd
ĠGde LjA
ĠGL QjJ
ĠeGQJ f
ĠeS OS
GdJ gG
O fj
ĠGdJ daRjhf
ĠbG YO
ĠJ QGLY
ĠYe heG
ĠGOQc J
ĠL GOI
Ġf MH
ĠGdGSJ NOGe
N eSI
ĠGdhc jd
hG Zd
ĠGM fG
ĠGdd ZGJ
ĠYGO d
ĠGdZ GHGJ
ĠcGd ja
ĠGdeO QLI
ĠO bjbg
ĠGdeLehY GJ
ĠGdc hcH
ĠhGde LJeY
ĠGdGM jGA
ĠgGJ aj
ĠGda GFOI
ĠGdG FJe
Ġf YJbO
Q U
GQ aY
ĠGdL eGd
ĠSjG SjI
e F
ĠeG O
Ġdde QI
ĠJ hLg
ĠJ be
fj d
Ġe HGOQI
Ġdcf ge
Ġe UO
ĠGdV QGFH
a LQGJ
ĠGS QGQ
hc I
ĠGdL fhf
Ġhc GdGJ
Ġej KGb
ĠGdQ UO
ĠGHj c
ĠeJ hSW
ĠS WM
ĠGdGfL djRjI
ĠJMJGL jf
ĠGdJa JjT
ĠO hQG
Ġc jS
ĠNH QGA
age J
ĠGdeT hQI
aG c
ĠHSQ Yg
Ġdd eY
ĠdG jLGO
ĠSJ UHM
ĠeY GgO
ĠGT GgO
Gg Q
ĠN dGa
QH M
ĠGfc eG
ĠefW bj
ĠGdGK GK
ĠGb dje
GO GQI
ĠHY f
ĠUOj bJc
ĠJLYd fj
ĠGdV GHW
ĠGde gGLQjf
ĠGSJNO eJ
ĠJJ ZjQ
Ġj VQH
Ġhb hY
ĠU Qj
Gd GH
ĠJ hfS
ĠGdGQ H
Ġb a
ĠGdJ hGdj
ĠJN HQj
ĠGdT J
ĠGdGQ HYI
D gG
eQM dI
ĠGc O
ĠGf NaGV
ĠGdejO GfjI
GN HQj
ĠJYdj bj
ĠTNU j
N G
ĠHe HdZ
ĠGdGS eGA
ĠeH cQ
L hG
U GJ
b QI
ĠeY GedI
ĠG hbGJ
ĠGdR QGYjI
Q HGg
Ġh Mbhb
Ġeb dH
b GeI
ĠeSJ YOG
ĠGf Ge
Ġh dg
ĠjY QV
ĠUMj MI
ĠJNU jU
a bJ
SDhd jI
ĠGdT QjW
f XQ
ĠH bG
ĠJfG e
ĠjD de
Ġb fHdI
ĠGde hLgI
Z Wj
ĠddO hdI
ĠW GQb
ĠLO Jj
ĠhG c
ĠGdZ QHj
ĠGdefJ Oi
ĠGdg Ge
ĠMd hd
SG W
K eQ
Ġe WQ
ĠbH V
Ġd TjA
D d
ĠGda QGT
Ud M
f Oj
OGO GJ
f hH
Ġc hJ
ĠGdeDQN I
ĠeSJ Tai
ĠGdM GfI
ĠG Kj
ĠGdO HdheG
ĠGdS GYg
ĠGdg QhH
ĠJ Ve
ĠGJ MGO
GM di
ĠGde Qj
KdGK jf
Sd hH
ĠS aQ
ĠH QGO
Ġh Oj
ĠL Hd
ĠQGj j
Ġcd Gec
T jG
ĠJMJ hj
ĠGdK Gef
G Yed
ĠGN Pg
Ld hS
Ke GQGJ
ĠjU fY
LF J
ĠJM ce
ĠGf I
ĠY jfG
Ġe hR
ĠeSG MI
ĠJZjQ J
ĠddJ Y
ĠGdGfJ bGdjI
ĠeJ aG
ĠGdM bjbg
e Qc
ĠaQGfS jS
ĠjMGhd hf
fG Y
ĠeY bO
Ġg hdj
e D
c Pdc
ĠGdefJ NH
ĠegfO Sj
ĠZ jfjG
ĠcGf c
hc Pdc
Ġja hR
ĠcGdja hQfjG
ĠhGdJ Ydje
ĠGd Vj
ĠT Z
gO hA
ĠWdH GJ
ĠhGdJ b
ĠG X
hH GdGVGaI
d bJ
ĠGdY bGH
ĠGNHQ g
QjJ G
ĠGe Gej
ĠGdf bWI
ĠLd SGJ
ĠM VQ
ĠhGd Yed
G bJ
ĠQGF Yg
ĠGdO eGZ
ĠhGdgQ Sc
Ġe ed
a cQJ
ĠGNJ QJ
dj ej
ĠHGdc KjQ
ĠJ GH
NJ GQ
ĠGde NUU
Ġj RYL
ĠL jfj
Ġdc eG
ĠGT GQ
Ġf MJ
ĠQD SGA
ĠGde HOG
ĠV jb
H JgG
ĠGSJ LGHI
ĠGdJYdj bGJ
ĠHe bJ
HM Q
Ġh jG
d dJ
ĠhLO Jg
Ġeg Ge
hdcf gG
Gd Pi
PG cQI
ĠGdMGa dI
ĠGdWdH GJ
ĠJ jSjQ
ĠeJ YH
ej dj
F i
ĠeU jQ
ĠGdT g
ĠehG W
ĠHG SQY
de I
ĠGdeQc Rj
ĠGW QGa
ĠGJ aGbGJ
ĠjY jO
ĠM hGQ
ĠeT GgO
ĠGdehG bY
S M
ĠN G
ĠhGde SGYOI
ĠGdLeGY jI
Ġd SHH
ĠT GQc
HG bj
fG Jj
ĠbJ dj
ĠGdJ Ge
hJ e
O Gd
Yd gG
ĠM Qj
ĠhGd GfJ
ĠOhd jG
ĠHhS Yc
QS hf
hR jQ
ĠT jQ
ĠGQG OJ
ĠGdS af
eQ g
ĠLdH J
ĠGeGe c
Ge dG
ĠGNP gG
ĠGdOQG SGJ
ĠjJ UQa
ĠSh jS
ĠY dGbGJ
GOj ejI
T GgOI
ĠGh R
ĠGdfa Sj
Jj gG
VG j
ĠeL GfG
ĠedG MXI
Ġh gG
ĠKGfj g
ĠeO Q
ĠdYed jI
Yd Ge
ĠjNHQ fj
Ld SI
ĠGdTQ Wj
Ġa cQg
ĠbGO ehf
ĠMdh I
Re GJ
ĠHU hJ
ĠYd GeGJ
ĠYeQ gG
hG hO
ĠGdb he
GH QGJ
ĠHGd GfJ
ĠGdGSJ Y
ĠY QT
hd Gf
b hG
ĠGS f
ĠGdK bG
aG g
jf L
Ġg QHJ
ĠeK Gdj
LdS GJ
ĠH hf
ĠjS YO
ĠGdbU U
Sf chf
ĠO jQ
ĠGU HJ
Ġg Gfc
e dG
ĠJM QjQ
Ġf QL
ĠJe GQS
ĠSbW J
ĠGdG gd
bhd j
Ġe FGJ
ĠjJ YQV
Ġddf SGA
Gf Sj
ĠGdG ReI
c g
ĠY bhO
MJ QGe
Ġj haQ
ĠGdGL fHj
Ġdjd Jc
ĠZQa Jj
ĠddG Ydi
eG jcd
H L
ĠGdL hGfH
ĠGdeg fjI
Ġj dGMX
ĠeSJ jbX
Z f
ĠV MjI
QM eI
ĠGdL GQjI
ĠT LQI
e i
Ġhjdj Ge
SG hGI
ĠT cQ
K J
ĠN SGQI
ĠSJ LO
Mj H
Ġj hJjhHQ
ĠdG NQ
ĠGdeD SSI
Xj eG
Ġf gQ
ĠLejY fG
ĠQj GV
Jj c
Ġe hXajf
Lf hH
ĠGdTNU j
ĠGa bO
ĠGZ GOQ
ĠhMO GJ
ĠHGf TGA
Ġf Le
N hQ
ĠGdSa dj
GO Y
ĠY ScQjI
ĠGdU ZGQ
ĠGdeO f
ĠYGde jI
ĠGdHj VGA
ĠgPGGd QLd
fGJ hQ
aYd g
ĠJU QjM
ĠGdY bhO
Ġg hG
ĠdeSGYO Jc
ĠGL Qj
ĠT GfgG
Ġj QGbH
ĠGdG Pf
ĠLf hO
Yde J
ZGQ jG
M bjbI
ĠGdL fGFj
GLd S
ĠGdef b
ĠdM aX
Ġj aJM
ĠQ hc
Gde J
ĠGT O
HGdJ hajb
ĠGde Vj
ĠY G
L OI
Ġefg eG
ĠGdU jfj
ĠGdOGF QI
Ġdg fG
ĠfG e
ĠGdZPG FjI
ĠeY gO
ĠGdGL fHjI
Ġh TcQG
ĠGf Y
ĠH UO
hGJ j
ĠhGdJ M
ĠTGg OJ
ĠJbUO jf
ĠHGd j
cJ I
ĠG be
N Jda
ĠJQ ej
ĠJT QH
ĠZjQ gG
ĠGdGN JUGU
W QjbI
ĠeQG ab
Ġdf aSj
Tj W
ĠGR eI
Ġdc aGdI
ĠJW hQ
ĠYGO jI
Yj fGJ
ĠhGdb Gfhf
g QH
Ġb hjG
ĠQ heGf
ĠGdGO fi
ĠGdS HGMI
ĠGdd Wja
ĠddG YJ
ĠhMO c
ĠHJ GQjN
hj dG
ĠL QM
ĠGMJ LJ
ĠGda WhQ
ĠJN Ga
ĠGde HGOQI
Ġdd OGNd
ĠQ hL
ĠJT J
ĠGM ed
ĠLGF RI
ĠGb Q
ĠS cf
ĠSGJ Ud
ĠHM hR
hGF M
ĠYfO ge
S YjO
ĠGdJY hjV
dGf O
ĠJf aj
ĠHYf hGf
ĠGdQFjS I
ĠeL Qe
Ġb Qj
ĠhG NP
ĠGdZ VHGf
ĠGdeg Ge
O c
ĠGdMj hjI
GTc Qc
GdO h
Ġe jRGfjI
ĠGdGT LGQ
ĠeSJ bdI
ĠGda cQ
ĠGdeLG hQI
T GQI
ĠGde Ye
ĠJQc R
ĠGdeGf MI
h YO
HG Ff
Hj c
ĠSj bJd
jaJ QV
Gd GfJ
ĠeTcd g
ĠhG P
ĠGdU Hj
ĠGdQ Mje
jO c
bG a
ĠGdS c
ĠGN jc
HGde fGSHI
ĠGb Hd
ĠJ jO
bGF eI
ĠjJ LGhR
ĠGdGQL fJjf
ĠHdZ J
Gc j
ĠhO hf
ĠhGd SJjf
R GHj
ĠHfO Q
ĠGde bGe
ĠeO QH
ĠW QM
ĠGY LHfj
dGM bI
ĠhGdSjG SjI
ĠGdb djdI
Ġd aJ
ĠJPgH jf
F hd
ĠHGJ LGg
U GAGJ
ĠJ QMd
ĠHYe Q
jJ Gf
ĠLGF Y
ĠeMJ Qa
ĠGdW jH
ĠefJ NH
ĠGdeH P
ĠdhMO c
Ġg fO
ĠV Ne
ĠGb QGQ
Gde TcdI
QM jd
ĠSJchf jf
ĠM hV
Z R
ĠGdTQ bj
ĠGde Mj
ĠL Gd
N WjW
ZG KI
ĠHQ jf
aG Yd
ĠGdY Q
dG Ld
ĠWQjb fG
ĠGdadSWjfj jf
ĠOj fG
ĠjSJ ZQb
ĠLhf R
GMO ge
Lj QjG
ĠGdGQH YGA
hW fGJ
ĠHYed jI
ĠJQJj H
ĠjYW jc
VY ja
ĠJ hQ
ĠK bI
ĠSjY hO
ĠGdT QcGA
ĠYb dj
ĠeMJ Qe
YG bI
SJ c
ĠGdJfXje jI
O gG
ĠGT cQ
hJ fG
ĠL hG
ĠG ced
ĠGdd LGf
ĠH HjGf
fj Y
H hJ
ĠGdO LGL
fJ gj
Ġfeh PL
ĠehSj bi
ej fG
H fi
ĠGdQ DjI
ĠSG NHQc
Ġj LdS
ĠJGN Q
Ġh dOj
h MOI
ĠGe Qc
QJ fG
e GQj
M OGK
e GdjI
ĠGdea GJjM
ĠGdeJ ge
ĠTjc GZh
ĠGdMdh i
YO hG
Ġe UGO
UOj bj
ĠJMOK fG
ĠJU hjJ
Gf L
HYG KGJ
ĠjYJbO hf
ĠJ Nd
ab hOI
ĠHGSJ KfGA
ĠL GH
ĠGdOj c
Ġd QLd
ĠZjQ g
ĠGdhdG OI
cJ g
ĠGfJgG cGJ
ĠHjJ c
Ġb V
ĠGdO H
ĠJaYd hf
ĠJb fjI
ĠUGM HI
ĠMjGJ ge
Ġfj h
ĠGdGL eGdj
ĠJN WW
ĠGdefJ LGJ
ĠJU fY
ĠhG NHQ
ĠGQG gG
ĠcQj SJ
ĠGdGM UGF
ĠhGdJ OQjH
ĠGdb fHdI
Gd GL
ĠSY OGA
Ġf WdH
GU HMJ
ĠGfJ Hg
ĠGb djejI
ĠGdM QGS
SQ bI
ĠWj HG
ĠGdGO YGA
Ġf eJ
Ġc jQ
ĠG XgQ
ĠGdh GdO
Ġd YOI
ĠOGNd jG
ĠJY hjV
jbhd hf
ĠeN ja
T g
ĠjJ NP
W S
ĠHO Ye
eG g
Ġc SH
ĠJT j
Ġdda Qjb
ĠfhY jI
Ġea jOI
jG Gdgj
ĠjJ fGhd
Ġdd fGS
Ġj MOO
dGa jG
H TGf
ĠeG gj
ĠGeGe fG
ĠGdG Uhd
ĠGdeV GOI
ĠJ Ye
ĠJY fi
ĠGJ SGAd
ĠGd GdjI
ĠGdeS D
ĠGdJHQ YGJ
ĠHW hdI
ĠOGfj Gd
ĠGdJL QHI
Ġec Gde
ĠSJ GQ
ĠGS hI
ĠeSG aI
Ġe LdI
ĠGf aG
ĠGdh MOGJ
ĠWG bI
Ġdd Sd
ĠGdM GFW
ĠJcd eJ
hRjd fOG
Y KQ
ĠGdQGF YI
ĠHjf c
ĠddG N
ĠGf Lj
ĠSGYO fj
Gg fGc
GQ JgG
ĠGdaQ bI
N g
Ġhb GdJ
ĠGdL hGQ
ĠJbQjQ g
ĠGSJ Mb
MG VQ
ĠHGd eL
Hg I
hdG jI
ĠGdN ajaI
ĠHO d
Gg I
Ġj Lj
ĠJS Yi
ĠGdb jG
ĠGdN Qj
ĠVN eI
Ġej dG
ĠGdfR GY
T Qa
ĠGdSde jI
ĠJ MjGJj
ĠhGd YOGdI
ĠHO Q
ĠJbQjQ gG
Ġj cJ
ĠJ Xd
GQ Jg
ĠGdGNQ hf
ĠGfJgG c
Vj g
ĠhGdHQ GeL
ĠGdM GOj
ĠGJ SGFd
ĠHG YeGd
Sj WQI
ĠMhd c
ĠeLehY GJ
ĠeR MI
Ġd K
jd R
ĠGNJ aJ
X GaI
Ġe bQQ
ĠL hR
ĠGdGMJ aGd
eK jd
ĠTgQ jf
ĠJL f
ĠW HjI
che GJ
Ġe MGhd
T gO
ĠeN QL
QGg jI
U GM
ĠGdd Pjf
ĠYf UQ
ĠeY Gc
ĠQaV J
ĠcGQJ Q
ĠGdeT GhQGJ
he Q
h jc
ĠGdS hjO
ĠGdHQde Gf
Gd HYV
Y jG
d fJ
ĠHGH G
ĠGde UOQ
ĠGdH Wd
ĠebO GQ
ĠHGL QGA
fa P
ĠWG hdI
H fGA
ĠSj LYd
W jI
Y Gf
Ġd bH
ĠJhG LO
ĠjO g
Ġd RjGOI
ĠWH bG
ĠK b
ĠGdR LGL
ĠJj Qj
Ġeb Qa
ĠGdeJ LQ
Ġdd TQWI
HG SJ
ĠGdWQa jf
ĠGdJ GKjQ
ĠT L
ĠGd GfG
ĠGdJ QJjHGJ
ĠGQJc GH
ĠhGdJ cfhdhLjG
Ġj bHd
ĠN T
QGH WI
ĠHW Qjb
ĠcfJ J
ĠJf LM
VG YI
he Hj
ĠGdM bGFb
ĠHJ Yjjf
ĠJ NdU
ĠJ VMc
Ġdd YH
ĠbJd hG
RY LI
Z GA
ĠH MSH
SG I
ĠGdNdj L
ĠJ KHJ
ĠGdJ gGH
ĠdG cKQ
ĠGdYe dGA
ĠLf Oj
Jj d
ĠJL fH
Ġd RhL
ĠYb hHI
ĠGde MGaX
ĠGfbP J
ĠJT ha
ĠJ UOQ
ĠGQb Ge
ĠGdO eGQ
ĠGdJ eKjd
jd GJ
ĠN V
ĠS dje
ĠfG L
ĠGdGb GeI
ĠGdJM aX
ĠGJ U
e Gdc
ĠHGdS Lf
ĠGde SdM
GQ ge
ĠGdfG QjI
Ġdd SjO
ĠjO Ye
Ġg P
ĠhJ bjje
ĠGdJ QLeI
eG gh
TQ b
ĠN Q
Ġchd heHjG
ĠGdG cJ
ĠjJ Sfi
d hc
ĠcHjQ g
Lg GJ
Ġg Pjf
ĠR aGa
V YI
ĠGdM OjbI
ĠbdH g
Hj S
Ġj hGUd
Ġg Q
Qj h
ĠGdLf QGd
Gdd LfI
ĠJ dbi
ĠSeYJ g
Ġh NUhUG
Ġj Mb
GdeY PQI
ĠY jhf
Ġc S
ĠGdLeGY GJ
ĠGd fJ
Ġe Jj
ĠGdNH QI
aj jf
Ydhe I
ĠjYde hf
ĠJe Ge
Ġj hdj
HQ GeL
ĠSjG OJce
HO d
ĠGK GQI
UGd MI
ĠhGdGb djejI
OY hI
ĠGQL h
Ġj ef
ĠGdchf Z
ĠedG c
ĠS HG
ĠGdH dG
Ġe ZGOQI
ĠY XjeG
ĠGNHQ jfj
ĠaT dJ
ĠGdY GOj
ĠGdW adI
Xg QJ
SjO i
Ġe eQ
ĠGdZ VH
ĠGdSa jQ
ĠYU GHI
ĠGdQjGV I
ĠSje hJ
fG Wb
ĠGQ gGH
ĠbJ dc
Z OG
ĠHdh Z
ĠeQ QJ
ĠGdW dGH
ĠeR GL
ĠGdQ bjH
TGQ Y
ĠaGQ Z
ĠddGS ad
eG RdJ
hO jG
Ġj HJ
ĠGU GHI
ĠJS YI
ĠGdJM djd
ĠJ K
ĠGdGN JjGQ
ĠL K
ĠMhd g
ĠGda OQ
ĠJ Hcj
ĠGdGfa LGQ
ĠGde Qg
ĠJage jf
ĠGV W
ĠM GfI
Hj JQ
Ġcde GJg
ĠJJ Yde
Gf Rd
ĠHGf aS
O Gfj
Ġh fj
ĠGQ KQ
ĠGdeNJ UI
ĠGdS G
ĠhGd ejRGfjI
ĠGdJTQj YjI
ĠJ MSf
ĠNj GQGJ
ĠGdM de
ĠGdc QHhf
jJ hf
ĠddG SdMI
j Gdg
aQ UI
hJ gG
Ġad hS
ĠGd ge
ĠGdGf aGb
M hU
dG ReI
ĠHGdM bjbI
ĠGde Tj
ĠSD GdG
eY Xe
YG Y
ĠGdTQ hW
ĠGdf H
ĠGdY cS
KGd KG
GQ HI
LR Gc
Ġh YG
Ġd jO
HQ jf
Ġdj h
T Gg
aj de
ĠdJ Y
ĠN dGU
Ġb jd
Gd aI
QG hM
ĠHQ hc
ĠhJ Q
ĠGdeLQe jf
ha b
ĠGdGU hGJ
ĠQG MI
ĠLghO gG
hS f
Ġf RdJ
ĠSjG NP
GH hf
ĠHGecGf g
ĠQD hS
ĠecJ hH
Qj Gf
GdM jGI
bGH dJc
Ġe MGaXI
ĠZ RI
ĠGdeHP hdI
ĠJ GHYI
ĠGdf aGjGJ
Ġjhe c
ĠGdGJ aGbGJ
ĠU aQ
ĠM PG
ĠGdeN GHQGJ
Ġjbhd g
ĠGdeY bhO
ĠGdJ hbjY
ĠGdGL QGA
Ġh eGPG
ĠGdc Yc
ĠHd OI
ĠN dbg
d LfI
ĠJ GS
ĠGdMG ce
eG jc
QG Wj
H K
a hQO
ĠGdeYJ eOI
ĠeQJ aY
ĠGfJ J
ĠGdGj W
ĠGdebO S
ĠN GdjI
bJ Gd
ĠL QJ
ĠhGdJ ejjR
ĠY GJ
ĠSJ MUd
ĠHGdW QjbI
ĠU OG
ĠeS GQ
S GeI
ĠhZjQ g
Ġeb YO
ĠH aVd
ĠhR hL
Ġd hQ
ĠGdeNJ HQ
Ġe RYL
fMf f
ĠGdGfJ N
ĠeVM cG
ĠGdN eQ
ĠbGH dI
ĠHJ T
f bd
ĠefR dg
ĠG GfJ
SG b
ĠGd hLgI
ĠhGdNeS hf
ĠMGd g
ĠGdM GL
ĠGdS hQj
ĠGdeM WI
ĠJM Xi
Ġd SfhGJ
bG WY
ĠfG jJ
ĠGf aGP
ĠOja hGQ
ĠS hjJ
QS he
Gd QLGd
ĠGb Ge
ĠbW YJ
ĠGNHQ Jg
ĠGdN U
ĠG Me
Gd YH
ĠeS de
ĠeT ghQ
j Z
ĠHa jQhS
ĠeYQa Jg
ĠGdUhe Gd
SG MVQ
ĠGdSQ WGf
WG be
QJc H
ĠGdGSJ TGQj
ĠGdWG be
Ġdj H
ĠGdR QGYI
ĠQG TO
ĠGde HGMK
ĠO YjfG
ĠHGdG SdMI
ĠhS je
ĠjQMe g
hG Fj
ĠhGdf SGA
dS fG
ddG Sa
GJ jf
ĠGdM hG
ĠGdeJ ab
Sf bhe
Ġde cJH
ĠMjGJ i
ĠJSJ WY
ĠS hHQ
ĠS gdI
ĠGN Ga
jc I
ĠGdT QH
U Gf
ĠL hQO
cQ GfjG
HY g
ĠJYdj bGJ
ĠeNW F
ĠGdJ V
bG Y
ĠHebJ Vi
ĠJb Vj
Ġf jGHI
ĠY dGb
ĠhVY gG
QL Gf
ĠHj V
ĠGdeTGQ cjf
L FI
X Qc
e hd
ĠeSe hM
Ġh hO
ĠGfT W
ĠL Ydc
ĠaGf fG
ĠgPGGd GeQ
ĠGdeH cQ
JQjO jf
ĠGdfG TFI
ĠGdL S
ĠHT F
Ġde J
ĠfX jaI
ĠGdeda GJ
GF Qj
ĠeSQ hQ
ĠGh Z
ĠhYO J
Ġeh Se
ĠJJ LGhR
ĠGSJ O
ĠjfG SH
Gd Jg
ĠGdH hSfI
ĠhMO gG
ĠGdaG YdI
ĠGjecf c
GH fj
ĠGdJTQj YGJ
ĠHG YOGO
ĠGdW hjdI
ĠGdehVhY jI
ĠM J
ĠH hc
ĠGh SY
Ġe MGaX
ĠGdeJ YOO
Ġbd bG
ĠGde eGQSI
aG hV
hZhS dGajG
U g
ĠhGd GM
L jcG
ĠSj PgH
ĠJU hQ
ĠddY hOI
ĠO hfG
ĠgPG GdecGf
Ġb hi
Ġd ZI
ĠL hGR
ĠGY QGV
Ġj LjH
QS g
ĠGdT G
Gg Pg
ĠGdGY OGO
ĠUZjQ g
ĠJ SH
ĠGdU OQ
ĠY QH
ĠGdJ ge
Ġedc I
ĠHG YGOI
ĠGfLd JQG
ĠJhb YJ
ĠS HGb
ĠT jf
ĠfG J
ĠjY LHc
ĠYf i
ĠW f
ĠW Ye
ĠcJ jQ
Ġj WdY
ĠeSJ eQ
ĠGdWj hQ
ĠGdR Yje
Ġea hVjI
d hJ
GdJRGe GJ
ĠG hG
ĠH hb
ĠNGW FI
ĠQ OI
hV YJ
ĠeM QL
GSJ ZaQ
GM Ud
N GWQ
ĠdGSJ NOGe
ĠGdGb Gdje
ĠjT J
ĠGdehJ i
ĠGdefG bTGJ
ĠK bj
ĠGdH hd
ĠeNJd aG
ĠGdJaG hV
P GQI
ĠeTZ hdI
be I
ĠHGde fGSHI
Yde c
Ġe GdG
ĠGdGg dj
ĠT QjW
ĠWQjb c
ĠQFjS I
ĠGdH Oj
Ġb UQ
ĠGdU GdM
ĠP QG
GJ jJ
ĠMR H
ĠGde MGhdI
Ġa dj
ĠcG KQjf
haj ShQ
Sf PgH
ĠHd OG
ĠGdGfJ gGcGJ
ĠHGd eQ
Q hG
Hj cG
ĠZGV HG
ĠGdU MGaI
Ġe Oj
Ġhe OGO
ĠePg dI
ha i
ĠGdT GedI
ĠHGd ef
ĠGa c
F a
ĠGTJ QjJ
ĠHJ U
P Lj
ĠGdbWGY GJ
bGF H
ĠGSJ ZdGd
ĠdGL dj
ja g
Kbj a
Ġa fGf
LR G
ĠZ jGH
Ġe ejRI
H F
ĠSh OGA
Ġh HJ
ĠhG jJ
SQ g
ĠU dGI
Y TQ
ĠGdL SQ
W QO
ĠHQ Td
Ġa hVi
Ġedj GQ
ĠGda FGJ
ĠJ Sd
ĠGdL j
Yj GJ
Ġc ah
ĠGdO SJ
ĠGJ GcO
ĠGdMH hH
ĠhM Oj
ĠGf LR
Ġc eGf
ĠHZ OGO
ĠJL Ggd
ĠGdbe GeI
Ġdc QI
ĠGdJ bGYO
ĠGdLfS GfjI
ĠSdGM c
ĠJM V
ĠJfajP gG
ĠQ jf
U f
U ja
ĠHU QGMI
hj PI
ĠGdGf PGQ
ĠShjS QG
ĠGdb UQ
O GJ
ĠNH QI
ĠJbhe jf
ĠeZ db
ĠGL HQ
MH J
ĠGdP QjI
ĠGdY hGed
ĠMSH eG
Ġhd d
ĠGj dGA
ĠZ Sd
ĠS hG
ĠGNQ hf
ĠUfG YI
ĠHGdG Ydi
ĠGW HGA
ĠGdY XGe
ĠGdH f
Ġde S
ĠGde UGOQ
ĠY SG
ĠGdLf hHj
ĠVY jaI
ĠHG Y
Ġf hO
hd dg
ĠddG MJ
Ġb GQH
ĠGj e
HW Gd
ĠO eG
ĠGdHQ jI
Ġdde hXajf
F ce
Ġhf TQ
hdG j
ĠhGdGJ MGO
ĠJN WjW
ĠGH bGA
TJ Gjf
ĠJd bjJ
ĠJ QLeI
ĠY GR
ĠGda QG
ĠGda YGd
ĠGdG Sj
ĠGdeM Gej
GfJ i
ĠGdLfS Gfj
G jecf
ĠGS fGf
ĠdG jecf
ĠGdeO QH
ĠSf hjG
hj Y
j h
ĠGdeSJ bdI
bQ jI
ĠPgH fG
jc h
GfS i
Ġe Yd
ĠHM eGjI
ĠHdG c
ĠS GHbI
HGd QZe
e MJ
ĠGdHQjW GfjI
dcf ge
ĠeO GQ
Ġhef WbI
a cQI
Qa jg
Hj YGJ
ĠddM jGI
ĠGSJ eJ
ĠGdVQ hQjI
Ġe bW
Mh K
ĠGQL GA
ĠTY hQc
ĠNd aj
Ġcj Gf
ĠGS bW
ĠLYd fj
H eGPG
ĠGdeYQ ha
W h
ĠGfXQ hG
GdeG OI
ĠGdS Gej
Wd M
Ġf dYH
ĠJY fjg
ĠNW Hc
ĠGdT b
QH hG
Ġa h
G MeO
ĠeJ hJ
ĠYdG bJfG
Ġa hQJ
ĠGdf JjLI
ĠY PQG
ĠSej K
T jO
ĠeG RGdJ
ĠjYfj g
ĠSG MI
ĠMjK eG
ĠY KQJ
ĠeeJ YI
ĠQ gjH
Ta bI
ĠO hGA
ĠHT NU
ĠL P
ĠGdK bGajI
ĠYQT g
Ġdd YjT
ĠJhU jI
ĠHN W
ĠGeS cJ
ĠGdedG MXGJ
fG Oj
ĠGdY jO
Mb bJ
fO GJ
ĠGde bGHd
ĠddGJ MGO
ĠGfJ NGH
ĠGdN fRjQ
ĠGQJc HJ
ĠQG HWI
ĠGdJM Oj
Ġj hGab
b GdI
ĠSj MUd
ĠeS M
ĠNW Gj
ĠSG N
ĠGdH MhK
ĠGT YGQ
GdGe hQ
ĠJS bW
ĠOhG Yj
Ġdde DJeQ
e hG
gGO GJ
dc d
ĠdGM cGe
ĠhW fj
ĠGde bGWYI
ĠJSJ Ggd
ĠGdNj GQGJ
Jb UO
e cJH
ĠSjG Sj
ĠN Gd
Gdj SJ
O hG
G YOc
ĠGde bU
Ġj Hj
Ġhf bd
ĠhQ VG
ĠGdJO Njf
ĠedG FeI
ĠGdT LQI
ĠhG jf
O GQ
ĠHe SJ
SGe M
ĠJM aX
ĠGd Ydhe
HOG jI
ĠdG SHGH
ĠJ QL
ĠM OjbI
ĠX H
Ġj VMc
ĠeOg T
ĠYd TGf
Ġe P
ĠU Hj
ĠGdeO a
ĠGdL OO
ĠJ GJi
ĠjS Qb
ĠJe Sc
ĠSj Fg
ĠeW GdH
ĠOhQ c
ĠGdM RH
ĠjHMK hf
Ġc hSJ
Ġe Vj
ĠY P
Ġe gh
ĠhGd Ojc
ĠGdb QGAI
Gd MH
ĠhGd MeO
Ġg hd
SG aQ
dH jf
Gd Yed
R fI
ĠJV QH
H eLQO
Sj GQGJ
ĠGdO jfjI
ĠK GfjG
ĠeJ S
ĠGdGZ fjg
ĠUa MI
hd jG
ĠJ de
ĠO QS
ĠGdQa jY
ĠGdf hQ
ĠGb a
Gd ef
Ye dJ
G cJ
Ġa e
ĠJhO jf
ĠNO YI
ĠGdeSG aI
ĠGdNd ajI
ĠM Hc
ĠZ Gdj
ĠGdc GHJf
ĠfgG Fj
ĠR jf
ĠGhd i
ĠJQJj HGJ
eG RGd
SJ I
ĠZQa Jc
Ġj hba
ĠjQjO g
ĠGdJf hY
Ġdh Sj
ZjQ GJ
Ġh dGJ
Ġg hdfOG
GQH jf
ĠYe Gf
ĠeMG ceI
ĠJ gOa
ĠhGdG YJ
ĠdG YJ
ĠL eG
ĠG gPG
ĠGdb hi
Ġg L
ĠHGd PfH
ĠddG a
Ġe jSj
ĠXg Qc
R jI
hGj VG
ĠjSJ WY
ĠhGdG SdMI
ĠL Gjf
a GfJ
ĠWd Y
ĠcGf gG
Ġh je
j HOhG
jG Y
S dg
Lg R
GQa hQ
ĠhGdM QjGJ
Gfj fG
ĠGdGSJ j
Ġj Xd
GW dH
ĠSGfJ G
ĠGf OhfjSjG
Ġdd bdb
ĠGded YH
ĠGdZ GdH
Gf UJ
ĠGdM jGg
ĠGdW dGb
ĠjaS Q
SG FjI
ĠGdG jc
ĠJ fO
ĠGj aGf
ĠaU GYOG
ĠLejY ce
ĠGdY Gdj
ĠGM SGS
ec fG
ĠGdej KGb
ĠddZ Gjg
ĠeU Qa
ĠJYJ Qa
Ġd jQ
ĠGdeSJ NOeI
G jO
Ġhef gG
ĠGd KQ
HO dG
ĠHj he
ĠGef jI
ĠGde abhO
Ġg GPG
Ġef UH
ĠGdUMj MI
ĠGdb GH
HGecGf c
Ġheg fOSI
ĠJY eje
ĠGdL HGd
ĠGdGS YGQ
ĠGD cO
ĠfX Qj
Gfg eG
ĠGLd H
hGJ je
ĠGf Z
ĠSY GOI
SJ gG
ĠGdUfG Ojb
Q ZH
ĠGda e
hU i
ĠhGH hS
ĠjMJ hj
ĠH Wj
ĠhcGf c
ĠGQJ OGA
ĠdG MV
jG SI
ĠGdcQ Sj
ĠMOjK G
ĠdY jfI
ĠY Gdb
ĠYGe jf
ĠGjL GHjI
Ġh QGF
G bOQ
ĠGN WGJ
Ġc GQj
Ġdd SdGe
ĠecGf gG
ĠhG jQ
ĠGde HGQ
ĠM Qc
ĠGdT ghO
hGJ jG
eGd GJ
ĠLGc Shf
ĠGdM LQ
ĠSJ bhd
ĠSd W
aQ fSjI
G jQ
bQ QJ
ĠHJ MSf
ĠGdGYJ bGd
ĠGdO QL
ĠaQ Y
ĠT QM
ĠGdGj QGOGJ
aJ GM
ĠLj fG
ĠM dG
ĠGS GdjH
ĠfX GaI
ĠGe Jdc
ĠJ ZWjI
ĠGdc HGQ
ĠjMaX c
ĠjQL i
ĠY UQ
Ġh Gfc
ĠMQ GQI
Ġdd Nda
RGHj K
ĠN ha
ĠLG jc
ĠO Ge
ĠNGU Jj
ĠHGd R
cj fG
Ġc fj
ĠJJ YGed
H Tcd
ĠeG jf
ĠGdg jGcd
ĠGdbj hO
GS Q
ĠhGdO hd
Ġh hG
ĠGdO hQGJ
ĠGdGe Gej
QGF W
ĠdG chf
ĠGdGMJ dGd
ĠHWG bGJ
ĠY LH
ĠGdGO hGJ
Y Wj
ĠYej b
ĠJT Gc
ĠeeJ dc
ĠJO Yj
ĠfXQ jI
VG aJ
ĠHZ V
ĠGdGYJ OGA
ĠeO Qj
ĠQD jJgG
ĠGdJRGe GJ
ĠJaYd gG
ĠWQjb gG
ĠHe SGYOI
Ġdd h
ĠU QGMI
ĠjMH c
ĠGZ fj
ĠJMH fj
ĠGde Sc
ĠGdL KK
Ġja Vd
ĠGdS GN
bj eI
ĠMS GHj
ĠGdQhS jI
ĠHLO jI
ĠfL M
ĠGdf jQGf
Ua GJ
ĠQUGU I
SGH bG
ĠGde Scjf
b QH
ĠjJe JY
T e
ĠGh J
U GHI
ĠGdM GQS
ĠM UI
ĠU MjI
ĠGdTJ GA
Ga Q
ĠebGH dJc
ĠZ fj
ĠJQZH jf
ĠGdM djH
ĠSd WGJ
Ġda Qjb
ĠGdJ eJY
dc I
gO O
GNP J
Ġh YfO
ĠGJYde jf
ĠGdJGS Y
ĠW Y
ĠGd VMc
Y GF
ĠGSJW GY
ĠU ZGQ
ĠH MO
ĠeSJ TGQ
ĠhJ Mbjb
Ġc KQ
ĠGdM XQ
ĠJJ Med
ĠJZ Wj
ĠH hSW
H fG
ĠS GFb
ĠGdK GHJ
ĠGdYe GdI
JU HM
ĠJMJ aX
M dh
VY g
ĠhGdd LfI
ĠeY W
TQ GQ
ĠL hT
ĠN dG
ĠhGdGQ HYjf
ĠHd bGFc
ĠGdGb djGJ
ĠjT GgO
ĠHZ QV
ĠGdY GOI
ĠGdGSJ QGJjLj
ĠGdH Qj
ĠJSGYO fj
ĠHY hO
Ġdf f
Ġcj dj
ĠGdTe Gdj
hg cPG
J QLeI
ĠGda GJ
ĠGR O
M i
ĠJV jY
bj ejf
ĠJYed jf
ĠNd ac
T QH
ĠO SJhQ
ĠGdd hMI
ĠeRjO G
ĠHGd eY
ĠGdTQ Yj
ĠQ hj
ha QI
SG hjI
ĠaGT d
ĠGb GHd
Hj bGJ
GQ VI
ĠGdQGF MI
Ġdj he
ĠeG FI
Ġj Mbb
ĠL fSjI
gGe GJ
ĠMGL g
Ġdcf J
ĠfJ ecf
ĠeMJ ed
ĠjGJ hf
D jO
ĠGdGh ZGO
ĠeeG KdI
Qa g
ĠeTQ hH
ĠGdGdg I
ĠT Gfc
ĠGY jf
ĠJacQ jf
hf ge
GO f
ĠdT QGA
g jd
ĠGb hO
ĠO hZ
Ġe UGdM
jG Wj
ĠjSJ eY
ĠGdY hdeI
Ġh ce
Ġe ecfG
OQ S
SJ ja
ĠGZ Gfj
ĠQG c
ĠGda GF
ĠGdeU YO
ĠHGdG YJ
ĠdG WdGb
cd GfG
Ġd GQj
Gd R
ĠGdhG MOI
Ġde QI
ĠGdef W
ĠGdeS GQ
ĠGdGbdj e
ĠH RjGOI
ĠK GdK
ĠGe gG
ĠGhd hjI
ĠeGJ hG
Ydjc e
ĠGdY UQ
GdG WaGd
Z J
ĠGS QI
ĠNGU G
ĠeeK dI
ĠV e
ĠGdYb hHI
ĠGdeeKd jf
jQ gG
Ġg GeG
ĠL QH
ĠMH hH
Ġc H
ĠeM GOK
ĠGNJ Q
ĠG HGc
ĠGdMe bi
ĠH MH
ĠV ja
ĠeDN QI
ĠOQG SjI
ĠJO Qj
ĠhGdGL QGAGJ
ĠGde Sj
ĠGdY ej
ĠL jc
ĠHf c
ĠQj Gf
Ġa VG
Ġb GW
ĠbQGQ G
TY QJ
Ġea jO
ĠGdeY QV
MG Oj
ĠbJdJ g
ĠGdL QM
eL ehYI
ĠcdG geG
GdS DGd
ĠGde bGHdI
ĠgGO F
ĠGd GdjGJ
ĠNdGd gG
ĠhH GdJ
H D
Ġdd abQI
ĠHQ hS
ĠJbhe j
g a
ĠGdc j
ĠJ Hj
Ġdf bd
ĠGJ Njd
ĠJ JjM
ĠOj d
Ġe VGY
ĠecGf j
eG gj
Ġg GfG
Ġj UOQ
ĠGdhQ b
a QL
Ġdb Gfhf
e QJ
ĠGdeO Q
L hQL
bhd I
ĠHGd PgGH
Ġj bGd
ĠY GHO
ĠdG cf
ĠJGj jO
ĠH WdH
jGW jf
ĠGdM Qjb
ĠddO hQI
ĠHJ YRjR
Ġd hj
Ġjf aP
ĠHe Kd
ĠQFj SG
ĠGdY QT
Lj fG
f YI
Oj gG
ĠU YjO
ĠGdNH R
dG Re
ĠOY eG
dG bj
Mb bI
ĠGdSGM djI
c ah
ĠGdh SGFd
hGd c
ĠGd MOK
hc h
ĠHOhf c
ĠhG TGQ
ĠR dfG
ĠGdW GHY
ĠJf R
O Gf
Ġd GQi
ĠHhQ hfOj
ĠO Hj
Ġdj R
ĠeMO hOI
ĠJY QH
ĠSjf Jgj
ĠQ bU
ĠJY HJ
ĠGdG ge
a gj
MHj Hj
ĠGdfG LeI
ĠGdYb jO
Ġa Xj
ĠGdha GI
YO jf
ĠeK GdjI
ĠdJ hajQ
ĠLhQL jG
ĠGdJM cje
ĠGdQ he
ĠbJ Gd
Ġe bU
R Mjf
ĠGdHG F
ĠGH YGO
ĠGdSGHb jf
ĠdG K
ĠGh Ud
ĠJN aja
V L
ĠGdab QGA
Ġe QGQG
ĠdG RdJ
h ja
ĠSjGQ Jg
ĠGdjhe jI
ĠGZ aQ
Ġc hfg
bd Hj
G MG
bW YI
ĠGdR efj
ĠGdeT GYQ
ĠGa hR
ĠddGO GQI
b GQfI
ĠGdM HjH
ĠGdeSJ eQ
ĠGSJ QGMI
hU jd
ĠGH hGH
ĠGdeT ehdI
J HY
ĠGdZ Ge
hd c
ĠRe dG
ĠGY R
ĠGdeQJ HWI
ĠGbJ dc
gG Ff
ĠjD ef
ĠGde hXa
ĠGdeU jQ
ĠH MjGJj
Ġb dI
ĠGQ hGM
h habG
ĠGYeGd g
ĠGdGh VGY
Ġc GR
hQ Ze
ĠGdR GhjI
ĠGdGfJ bGe
ĠGdQj GM
ĠHc Ged
ĠeQG Md
ĠGO hGQO
ĠHG NP
Ġcd Gej
ĠHG UOGQ
ĠGdR jGOI
hG U
MG ceI
ĠR GO
ĠdPj P
ĠjJ ab
ĠG TQM
Ġaj cJhQ
ĠdS eGY
ĠSJ SJ
ĠGdT LGYI
GF fGJ
ĠddJ M
ĠJ KjQ
ĠGdJ cde
ĠGdSj A
ĠQj J
ĠeS Ld
hQj S
ĠGde MGaXI
ĠHGYJHGQ gG
f hfG
ĠGdS ja
ĠeQJ HW
ĠGdf QhjL
ĠN HjQ
ĠJg QH
ĠGdf HGJ
ĠTj dj
ĠGej Gd
ĠjS Yi
ĠQGj fG
Ġj bje
Ġe UdMI
Ġdf Qi
ĠGdeM Qc
ĠSH HG
ĠGdMU Gf
ĠaJ MJ
ĠeO a
ĠGdGfJN GHjI
ĠGMH ce
ĠGdha O
Ġeg GQGJ
Se R
ĠHGJ NGP
ĠHG hd
Ġb jG
S MbG
f hYI
ĠGdeMd ajf
QjH jI
GV YI
ĠddG Y
aJ c
ĠaYd hG
g VI
ĠJa V
ĠJcd aI
ĠJSe i
ĠGdN GW
ĠGdeJ QJHI
ĠO GQahQ
G cGf
ĠY TQjf
Ġaj J
ĠGf bG
ĠGdZPG Fj
ĠdGJ aGbjI
ĠNGU Jc
ĠZ HjG
ĠJMJGL g
ha jI
dj b
hN I
ĠGdYXje I
ĠjV WdY
ĠddGe Ge
ĠGdeD cO
ĠJMQc hG
LejY fG
ĠGdUM a
ĠGdbVG Fj
ĠGdG HGA
ĠJT JQj
U hQI
jG Ojf
aYd gG
ĠhGdJ fSjb
ĠHJ bQjQ
ĠhVY g
hj dj
ĠGSe Yj
ĠgGO FI
ĠGdPj j
ĠjY Gfhf
ĠY jH
ĠGdM QI
ĠM eO
ĠGYJ QGV
j dI
ĠGfg j
aj eG
GV i
ĠGde Gdc
ĠGdeJ YI
ĠhGd KdGKjf
ĠGKj hHjG
RhL I
ĠS hRGf
ĠGdTc hi
ĠNW hW
ĠfJ Qc
ĠHMGL g
ef jf
ĠHG WdGb
ĠSQ WGf
X QJ
T QcI
ĠN Pj
Ġh Yj
ĠGMS fJ
ĠGdgh jI
ĠGdeSD hdI
ĠSJ GQc
ĠJchf hG
ĠJe Gf
G ha
ĠeYL HI
ĠGe Qj
Ġa Gfj
Ġj QaY
ĠT Gj
ĠGdea hV
cd gG
Gd V
R c
ĠGe Qg
GN QS
ĠbJd gG
hdcf fG
ĠGdeQ T
ĠJO QL
ĠG RGd
bG Se
ĠGdUYjO jf
ĠMdh i
Ġd MXGJ
ĠhGjQ dfOG
ĠJJ Se
Je hjd
ĠQ bH
GdW QjbI
ĠJHPd gG
Ġedc j
ĠYGF dJg
ĠGda Ydj
GMV QJ
NQ Jj
Ġj HYO
ĠL fH
ĠGN W
ĠGdL QGMI
ĠGdbVG I
ĠTY Qj
ĠJ GcO
ĠHGd GN
ĠH hL
ĠHj VGA
Ġe GeG
ĠGdN GJe
hjJ Q
d de
ĠHGdb QGQ
h h
bj M
ĠOGF eI
ĠdJe hjd
ĠJ efM
ĠLejY ge
ĠHM Q
ĠeO Nd
ĠSe c
ĠGdGS a
ĠdW GdeG
Ġjf aY
Ġj HjY
ĠYd HI
ĠQ HY
hGJje GdG
ĠGHOG Y
ĠdS fI
Ġaj Oj
ĠeQJ c
ĠGU YH
ĠddY Gde
ĠHJ hajQ
hGd Jj
Ġd MSGH
ĠHGdGT NGU
ĠGdfa Wj
Ġa QM
ĠeNW W
Ġehf J
GfG S
ĠGdLR GAGJ
ĠJ Wd
ĠJJ Y
ĠGL QI
ĠGded M
c a
ĠHjf geG
ĠGL J
Ġdd Ged
ĠedGH Sj
Ġe KjQG
ĠT f
HMb c
ĠGdeJ W
Ġd jG
ĠeJ Ydb
ab g
F hjI
ĠeNW FG
ĠGdZ HjI
ĠhGdO gG
ĠGJQc c
ĠHGdL hGQ
dh K
Ġeg JeI
ĠGdGYd GejI
ĠJM OjGJ
ĠHO QLI
ĠJc hjf
ĠYe Gd
ĠO QL
ĠGQ Me
ĠHhS YfG
GK fGf
ĠSJaYd jf
ĠGdh Khb
H ce
L Oj
ĠGYO J
ĠhYO O
ĠHGdf SHg
ĠeYO GJ
Ġjb Vj
ĠehG Wf
Sc G
ĠGdc GQ
ĠhL hg
GS Gd
fS jJ
ĠJ Ydej
ĠGdGe jQI
hj Jj
ĠGdM PQ
HQ R
ĠGdTj hN
dGf ge
ĠSJe hJ
ĠhJ MOjO
ĠGdGSJ bdGd
hQ Hj
ĠhH S
ĠOG Ndj
ĠGdL hdI
GQ hS
ĠGUOb c
ĠGdYb hHGJ
ĠhcGf gG
ĠGdefX hQ
ĠhGdGO GQI
ĠTg QG
ĠjH bj
ĠGdM VQ
ĠGdU hGH
Ġjg QH
bO eg
ĠGdGSJ Fe
W Qjb
ĠZ VH
ĠHG hQ
ĠGJ aG
Ġc hHQ
ĠGO J
ĠVQ hQjG
ĠGe fj
ĠeLehY g
ĠHGdJ Gdj
HQ Z
ĠhGf TGA
ĠUM jaI
ĠGaJ JGM
SDhd jGJ
Qb g
ĠGM QGR
ĠHG NJ
hG VY
ĠGde KjQ
dJ jf
ĠSG MVQ
Ġd hLg
ĠGdG aYGd
ĠJY GdL
ĠGdW bS
Ġe Qa
Ġd je
h GQj
ĠhQ FjS
GY fi
ĠGdh HGA
GJ hbY
ĠPG cQ
RG jOI
ĠjO Qc
ĠT Ji
JfG hd
Ġf Hbi
ĠHG gejI
HG N
ĠeKd gG
ĠHGde FI
ĠU hH
GQ GO
ĠTQG HG
e TQhY
Ġh gd
eG cS
ĠM LQ
ĠJMH g
Ġc HQi
MV QI
ĠJ hVjM
ĠddY TGA
ĠfS N
ĠGdJ R
ĠGJ hba
ĠfS eI
Ġdd TabI
ĠfXQ g
ĠGdN SGFQ
ĠhR fI
ĠTQc GA
ĠGdeJ hSWI
MS GHGJ
GP HjI
ĠJM jI
ĠGdU Qa
ĠGdGW hGQ
ĠdM d
ĠGYJHGQ gG
ĠGdjg hO
ĠJN SQ
ĠGdeJ YG
jG c
ĠbO eg
ĠLfS jG
hGF R
ĠHYO jf
ĠhJ O
ĠbGO Qjf
cJ GHI
ĠJNHQ fG
ĠGdR ghQ
ĠHg OhA
Ġfa cQ
ĠMX jJ
W GHJ
HO Gd
ĠeJMe S
Ġc dce
ĠjJ PcQ
ĠQhH f
f Ua
ĠYRjR Ji
ĠhG NJ
Ġh cQ
Ġe HGQc
Ġa Sj
ĠYO fGf
ĠHGdY Gde
ĠLOjO g
J GcO
ĠH jS
ĠeY GdL
Gj GJ
ĠGdfX QI
Jg OjO
ĠjN WW
Ġhdcf fG
ĠHY KGJ
Ġh ja
ĠGdY Sd
hQ fG
ĠGdM QGQ
ĠGdc Qj
ĠGdhb GjI
ĠGde SdSd
VQ Q
Ġd hLhO
ĠHG aVd
ĠeJ GHYc
Tj FG
Ġe HGOQGJ
ĠeSJYO hf
ĠGdT a
ĠJ hc
J Ge
Ġja bO
ĠGdeQG ab
ĠGdGf O
ĠR LGL
ĠGdGZ Gfj
ĠGdcJ GHI
ĠcGQ KI
Ġa L
ĠGdS Ga
ĠGdeaJ hM
ĠT bj
ĠLejY gG
ĠQ FGSI
ĠGdM OjKI
ĠYQ VG
ĠHJ geI
ĠbGS jI
Ġcd hj
ĠjG TjN
ĠGde jR
ĠGdef Rdj
ĠGdaY GdI
ĠhR QGA
ĠGdGM SGS
QL e
ĠdJ b
Ġj Qc
Ġef U
ĠGdHj hdhLj
ĠHSH Hc
ĠHGd GQ
ĠGdJL GQH
ĠYQV J
ĠGSW hQg
ĠjMJGL hf
ĠGdb WY
Ġj JjM
Ġc hO
WQG HGJ
YJ Qa
ĠGSJ Sde
ĠjY LH
ĠJ LdH
J he
ĠhGd Jc
ĠGS ge
ĠJ dHjI
ĠGSJ bHGd
ĠhG YJbO
Ġf OGA
QG HW
ĠGY QV
Ġdde LJeY
ĠGdMGS hH
ĠeV WQ
Jb QjHG
ĠSJ Hbi
S hb
ĠMX G
ĠL jSj
ĠM PGA
ĠGdN eSI
ĠGM P
ĠGdHj Y
ĠHGd bdb
a Ud
Ġc jejG
ĠUOj bi
ĠSGQ Gc
ĠG ha
ĠQe R
ĠGdeYJ GO
ĠH QjJ
ĠSd ha
GH i
ĠGNJ dGa
ĠGP c
N Ge
M he
hJ S
ĠK hGfj
ĠhJ SJ
ĠWH b
ĠJR hjO
hH GdJGdj
ĠhV eGf
ĠbHQ U
ĠGdeJ cde
ĠGdGV QGQ
ĠhGde MjW
ĠeM djI
ĠQ gj
ĠjL eY
Ġh NOeGJ
g PI
Ġh GQO
ĠGdb PQ
ĠGdNW hI
ĠS Hj
Ġff XQ
ĠGdH bQ
Ġa GF
ĠGdfG JL
Ġf ONd
ĠGdS GFb
ĠMb fG
ĠGdb hj
ĠGdZ QjHI
b hI
GP i
h Kj
Ġhb Gfhf
Ġe QGL
Ġd SG
ĠjU YH
ĠM QG
ĠJL OjO
MJ e
ĠeJ hbY
ĠH eJ
ĠQG g
W hGd
ĠJMGhd jf
ĠGdS hA
ĠJbOe gG
VG I
ĠGU GHY
ĠGdMe V
Sj H
ĠeJ YOO
ĠGfJ bdJ
ĠGO QGc
ĠGdedG FeI
ĠL GdS
hb G
Ġhj bhd
ĠQh Mj
ĠGVWQ QJ
N jQI
Ġd Ye
de J
Jj Qj
ĠeSJ eQI
ĠGYQa gG
ĠbH dI
a gPG
ĠddJ U
ĠJ WdY
ĠGYd fJ
ĠGdJ cdaI
ĠGdY T
P jc
aS jQ
Ġaj ce
a ef
je R
ĠMO O
ĠhJ WhjQ
U ejf
ĠGdg LeGJ
ĠQ g
ĠGdedc j
Gd faW
hG S
gh Oj
ĠJGN jQ
Gf eGQ
f Jj
ĠGfY bGO
ĠGdLR QjI
ĠG OG
ĠGdY GdjI
SG bhd
Ġb fGg
ĠbW GQ
ĠGdf bGW
ĠV HW
eL I
ĠQD jJj
TJ QGc
ĠhGdU MI
ĠGSJ KfGA
ĠGcd J
ĠGdYfG jI
Ġe PfH
Gf eQc
Rd L
ĠGdYd ej
ĠMj R
ĠZ O
ĠhGdU jf
Gd fG
eG PL
Jhb jY
ĠHGd GWaGd
j YJbO
ĠGdS LdGJ
ĠGdS HGb
Ġde hGLgI
ĠeD de
Ġa RJ
fG YI
Ġf OY
ĠhG NQ
GH jH
ĠYU jQ
Je S
ĠhGdS jOI
ĠGde HGdZ
QN GA
Ġf abGJ
hd jO
JY Oj
ĠR jJ
bW g
ĠGd GdI
aj b
hS jchf
ĠGdSL fGA
ĠGd PGcQI
ĠM QI
ĠJ bJQM
ĠcGf h
f T
ĠfUj MI
ĠGH dGZ
ĠGdQG gfI
ĠJRhL J
ba R
jQ J
GU eJ
ĠGf PGQ
ĠGdaYd jI
f SJWjY
ĠS dH
ĠGdJYdje jI
ĠGd Ydj
SG YWjc
HGO dI
ĠGfaS ce
Tj F
ĠJ QaY
ĠYGe j
Ġe OG
ĠGdc hc
ĠhLO JgG
ĠGdce HjhJQ
Gfj GJ
ĠGdeO Nd
ĠJNJ GQ
M QcI
ĠGdePc hQ
ĠGdG HWGd
Ġde QGbHI
YH K
ĠJL GQjI
ĠGdeSJ Ye
ĠbdH jI
ĠhLg gG
Ġdd R
ĠdG TjA
ĠGdeHG TQI
aY dG
ĠeMG ce
ĠGde SQ
ĠHGd ZI
ĠGdfX Gag
ĠGdfR GYGJ
ĠGJ e
ĠHGdGJ UGd
ĠHG R
ĠVQ Q
ĠeN je
T GO
ĠN Gf
ĠTY GQ
ĠGdYe OI
hGQ J
ĠJY jf
h WI
Ġc Og
ĠjfJXQ hf
ĠGdT Qja
ĠGdfeh PL
QH jG
ĠG hf
ĠGdJ hJQ
ĠQL YJ
gj FGJ
a hQ
Ġhb Hd
ĠGdJM QjQ
SG h
ĠGdec GdeI
ĠJa jO
bJ ge
ĠGdZ Q
ĠGdZ fGA
Y HQ
j Qj
hR hf
Gde jf
ĠGdGf c
ĠGdMj hGf
cJ c
dj gG
PG Fa
ĠGdeTQ Ojf
ĠjJ Med
ĠGdefG Rd
ĠGda MU
ĠgGj Jj
ĠeY bOI
ĠJL QD
R Gc
ĠJbO eG
ĠGdS jfeG
ĠGNHQ gG
ĠhGdL QjeI
JQc J
ab Q
ĠS YO
ĠhGde GdjI
ĠOGNd jI
ĠHGde hVhY
ĠGdGMJ LGR
eJ fG
ĠH jOj
ĠGf TG
ĠN Uj
ĠGdJ GNjQ
ĠGda GS
ĠeNW FI
ĠZjQ c
hef P
Ġdde hJ
ef g
ĠGdGY QGV
ĠgGQ aj
LYd g
ĠL jJ
bJ Gf
GL Yd
hGd J
ĠeT hT
ĠgG Pj
a hVjI
QGF MI
ĠGdY GLd
Ġe hdO
H NjQ
aj R
ĠebJQM GJ
ĠGdeMJ edI
ĠGS YO
ĠU Ge
Ġe MJGL
ĠcP HI
ĠGdO QLGJ
YW GA
Ġec GJH
GfS GfjI
ĠedG Fe
ĠHj Qj
Ġedc jI
NHQ g
ĠGdc Ta
ĠGdHM Qj
ĠGL GHI
ĠcdG ceG
TGQ GJ
GF aI
M fI
ĠHeaQO c
ĠM JeG
hGQ H
ĠGdJT jcjI
ĠPcQ i
ĠGdTj F
ĠGdJ hbjJ
ĠHG g
S DGd
Ġaj djH
ĠMR jf
Ġhd Pdc
d M
ĠeMJ hi
ĠeM aX
ĠSJaYd g
L hQ
ĠGdYbd jI
ĠUa ha
ĠK Gf
ĠHGJ Qjc
ĠL H
ĠJfGhd J
ĠeY Gdj
H gPg
GHg I
ĠfYQa g
ĠhLO hG
Ġa bGd
aY jd
aQ Z
QH hd
ĠQGj Gf
Ġd NOeI
ĠH djhf
ĠjJMOK hf
ĠHGd SjGQI
ĠGJNP JgG
J Qi
aQ Oj
ĠGb Vj
Oj S
Ġd Jc
ĠGdM dbGJ
L Ge
ĠGPgH hG
ĠQZ HI
ĠdGLd g
ĠGN ef
ĠJH YO
df Qi
GdJ jf
ĠJb Q
GdH GH
hM jI
ĠJJ YQV
GSJ jbX
HQ Y
ĠeJ GMI
Ġd YedjGJ
ĠGNP c
Gd aJGI
ĠGdGW d
b Gf
ĠGdQ F
ĠJ jQ
W GH
ĠGdY Gg
ĠabO fG
ĠQ hYg
eN jH
ĠGdU jfjI
ĠHcd eI
ĠGdecJ HI
ĠjS de
ĠGM Xi
Ġh GQJ
Ġhb Jj
GdO cJhQ
ĠHGd K
Ġjf WHb
ĠH SdGe
Gde SJ
W ai
ĠefJ LGJ
ĠGdfaS jI
ĠjU jQ
ĠGdc GS
cd eI
Ġf jQ
ĠNW hQI
RhL Jj
ĠJa JjT
Ġcj hJh
ĠcGQ jf
ĠfG Fe
ĠGdeJ GHYI
eQ Vj
ĠeSJ Q
haj g
ĠeSD hdI
ĠhGdJ bjje
ĠGdbj e
ĠGdjhf Gf
ĠGdc GajI
ĠbOe gG
Gd PgGH
Ġf d
Ġh djSJ
ĠGdJ cja
ĠGde Se
Ġe Gfj
ĠGT GQJ
ĠGdH jQI
ĠGdc he
ĠGdOHdheG SjI
ĠGdfeh PLj
OY fi
OY hfj
ĠYH A
eGY GJ
ĠjS bW
ĠeJ a
ĠGdYd eGA
ĠGdGV hGA
Ġa jfj
ĠGdGM dGe
ĠLYd Jfj
ĠQS he
Oj Gf
ĠbOQ gG
ĠGY fjg
ĠUGO b
ĠY LdI
T Zd
NUU GJ
eJ jf
ĠGdGe SGc
ĠGYW Gfj
h UdJ
J Xf
ĠGdeb YO
ĠGdU GQ
ĠN GO
ĠGdGe fj
Gg OGa
ĠeG Oj
ĠaYd jG
N a
ĠJS ej
GSJ NOe
ĠcGe jQGJ
Ġa QL
Ġbdb gG
ĠGdQG HWI
LGH jI
fR GfI
ĠdJ ZWjI
ĠGd Gdj
ĠGdGhd hjGJ
ĠQG L
cd jf
ĠJY RR
ĠhJf Xje
ĠO d
ĠSJ S
ĠGdeO jfg
ĠGdJS dje
ĠJM K
ĠGdeSJ NOe
ĠdM eG
ĠH bhd
Ġhd LfI
ĠGNJ QGb
ĠL fjg
ĠJO hQ
ĠGdJ Ggjd
ĠJf bd
ĠHHW A
ĠHGdd ZI
ĠedM hX
ĠeL Gfj
ĠGYeGd gG
bG Vj
ĠR Gc
ĠO aG
ĠGdGHJOG FjI
ĠGf NaV
ĠWa dj
ĠY Tj
ĠMU Gf
ĠYed jG
ĠHGQ Y
ĠefWb jG
ĠGdb QjH
ĠdG HGS
ĠGgJe GeG
ĠGdH K
MJ aX
c GJg
h NdGd
ĠJYH K
Ġdd eQ
ĠGdeh MOI
ĠehL R
Ġc GejQG
jJ h
Ġhe cJH
GfJ c
hX GFa
ĠGdVY a
ĠGfa LGQ
Ġc GdY
H N
Gg Og
ĠGO jf
ĠO eQ
ĠGdNW W
Ke GfjI
H OI
ĠGdHW hdI
ĠeJGN QG
ĠGdGYd GfGJ
ĠbHd J
MHjH Jj
T GI
ĠJSdj eG
ĠjUd M
HS hf
ĠHQG jf
ĠGN aGA
ĠGdN GWF
GH Q
dG HS
V MGjG
Ġj efY
ĠeJ GH
fj gG
ĠW g
ĠGdf LGI
ĠGdab jQI
Ġh ceG
ĠddJ fajP
ĠG RYL
ĠGdG jeGf
ĠHb fGJj
ĠNW Gc
Gdf XQ
ĠjM d
Gd GQ
j LOQ
ĠGdSGM d
ĠG hGab
ĠGSJ Yed
ĠQ HM
Ġe GQL
ĠJbJ QH
Ġh cf
ĠeJRhL I
ĠGdJM Gda
eSJ Mjd
Ġcjd he
Y L
S ej
ĠGYd Ge
hX jaI
Se c
T ajGJ
Oe L
ĠeGf Y
ĠGdGQgGHj jf
ĠZ WGA
ĠHQD jJc
Ġj eGQS
HW Gf
ĠhGde hGQO
ĠJc SGS
ĠhG R
ej dg
GdW HjH
ĠGN HQj
W QGa
ĠGdJY OjdGJ
ĠQ gf
Qj OG
ĠGdf bGT
JY Gdi
ĠGdJZjjQ GJ
ĠGdhG bYI
ĠH dj
ĠdGSJ YQGV
ĠeGQ jG
ĠLS Oj
ĠGdHGd ZI
GdM dbI
ej eI
ĠS Gc
ĠHdO g
ĠGdhQ bI
hG OQ
ĠUGM Hj
ĠGN QG
ĠGdQGF O
ĠY TJ
Ged jf
ĠeJ YI
S jJe
ĠQL Gdc
ĠeD TQGJ
J Njd
Ġb hdj
ĠJ QaV
eG b
Ge QGI
Ġfj LjQjG
ĠN SGFQ
ĠGdd he
ĠGdGN WGA
Ġe jS
ĠS MQ
ĠGde cQ
hGY QH
ĠOQG SGJ
ĠhZ O
Ġe QGg
d ef
ĠhGd GU
ĠY QHI
ĠeGQc hS
ĠGe LO
hLO fG
bj bG
ĠGU HY
Y ahG
ĠYOj e
ĠK hGf
Pc Qj
ĠGN dGb
ĠcQ Sj
ĠU dH
ĠHYO g
ĠGdUfG Yj
ĠR LGLI
ĠJT G
ĠJf Xe
Ġb aR
S ja
ĠNW QG
ĠGdeDS SjI
ĠSdj eI
ĠS GfO
ĠGdN SGQI
df Oj
ĠGdHOj dI
GJ G
ĠPgH hG
ĠhJ U
ĠGdeJ HbjI
dGOj T
ĠGSJNOGe g
ĠJY gO
SjO GJj
jd h
ĠWd HG
ĠdjH QjG
ĠGdHjJ RG
ĠGdV h
ĠUhJ g
ĠH eQMdI
ĠcgQ HG
ĠM OG
Ġdd HYKI
ĠcGP H
ĠaN hQI
ĠGdeM GOKI
ĠL PG
ĠGhd jaQ
je Q
ĠGdO aYI
hU a
ĠHTGf c
ĠO i
ĠGdM SG
ĠGL Q
dG jhLO
ad M
K g
ĠddGJ aGbjI
Ġa SG
ĠYd jG
ĠeL GfjI
ĠbOeJ gG
ĠeL fhfG
ĠL eYjI
gd dOjc
Ga cQ
ĠGj UGd
ĠGdjS hf
hG jf
Ġe Je
HGd VHW
ĠUhJ G
ĠGJ RhL
ĠSGaYd g
ĠGdS YjO
ĠGdS Lhf
ĠeL j
h Se
Ġh QMeI
hf Ye
ĠGdJY QV
ĠHMK J
ĠeTJ Hg
Y Qj
ĠGYJ fj
ĠdhMO g
Ġe SdM
ĠYH bQj
ĠGda LQ
ĠJT JQc
ĠfaS i
ad hf
fR hjdG
ĠGdeJ hbYI
ĠGdebG heI
Ġh eQ
ĠK fGFj
ĠjO d
ĠGdH VGFY
Ġcjd h
ĠcfJ eG
HGecGf j
ĠGU fY
GNHQ g
ĠGdN Q
ĠGc OJ
ha jG
ĠXg Qj
ĠMQa jG
OY i
ĠeR OhL
ĠfSJ NOe
ĠU Qa
ĠGdQj GVj
ĠGdMQe jf
ĠhGdJ hUjGJ
ĠHGdJ bQjQ
eJ GcO
ĠGfg V
Ġh SGFW
GdG K
ĠGdc dj
ĠGde Xde
ĠJO jf
ĠeS GHbI
ĠGdH bjI
ĠHM KG
ĠGO Yc
ĠGY bGH
ĠH GF
ĠGdhG j
dGe j
Ġh PcQ
hR Y
ĠGde QLY
Ġj MO
ĠeN GWQ
ĠGdGf U
GJ UdJ
ĠJ bje
bW GJ
ĠeMXhX I
Ġfj hRjdfOG
Ġeda GJ
Ġjhdj h
GdG Z
ĠO H
Ġgh H
ĠGdeY GedGJ
ĠGdS haj
Ġdb QGQ
Ġej Gej
Ġhef Y
ĠfSH jG
ĠT HM
ĠT GHI
ĠGde PcQI
NW i
ĠhGd hdGjGJ
ĠH cQ
ĠehG VjY
ĠYOO ge
ĠHg eG
gO jI
Ġjc ad
ĠGQGg f
Ġj QMd
ĠGdebO SI
h VG
GeG cf
ĠHd LjcG
jecf g
ĠhGdR QGYI
ĠdO bjbI
ĠJSJ gOa
ĠGdab QJjf
ĠjY HQ
ĠJN W
Ġe Mbb
eb QGWj
Mh Gdj
ĠGdGH f
ĠGdMeO ddg
hZ h
ĠGJ YGed
GT jGA
ĠSG SJ
hGd jO
ĠhGdJ Y
ĠGYJ QGa
Ġe Xde
ĠHe aQOj
ĠJJe JY
Gd Mb
ĠGdGf M
ĠGP fc
ĠQM eI
Gd Ga
ĠGT jQ
ĠjN Ga
ĠHfaS gG
ĠdH QjWGfjG
ĠGdH fhO
ĠjS hj
ĠYd ej
Y eG
hQ i
ĠHQG hf
ĠMj hGfGJ
ĠGM aX
ĠSf LO
ĠJc aj
ĠGLd gG
ĠecJ Hc
ĠJQjO jfg
ĠeM GU
ĠGdJ Ndj
ĠJTQj YGJ
ĠaQ Gf
ĠjZ Wj
ĠcY cI
ĠO bjb
ĠJGjd hQ
ĠGdN dGjG
G ge
ĠGdc hd
c Ta
ĠQL Gdj
Ġj TGQc
Ġh habG
ĠN GJe
ĠGJUGd GJ
ĠdG RGd
ĠeSG geI
ĠJe cjf
ĠGdJ hGRf
WG I
ĠU GQJ
ĠJf hj
Ġg jcd
Ġc aGAI
Ġdd GeQ
MQ Q
Nd Y
ĠGLJeGY jI
WGQ O
ĠJa hR
ĠHGde Gd
ĠSGH bi
P HI
ĠeDbJ I
hJT ed
Ġe PcQ
ĠGdW GQ
ĠGdQL hY
ĠhHQ cGJg
bGW YGJ
fGR jQ
g OG
ĠHGd HMK
U jH
V hf
ĠjaYd hG
ĠOG jdQ
GdY ejd
ĠdJ bjje
ĠGh cQGfjG
QG FjI
ĠH QjWGfjG
Ġc GSJ
ĠGMJ QGej
Yj gG
ĠGdeY hfI
YG hO
ĠSj GQg
LR GFQ
ĠfG OQ
Ġfh hjI
ĠSJ Q
ĠGdb Hh
ĠGdd Pj
Ġc SQJ
ĠGdfbO jI
ĠGdj efi
GPgH hG
Ġdg eG
Ġe Sc
ĠJQ hj
Ġjchf hf
ĠGdacQ jI
ĠJe OjO
UO jQ
Ġj LdH
Mf g
L GS
M GdI
ĠGdT YHI
L Gj
ĠGdJ bjJ
hQ e
Y b
ĠGdHM Qjf
jGO GJ
JfG Y
Ġe FI
ĠM hG
ĠGd LdSGJ
ĠOG ja
ĠeSJ GA
ĠGJ GMI
ĠGNHQ fG
ĠT QjQ
ĠQ hGfOG
ĠJb GH
ĠGdjhf jOh
TQ hW
ĠGdG cS
ĠGdGSJ YOGO
ĠGdSJ I
ĠGdeT gO
Y R
ĠHdO fG
ĠHjQ h
b jG
X GgQI
ĠhGd h
ĠT Ga
ĠG VMc
ĠJT GA
HYO gG
ĠJY HQ
Ġg GFdI
ĠHGQ cQ
a QJ
ĠGde HQ
ĠaGQ ZI
ĠGddGYH jf
LYd fj
ĠdjT Jj
HU QGMI
N QGL
ĠGQL hce
ĠGa YGd
Ġha Og
ĠGdGSJ YeGQ
ĠjO jQ
ĠjJ Hbi
ĠGdM aQ
ĠbfG Jc
ĠGdGjL GHjI
ĠGdJ eQ
GF fG
ĠGdGQ HY
ĠGQjO gG
Ġh WdH
NH QGA
dj eI
ĠGN WGA
Ġej dGOj
ĠSj SGYO
ĠGdbO jS
ĠHGf TWI
Ġc HQ
ĠGdHM jQI
JY fj
ĠGdQ HjY
ĠY hGed
Ġa Gfc
ĠU hJj
ĠGQ g
Ġdd HjY
ĠSG MUd
GYW jfj
GdW Qjb
ĠhGde M
H SQYI
Ġeecf I
Ġe hY
Ge dg
Hj fG
ĠMhd gG
jGd gG
ĠGdGYJ fGA
Ġh dgPG
Ġj efM
ĠJf Sj
ĠGdj RGHjK
g hQI
ĠefJ XeI
ĠGdeg fj
ĠhM eG
ĠObj bJjf
ĠL hQ
ĠGZ dbJ
ĠhGdO hdjI
GfJXQ hG
ĠeL jO
ĠGhd hjGJ
ĠGaS OJ
ja Gf
ĠddGT NGU
ĠGdLd jO
eY g
ĠGdGJ aGbjGJ
ĠQ hJ
Ġb jGS
jJ ce
Ġa FGJ
Ġh bG
ĠhXja jI
ĠGdGMUGF jI
ĠjSJ Yed
ĠO aGY
ĠedG MXGJ
ĠL QGMI
ĠQ ej
ĠHdG Oj
Ġe Ud
ĠfJ efi
Ġfe W
ĠGdGe gGJ
ĠGdedG jjf
ĠGdZ GjI
Ġeg JeG
ĠhL Yd
GT jI
Ġedj A
ĠG ZjQ
Ġe eGQSGJ
ĠSF eJ
Ġe hc
ĠjR OGO
hGO hQ
QH Y
ĠGdeY GQa
ĠJN VY
ĠSN jaI
ĠJhU jd
Ġf HV
ĠZ QGe
N GFQ
ĠhQ WI
bG I
ĠGJ fGhd
ĠGdeU GHjf
Gd Ye
ĠHYe djGJ
ĠHGYJ eGO
Ġj hQh
SJ J
ĠGQ gGHj
ĠL OI
ĠGMJGL g
ĠJf Whj
Ġd WdH
ĠeM dj
jO jG
ĠGSJjbX J
ĠGdJW Hjb
ĠJhG aQ
fG aS
Ġg J
ĠGdGjL GQ
ĠYO fG
ĠjehJ hf
Se g
ĠX de
ĠYe dGA
ĠNQj WI
ĠhGd YG
ĠGdh Xja
SQ WGf
jS i
JeGY GJ
V dG
HG Fd
ĠeD gd
ĠHf LGM
ĠhGdO Ye
OG H
ĠGdGde GfjI
Ġc T
ĠfJ MQc
YJ ge
b QjHG
ĠJM d
SJj Gf
ĠGdPgH jI
GdM Uhd
ĠcG jJ
ĠY bhd
ĠGdd hQO
GSe gG
ĠGg QH
ĠSG S
b Gdg
ĠGQO fG
ĠHb djd
hg QGJ
ĠGdfe SG
ĠGdc HO
ĠGQ hY
ĠJL j
Ġjha b
Kj h
ĠeGQ TGd
GQ jcG
Ġdd efJ
ĠY Sd
ĠK Gd
ĠGdY ah
ĠGde MH
bGb jQ
Ġh jchf
Ġaj LH
ĠGda fGf
U YO
hG VM
ĠGN hGf
ĠJ da
ĠJG jdQ
ĠGeGf OG
ĠK bGaI
ĠJL GQI
ĠeU fY
O M
bJ QGM
ĠGd RjGQI
ĠQGS gG
ĠhGJ aGbjI
ĠGdGT gQ
ĠGd Xd
ĠhG jO
Vj b
ĠeJ dGReI
ĠjT LY
ĠGSJ F
hGJ jQ
Ġj Kb
jGJ j
gG L
ĠH Ojd
ĠhQ UO
ĠLYd g
ĠJL gjR
ĠdGf TGA
GH G
ĠGH hS
ĠGdJf jf
ĠJJ Njd
ĠGdJ hGLO
TQ g
ĠcGfJ J
ĠGdeN je
ĠGdf aGP
NP gG
ĠJQG bH
ĠS cjf
ĠjQ MH
jQ f
hV j
Tj hS
Ġc LRA
ĠGNQ S
O jQI
ĠhGda JjGJ
ĠGdS Y
ĠGdMe dI
ĠHYhO Jc
cQ e
ĠGV ZW
ĠGdcgQHG FjI
h MO
ĠGdLfG M
Ġdde OQSI
ĠGbJUGO jI
ĠfG ed
ĠGdYGU aI
ĠeD NQJj
Ydj bGJ
NW hI
ĠLQ YI
ĠefRd fG
ĠhGdGSJ bQGQ
ĠGdGe S
ĠGdeJ VQ
ĠjNHQ c
ĠHQa bI
Qc jR
jhf S
ĠGf XeI
ĠddT YH
GJ f
SGQ Gc
S N
Ydj b
SQ QJ
ĠZ GQ
ĠJM We
ĠhQO J
ĠQ NUI
ĠGSJ K
ĠfaP J
ĠeK Gd
Ġdd QLd
ĠHGQ OI
JTGQ dj
Ġdde TGQcI
MX J
Yj H
ĠddO Nhd
F S
ĠGf Wdb
ĠeNJ HQ
ĠHGO GQI
Ġe ZQ
ĠdG UdGM
MJ ce
ĠdG jJ
ĠeU GHI
ĠGdQ heGf
ĠGbJ QH
Ġea GJjM
ĠGfJ NGHGJ
ĠY ScQj
YO fG
ĠGdfG FH
ĠdL eghQjI
U QG
ĠcGJ H
ĠMGa X
ĠJ Me
ĠhLhO c
ĠY bGH
ĠGdY jhf
ĠYQG bj
ĠGdU eJ
ĠL hfG
Ud jf
ĠM GO
ĠGdNW hW
ĠZ QG
ĠHJ ZjjQ
ĠeSJ bd
ĠHGd VQhQI
ĠJSJ Yed
ĠjfG e
ĠGdeGf Mjf
ĠGQO Jg
ĠGdL SO
GUO bGA
ĠYe c
ĠdZ QV
ĠhG NjQG
M GdeG
OQ Gf
Ġd hQjf
Gj jf
Ġh P
ĠGdV QH
ĠGYJ UGe
Ġa hJ
ĠJQj Oj
hG aQ
ĠU OeI
ĠhJT LjY
hd Oj
ĠW GHY
hGH b
Ġf SeY
Ġb QGHI
ĠGT YI
ĠjLYd g
Ġb PQ
ĠeL ghd
ĠJ MbbJ
ĠS O
ĠGdh U
ĠS bhW
Ġef S
Ġh Yed
ĠHM ce
ĠhGde YdheGJ
ĠSJj af
GMJ aX
ĠGdL edI
ĠVQ hQjI
Ġa hGFO
ĠeaG hVGJ
ĠGdGe I
Ġjhfj h
Ġe bd
ĠeJGN QI
ĠefG Rd
ĠYGO dI
ĠGdSQj YI
ĠeY LRI
ĠSj Jj
ĠGL eGdj
ĠbO ej
ĠK HJ
ĠPc QjGJ
ĠGYJ OJ
GQG jJ
Ġc i
ĠeJGcO g
ĠGSJeJ YJ
ĠhGdJ S
ĠJQ GeH
ĠhG Z
GQ f
ĠGdT aGajI
hcj h
Ġe WdH
Z QaI
ĠGde SHM
ĠGdeJ MOK
ĠGdGN hI
H Gfc
ĠMbhb ge
ĠGdHG bj
ĠGdJ bGW
ĠGdb fhGJ
Gfj hf
ĠSGM QI
ĠMR jfI
ĠGda N
ĠMV QJ
ĠGdGSJ FfGa
ĠGdeJc GedI
ĠGQgGH jI
ĠeSGYO JfG
ĠGdT QjQ
Ġdde YdheGJ
HQ L
Pg d
ĠHGd ed
H Gdc
ĠJ SGhj
QL GY
ĠGY QHJ
ĠJe Tj
ĠeeKd h
ĠGN hj
ĠJPcQ J
ĠMe QGA
ĠZ QV
X heI
ĠeQJ GM
Sd b
ĠGdej QjG
G MSf
ĠdJe cjf
Ġj hUd
Jg eG
ĠGHQ R
ĠUfG Ojb
L GQH
Q eI
ĠjY bO
ĠGdeMdj jf
ĠGda fj
fG Qjh
ĠGdeT ai
GXf fj
e bHhd
ĠGdU YHI
ĠH Ua
Ġf hGLg
ĠGdaVG Fj
Ġj QaV
Ġg hO
ĠGde GOjI
ĠGdGL Q
Ġf YjO
JH F
ĠP hb
M We
ĠSJ GNP
ĠfXQ gG
QV i
ĠGdeh MO
ĠJO eQ
ĠhGdO hdj
ĠM Qb
Ġe Hd
ĠGdJM hd
P hQ
Gd jcS
ĠGdGY SGQ
Qc c
Ġdf XGe
J cde
ĠGYJ bGd
ĠHhSW f
ĠJ HY
ĠGdeg GQGJ
ĠhJ N
ĠjNJ GQ
Ġja jO
ĠT QGF
ĠGdHdO jI
ĠGdeQ MGV
ĠUOj bG
Ġe Wdb
ĠbH dG
ĠHG i
ĠGjQ dfOG
c Ga
ĠHGd hbJ
fG I
ĠedG MX
Tc jd
ĠdG MJ
ĠGdeJ GYH
ĠGdef NaV
ĠHGd MH
ĠeJ ab
GfJ G
j MJGL
ĠJZ db
U GMH
Ġde fGbTI
ĠgGO FG
ĠGde YOI
ĠGdK fGFjI
Ġb hej
ĠJGN Pj
ĠGdc K
Ġddef XeI
Ġj bWY
MhU GJ
Ġc cd
UOb fj
ĠJ P
ĠeWd hH
ĠeJ eG
ĠGdJU MQ
W GY
GO Qc
ĠMb jQ
ĠGdf SGFjI
ĠGdGO eGL
ĠeYGgO GJ
ĠGdJY Ojd
F QGf
Gd GM
Ġj Vef
Ġe hdj
ĠQ hHj
ĠhH e
Ġj fS
ĠLO hi
ĠHO Y
ĠO QGL
ĠeSJYO jf
ĠY jfI
ĠGdeK jQI
ĠJJPcQ jf
ĠGdNR GfI
ha GA
T hI
ĠGdbd YI
ĠSG MQ
ĠSe M
ĠGdb Qa
Ġj hdO
ĠGhZ fOG
ĠO eL
ĠGdNQj WI
ĠGV QH
Gd hf
ĠGdJ H
MG S
ĠQ YG
O hQ
ĠGdeTQ hHGJ
ĠGbJ dg
ĠbVG FjI
ĠW GFQGJ
ĠH aYGdjI
ĠYd jI
ĠGdef M
ĠHUO O
ĠJL ejY
ĠGdQG Ojh
g dj
ĠGMJ LGR
ĠQhf GdOh
ĠjJ Y
Qj Gd
ĠGYJHGQ G
ĠW eh
ĠH hQJ
ĠGdT Mf
ĠhGde L
ĠGdS cjf
ĠhG Oj
Ġe Ge
VGA I
ĠGdT jc
ĠjO Yj
ĠGdH Wf
ĠL eghQ
ĠGdeaQ hVI
ĠGSJZaQ Gddg
Ġhb Ge
ĠjYJ Qa
ĠGde NO
ĠdG NJ
ĠLfG M
ĠHGM cGe
ĠGTJ bJ
ĠJD jO
Z Ga
c GS
fJ gG
K fj
ĠGYJ GO
ĠGdGQ jcI
GHb hG
Qe i
ĠGdGZ dH
ĠHJ b
ĠHQG jc
h GfjI
ĠjJ Mbb
ĠGdT QGcGJ
ĠS ajf
Ġd hL
ĠH fi
ĠGdJU eje
ĠeG jG
ĠGjej dj
Y hHI
ĠHGd Mb
ĠLSO c
ĠGdeSGYO GJ
dg i
Ġdj SG
ĠGe QGV
U OI
Gd LRA
ĠGY OGA
H jGA
ĠGdO QhS
ĠJbGHd fG
ĠJMH gG
ĠGdPc QjGJ
jL Yd
Qj jf
ĠGdbG SjI
Gf a
ĠGdQ eR
j HI
f NH
ĠGdGfL djRj
VGY a
f jGA
ĠHGdJ hajb
ĠjMJ aX
Ġde TQhY
ĠeR QYI
ĠGdMVQ jI
Je JY
Ġede hSI
ĠGdTQj MI
UM GH
Ġea jOG
Gdd Yfg
ĠGdGS YGa
ĠGdjS Qi
ĠH QO
ĠefX hQ
Ġadh QjOG
ĠGdL OQGf
ĠGdeT GgO
ĠbW GYGJ
h GfgG
fG Ojb
ĠGdJf Xja
ĠGY fi
ĠGdeYO d
Ġd jcS
ĠeV WQG
VY a
Y cI
QJ ge
ĠSj W
Ġf ZGOQ
ĠeJ YG
Ġj GJi
hSj bi
Ġc ed
ĠGdM dbg
ĠGdM Hd
ĠcGQ hd
Ġhef XeGJ
Ġf YO
ĠeM GOKI
ĠGdJ MOjO
T OI
Ġed YH
L QHI
GJ ab
ĠhGdGJ LGQ
MbG bGJ
aQ jf
Ge Qc
ĠGdS GYGJ
GdG SHhY
ĠGddG F
R YGJ
ĠjM ce
ĠGdGVG aj
ĠGdS ba
ĠX GgQI
ĠGNP hG
ĠdJ N
G cfJ
ĠH aJM
ĠO hc
ĠZd WI
ĠGdebJQM GJ
ĠGdUfG YI
dh jS
ĠJS Qb
ĠhdG jGJ
ĠeM ed
Uj dI
Gde dc
Mj hGfGJ
Ġbje JgG
ĠHGfJ XGQ
ĠS GU
ĠGfJ bGd
QJ Gf
ĠJJ L
GM fGJ
ĠGfT FJ
hJ ge
ĠJL GQH
ĠGdHc GA
ĠddG Z
ĠGdTNU jGJ
Ġejd Q
ĠGdNW jQI
ĠJ PcQI
ĠJJ hdi
Sd jI
ĠGdQa Gb
ĠGdOhd GQGJ
ĠGdS dI
ĠdG GSJWjY
ĠeM W
cd ge
ĠGO YGA
Ġ VG
ĠUGO bG
L gjR
f hYG
ĠGdG PG
ĠGdH fjI
ĠHU jZ
eG T
ĠGT jG
ĠjJe Kd
ĠGdGf HYGKGJ
bJ QH
GQJ fG
bH GJ
O GQS
ĠGdY VdGJ
Ġdg DdGA
Ġdcf i
HGM jI
ĠhGdb VGA
ĠH he
ĠGdb Hj
ĠebO ej
ĠGSJ KeGQ
Ġj VQ
KdGK hf
a JjT
SQ fj
cJ hQjG
ĠjJ hdi
Gd jO
eJ YI
ĠjG SjOj
O jfj
ĠGdJ ZdH
ĠGdeY GfGI
HQ g
ĠHeY fi
ĠGf R
ĠGNJ WGa
Ghd Fc
ĠSY GO
ĠW QGR
ĠGSeY c
Gj T
bO J
ĠHGd abQI
Ġhjd Shf
Ġa GQS
ĠGdOe hjI
Ġe bGJ
ĠGdf bjH
ĠO djdG
ĠG Hd
ĠGdY QHI
cJ gG
ĠGda fGOb
ĠGe GfY
VY gG
ĠGdJf HD
ĠGdL QS
ĠGdGd Ga
ĠGdeYG gO
MJ ge
ĠfG QjI
Pc Qc
ĠM RGe
ĠQhL Q
ĠdO hd
Ġdd hbJ
SH jI
T GT
ĠfT ha
ĠWGQ FI
ĠeeJ d
ĠddGa QGO
Md i
ĠHfO bjI
ĠfT YQ
ĠHO bI
ad jf
ĠJJ QGhM
Hj dj
e YG
ĠGJ VM
ĠJJ Qcfj
ĠGdGSJ ZdGd
YGQ V
ĠHO aY
Ġchf Z
ĠGdWHj HI
ĠhZjQ ge
Ġd HQ
ĠGdGSH GfjI
ĠGdQ Se
G bd
ĠGdM GOKI
ĠGjLGO g
ĠH Sd
ĠJSJ fO
ĠV HGW
ĠOj Qjc
ĠGjf eG
ĠGdKbG aj
f M
b hS
ĠGf V
ĠHhG HI
ĠGb GH
ĠebG heI
ĠddM cheI
Ġb de
ĠGde OGaY
ĠGj Qjc
ĠGdeYjT I
ĠdGa QjbjG
Ġcja f
ĠddJ LGQI
ĠQc hH
Ġa R
Ġjc ai
ĠSYjO g
J N
ĠV Og
ĠGJ GHY
GdY RjR
ĠZQa g
ĠhGJ NGP
ĠjJ YGed
ĠJD de
ĠdYH J
Ġhe cGaMI
ĠHGd LdhS
ĠS GJj
ĠdH bjI
ĠQa jY
ĠjT ajc
aJ bO
ĠJQc Jg
ĠGdeN GWQI
ĠHW Qb
ĠG he
hj HOh
ĠH hdfOG
ĠJQ hf
ĠeVM cI
JYde hf
fG ge
ĠGdGSJ fJGLGJ
ĠGS F
SJchf jf
ĠGdJ ZPjI
GS ag
ĠfJ YGed
Ġh Ydj
Ge Ge
ĠHGdJ Y
ĠehG YjO
Ġe Sj
ĠT GF
ĠhGd OI
ĠHQ djf
ĠGdGf hGY
ĠGQG bH
Ġj be
ĠJchf i
ĠGde UGdM
GdGT jGA
ĠJf WHb
ĠdJ Q
ĠJW Hb
Ġe hV
ĠjSJ Ggd
ĠehS ch
Uj MI
ĠGdSQ bI
G jecffG
Ġf LG
b X
ĠjJ Mhd
ĠJO ab
ĠGdS dHjI
dj dj
ĠbQGQ g
ĠGfS GfjI
ĠeJf hYI
e H
ĠGdJY Qja
ĠM QGQ
ĠJY LH
ĠSjO Ji
ĠGZ fjg
hg fG
Ge jQ
f YQa
hg I
ĠOe QJ
YO i
fG Rd
Jd Q
fR jf
ĠGdaG Yd
ĠGNHQ JgG
QG UfI
ĠdYH g
ĠHY QV
hGdO Jc
ĠGU hd
Ġej GfeGQ
ĠGHfJ g
ĠGfOQ h
Ġha Oj
Sde jf
ĠGdQ ZHI
ĠGdLGe YGJ
ĠY PQ
Ġaj OQ
ĠS hQj
aS GO
fG QO
ĠJfJ ej
Y cS
ĠNW Jc
j dG
dj U
ĠJ hH
Jj e
ĠGMJGL c
ĠGde QJc
hX ahf
jG a
aj gG
ĠYQV I
ĠJgO jOG
GQ ZH
bj fG
ĠGSJ WG
Ġdjf c
ĠJ HjY
ĠJYQa fj
ĠddS Lf
Ġjb QH
Ġdde D
ĠddJ OQjH
ĠdG YeGd
ĠefNaV I
ĠGdKdG LI
aj T
ĠGda dHjf
ĠO af
H GdG
ĠgO aG
ĠGdL gO
ĠGa QbI
ĠJbJd fj
Ġh be
ĠGH cj
ĠGdL eGYj
ĠGdG jOj
ĠJR OGO
ĠSG NQL
ĠJhLjg jI
ĠjbJ QH
ĠeT gO
ĠefJ Oi
W Qb
GdGe e
Ġh WdHJ
ĠGdG HYGO
F cI
Ġe HO
Sc GQ
ĠGda L
ĠUO bJ
ĠdT QcI
ĠJ Mj
ĠHj K
ĠY jT
ĠSGYO J
ĠHGdM ce
Gc jG
ĠVO c
Ġj cJTa
ĠSQ hQj
ĠJY hOj
aV dj
ĠHQj A
ĠNj GQG
ĠQZ HJ
Ġajf S
Ġh MSf
c hd
ĠHQ eJg
Ġjb QG
ĠGdTQ YjI
ĠQL Y
ĠN fRjQ
M gG
ĠGdeK Gdj
bU GFjI
ĠhJ dc
Ġdde hGQO
ĠdG jf
Yj hf
ĠhGdJ U
Ġec I
ĠGdbG gQI
jG Oj
ĠJM OjK
ĠW GFQ
ĠH Qc
ĠGdGS QGQ
L OG
hH eG
ĠfG aPI
ĠGS cJ
ĠGde HJ
ĠN GOe
ĠL hGf
ĠfG FeI
Ġh GHj
Ġd Mb
Je gd
Sj he
GN HGQ
ĠGdGJLGg GJ
V hG
ĠeaJ hMG
ĠhGMJ QGe
QGH YG
ĠMe bGA
ĠGdL hGH
ĠLGF YI
ĠGdH WGbI
ĠJ bWY
ĠGd GdH
Ġj SGhj
ĠGd PgHj
ĠH chf
ĠGdL hGd
ĠefG bT
ĠGU eJ
Ġaj dj
ĠGde QGcR
Ġdh QG
ĠLf hfj
ĠZ PG
ĠGf M
JU Qa
ĠWa dc
ĠP QGY
ĠeGdj RjG
ĠbU GQi
HG F
ĠGdR f
ĠGdTQ Wg
ĠGjgG Gde
ĠcQ hGJjG
RG jG
Ġde hXaj
ĠjW hd
ĠO Gd
ĠHW dG
eKd eG
ĠQ F
ĠeM Qc
Gde Qab
hS jf
aS jI
ĠGeQjc jI
Ġe WGdHI
ĠGjQ d
Ġef b
ĠGdO hGe
ĠGdGH QjGA
ĠLR FjG
Ġjb GQH
bO QI
ĠJYdje GJ
ĠM SGS
ĠGde X
ĠJc ahf
J abO
ĠfgG FjG
W hf
ĠGdSd SdI
Jj QjG
Ġ QjH
ĠeJ YHI
ĠGdP GJjI
aY hd
ĠGdJ NQL
ĠGL jH
Oe Gf
ĠGdS eG
ĠT J
ĠL hO
Gg jQ
ĠGdVeGf GJ
ĠeSJbH dG
ĠgG hS
ĠGdeSJ bd
Gde GJ
ĠGYW i
Ġh geG
Ġcj QG
ĠGdJ WhQ
a fG
ĠGdH SGWI
ĠGddYH g
b dc
ĠGdHfO bjI
a O
a dg
GY Wj
Ġe NdU
ĠHf Z
ĠH Jc
ĠHGda fOb
ĠY LR
ĠM Qjb
ĠGdM Rf
ĠH QJ
ĠY XGe
T QG
Ġg GA
ĠL GR
ĠQj HjcG
Ġj WGdH
ĠbH YI
V O
Ġje Sc
hZ hGj
Ġdj HjG
hb ha
QHj LGf
ĠjH Pd
L hH
Ġh YedjGJ
Ġa gd
ĠehbY g
ĠeJ hQW
ĠJ bW
ĠSdj eGf
M Gd
ĠGSGS jG
Hj HI
ĠH hdG
ĠGdO Q
ĠS GOI
dJ hf
ĠHQTd hfI
ĠJS MH
ĠbGd Jg
Ġj UQN
ĠGdRQ bGA
ĠhGdJ cfhdhL
ĠGdHj Fj
ĠjS Ld
Ġf V
ĠGN i
G bJd
ĠS eG
ĠGdGM PjI
Gf OQ
ĠJNJ aj
c SQ
ĠGdefb MI
ĠGdS GMI
ĠKGHJ I
j aj
ĠGN Jd
je S
ĠeKd fG
ĠgO hA
SH Gf
Ġdd hWf
h hf
ĠjJ Se
ĠGdg OGjG
ĠSG YWjc
h Mj
Ġe hfG
ĠS Gej
ĠJa QV
NQL J
ĠGdNW GH
RY je
ĠHGdb hI
ĠGdLf g
Ġe gO
bGd hG
ĠQ OG
eGf Y
ĠWGF aI
ĠGdY ejdI
ĠddJ UOj
Ġhe LdS
ĠGdeaJ T
ĠH QH
ĠJ hjJQ
ĠGdb WH
Ġb Gf
QG SGJ
Jc GH
ĠL hOj
ĠLGf Hj
ĠGde UGO
ĠHG U
ĠdY fI
ĠGaJ QGV
ĠSfaYd g
ĠhJ WdH
Ġbd Jj
Ġc jfj
ĠMd ej
ĠhG aVd
G VGaI
ĠOG aY
ĠL hYG
ĠGdef Wb
ĠGdb HQ
GJ hf
gG V
eK dj
TQ Ojf
Lj ej
ĠSD Gdc
YH FI
ĠGdG ReGJ
ĠH Se
ĠG XgQJ
g GQj
M hf
GdQ Ze
ĠGdGSJ MeGe
ĠGdG hfI
ĠYV hjI
ĠGdeGF jI
ĠWQa G
Ġj QcR
ĠGdb f
ĠU QJ
Gde RjO
ĠGdH YO
M bI
GSJ eJY
HW QjbI
ĠT HcGJ
ĠhGde hGO
ĠeJ YGhf
Ġa hf
ĠGde cS
ĠeTQ hYI
ĠGdNV QGA
Ġj Hjf
ĠddQ FjS
ĠGdGU W
ĠV QHJ
ĠS dc
ĠGdG TcGd
hSj dI
ĠJ Gf
ĠS GQg
fG TO
GdG hd
fa Sj
ĠJQ Gfj
dG bjI
ĠM db
ĠGL f
ĠbG Sj
ĠGdJYG bO
G hJ
ĠGfa QGO
ĠQaj bj
ĠGdd hM
ja jI
ĠGdeJ Y
ĠU hGH
ĠGdQjGV jGJ
ĠG cQQ
Se jf
fR g
fJ Gf
Ġde LQO
ĠLO O
ĠJJe Kd
ĠGdJ MJ
ĠGdN TH
Ġj MjW
H hOjG
GYPQ fj
ĠJY LHfj
ĠJ Gfj
ĠHGd aQfSjI
ZW i
h jGA
R dI
G bhe
ĠGdeecf I
ĠGdYH K
ĠHe SGYO
ĠGdGj ef
ĠNR GfI
ĠaJ Gg
ĠQj h
ĠGdQUGU I
Ġhd SJ
ĠGde LdO
Ġe Ua
ĠShA G
ĠGJ Med
ĠGda Vd
ĠG hbY
ĠJ Qjc
ĠGdT GTI
j dj
ĠHf bd
ĠGg GfI
Ġe Oe
ĠJac jQ
ĠY a
j heG
OY c
ĠJ UQN
ĠhH OG
bhe j
Ġh GQjO
Ġdd HQfGeL
ĠHb hGJ
ĠhXja Jj
Ġh Gef
ĠGdeD TQGJ
HM hK
LR jQI
ĠGdVj ha
ĠGfT GJ
ĠGdeJc Ged
Sc hjJ
hN i
ĠYQ hV
Ġh ed
ĠGda ge
ĠeTZ hdG
ĠjT QH
ĠJOQjH jI
bW GQ
ĠGdb PQI
ge J
Ġh Hj
ĠLhf Shf
ĠGNHQ ge
Ġh ej
ĠdGJ NGP
ĠGdejO Gfj
ĠJhba hG
ĠeL eh
Ġed Y
ĠGdO NGf
H Zi
ĠJe S
hb YJ
ĠMad GJ
ĠT ghO
ĠJ GLQ
J Gc
ĠGdQ JHI
ĠGYW jJc
ĠM c
Ġb fhGJ
ĠZ Qjf
ĠGdbG YI
W jf
Gj Ge
ĠGe K
ĠGdL Hf
M de
f gGjI
Ġe habG
ĠGdGNJ dGa
ĠHY fGjI
ĠeSDhd jGJ
ĠGdGSJ QGJjLjGJ
ĠGdW GFQ
ĠJN Jda
ĠGMJ Qe
WH bI
Gda GJ
Ġj hZhSdGajG
ĠGdT iA
ĠJ TQ
T QJ
Ġa Vj
ĠGdL hY
ĠdfaS g
ĠhGd GW
ĠeQV i
Gf XQi
ĠR GhjI
ĠjT Zd
ĠGdQS he
Ġh HOhf
jfj g
b dg
g GeG
ĠGdb QO
ĠbH GdI
ĠJ Zj
ĠhGK bG
Ġec G
QV J
f e
ĠGdT QGA
ĠfL Yd
GdW ad
ĠbQGQ j
ĠJe RMjf
ĠGf UJ
Ġgjd jf
ĠGf YOGe
ĠZ HGA
ĠeQc HGJ
ĠdGfgG A
ĠGN hce
ĠdL eY
O HQ
ĠSJ MJGL
GJ Qjf
ĠJ RGjO
HY hf
ĠHGd Sd
ĠHLGf Hc
ĠZ hGJjeGdG
ĠU G
N QjI
ĠGddj HjI
Ga D
ĠGdG HOG
Gde QGI
ĠeD S
Ġj hUj
ĠGdX g
ĠHe SGdI
ĠfU jH
ĠGY LGH
QGg Ge
ĠGdeR QYI
ĠVQ HG
ĠGd hLhO
ĠGj eGf
ĠH GQH
ĠGdeYJ Uejf
cf g
dG GSJWjY
ha GJ
ĠGQJc H
ĠGL Ydc
HGQ O
ĠHTQ jI
Q gG
Y ej
ĠHT j
GdZ Ge
b hH
jR Gd
ĠJYH FI
ĠM QGS
ĠYGF O
ĠeJ J
ĠGdf SHI
ĠddM aGX
ĠeU Wai
ĠHd i
ĠGSJe GQI
Ġjedc hf
ĠGfZ hdG
Qj MI
Gde hJ
j bhe
ĠH QM
ĠHbG jG
ĠGdHQJ ZGd
Ġc GO
Ġf NH
ĠGe e
Ġdj RG
ĠYGL dG
TGQ O
GN QI
ĠHGc KQ
hH fGA
ĠGP QHjLGf
SGA dI
ĠGf hj
GJYJbO jf
ĠeY ScQ
S GJj
ĠGdOQG LI
ĠJd ej
ĠfQL h
ĠJD Pj
ĠGH hj
hSJ Q
Ġfjc j
ĠJO QjL
Ġa NQ
ĠJ Ydb
ĠGdM hV
GeG jcG
ĠhGd GY
ĠJ Gag
ĠGdGN P
ĠGdK hQI
ĠGdGc GOjejI
ĠGdeJ eQ
ĠGdGf b
ĠGdS Yj
ĠGdOj fG
ĠGdK bGaI
e QG
ĠGdJbj fG
ĠZ G
hO h
ĠeYQha I
ĠGHdZ J
Gd YOjO
aQ U
W jc
ĠGdg jcd
hb Q
ĠGdeYfj jf
ĠhW f
ĠY GQa
hGQ jO
ĠK hQ
aG Ujd
hK eI
V Yj
Y Gde
ĠGdS djeI
ĠGddHf GfjI
Ġjbhe hG
ĠQ R
ĠGdH U
ĠSGO Jj
fG a
ĠddO aGY
ĠTcd g
ĠhVYJ gG
ĠN dGjG
GH c
Ġa fjI
ĠJ Yd
dG jc
ĠddJ GcO
ĠjPgH hf
ĠHGdG YeGd
Qjc j
ĠbQGQ c
ĠhU fOhb
Sj WI
SG ge
ĠY Gg
MJ fG
ĠN ajaI
eG gPG
ĠGdL hg
ĠJQG gG
ĠGY PQ
ĠhS GO
ĠT aG
ĠR ejd
ĠcGQd hS
ĠGdG bOGe
ĠP fH
Ġj hfS
G jc
ĠhGd MO
Jg i
ĠaQU g
Ġj hVM
ĠGde UQjI
ĠbO ejc
f f
Ġb GOI
SH GfjI
Ġdd hdGjGJ
ĠGMJ L
ĠGdU djH
S hGA
MH gG
GNHQ J
Ġcjf jG
g V
ĠGdO GfeQc
ĠUO hQ
ĠjN VY
SG geI
ĠGfLj dG
Ġf QMd
ĠdJ U
Ġj bJQM
hb GjI
ĠGdeQc HI
ĠffJ gj
ĠGdeW GdH
ĠGJ T
ĠGSJ YGO
ĠGde bjejf
ĠJb djd
ĠjJ Yde
dG HGS
ĠHd Wa
Ġed ReI
ĠGdL Q
Ġd Hj
Ġj Gf
ĠGdajOQ Gdj
ĠYGU aI
ĠGdGHJ YGO
ĠGdGSJ KeGQGJ
ĠdG YOGO
Ġe abhOI
ĠM PQ
ĠL fO
ĠhGdS YI
ĠeGQ Jj
ĠdGf cG
ĠjU jH
T hQI
ĠMe V
Ye b
ĠHGdS hA
ĠGde GehQ
g T
ĠQc HJj
jecf fi
ĠQhM c
ĠGdeN QL
ĠGdb PGQI
ĠY hGbH
ĠLf Sj
ĠeYbhd I
GL QI
ĠaQGfc j
ĠeG cGf
ĠdGF MI
ha Gf
ĠhJfajP gG
Qj VI
ĠGdGW dGY
ĠGMJ hGA
ĠJN Wj
Lf QGd
ĠGdhM hT
ĠGdH TQI
S hd
ĠGdbfG Hd
ĠJf Ve
ĠGdU HQ
JU GQ
hY jf
ĠHGd GH
ĠGdQ Me
ĠO hfj
YH g
ĠHGd Ga
hY H
Ġf Z
ĠjfJ ej
ĠGjL GHj
ĠGfJX QJ
ĠGb db
ĠeO ef
ĠGfa Ud
aJ Q
R dc
OG bI
ĠGde QGLYI
ĠGdd GJj
ĠGdGS O
ĠLdSJ gG
QGF O
j MOK
ĠK ed
ĠHM jGI
ĠGde jc
Ġd Sd
ĠJJ Mhd
fj S
ĠHMj GJc
ĠGda jf
ĠGdNGU g
Ġj MXi
ĠhGdGf TWI
ĠGdeS LO
ĠN Gdj
ĠO hGFQ
ĠhS jchf
ĠhGd hcGdGJ
Ġg jf
R GQ
Ġdh KQ
Gd gG
ĠeQJ HWI
ĠQG LY
ĠHGd X
Ġj eS
ĠYTQ hf
G hQ
VGL YI
ĠGdeY hbjf
GJ SGFd
ĠSG NHQ
ĠddJ YGed
ĠddH bGA
ĠL QGM
GQj Nj
ĠGde bW
Gde Gd
ĠGY KQ
ĠGdGL hGA
ĠYdjc j
PcQ i
ĠGdYf UQ
ĠGd QGb
T aj
ĠY jfg
ĠGM de
ĠTGQ cJ
HY jOG
Md jI
ĠGdGf XeI
hf XQG
ĠH hO
ĠHYO O
ĠO f
ĠGdGT HGM
J QGLY
ĠO hQjI
ĠhJ cQ
ĠGdR fGO
MO Q
Ġd cGf
Y ge
ĠGS S
ĠGdG bUi
ĠeHGQ jGJ
ĠL hGd
ĠeQj VG
ĠSD Gdj
ĠGdcj GfGJ
ĠM dbg
ĠGdY GQ
ĠGdM TQGJ
ĠfG UQ
ĠGdGS ge
ĠY GdjG
Ġef Og
ĠLGc j
ĠGdM GQ
ĠGda Ojh
ĠHGd eGOI
ĠHbj eI
GQ ja
Ġfe hJ
ĠMO OJ
ĠGNHQ ce
Nj UI
Ye dg
ĠSG bj
Rj g
Ġcja jf
Ġaf dfOG
ĠGJ Y
ĠGSJ OY
ĠGdU NhQ
hHjf eG
ĠGdO ghf
SH YI
ĠH GQSGd
ĠJ MSH
ĠHT Qj
c GHJf
eG Oj
ĠWH bI
ĠOG je
ĠGfJ bGdjI
jG HGf
ĠQ hYI
ĠJ GT
ĠGSJ gdGc
ĠMbjb i
ĠGdWQjb g
Ġe Gde
ĠeG S
ĠJ PGcQ
ĠMGS hH
ĠeQJ aYI
ĠGdYe he
ĠJU fja
ĠQH MJ
ĠGdS Ld
ĠT H
ĠS af
Qj Z
ĠGL dG
ĠGde GL
ĠjSGYO c
ĠH hfj
ĠGdWGQ FI
ĠjG a
eGg jQjI
ĠcdG H
Ġedc G
L jJ
ĠeSJ bQI
Ġ i
ĠUM aj
ĠGN jQI
ĠG bWY
Gf bP
gPg gj
Ġh SGFQ
S dj
ĠecJ Hg
GdMeO ddg
ĠddM OjK
Gc HQ
Wa hdI
d W
H Se
U jf
ĠGdedG Fe
ĠfMf f
ĠMSG SjI
ĠeSGYO Jg
ĠSj Hbi
Ġe Gdg
ĠGXf g
ĠhG UHM
ĠeD Sa
Ġa LQ
ĠJJ YG
ĠO he
ĠbdJ gG
NJ HQ
ĠX dJ
ĠJSGd fj
de Gf
ĠGhd jajG
ĠjJ Lg
ĠGbJ Q
LYd gG
ĠGdM PGA
Gde QLY
Ġdd QLGd
ĠJ NUU
ĠGdGR YGL
ĠGeQ fG
ĠjSJ fO
ĠjG S
ĠhL gG
ĠGdg fOj
ĠGdeH Gfj
ĠOY hi
edc g
ĠGecf c
ĠSeGY c
ĠGdJMJ jI
Ġh hcGdGJ
ĠhJ chf
ja fj
ĠGdb i
ĠHj L
d Re
ĠGda de
ĠJT OO
Gh hg
Ġc QH
Ġc QGJ
N dI
ĠJN aj
Y TQI
ĠGMO fG
G bJQM
g J
ĠcQG aJ
ĠhGdO Jg
Ġa O
ĠGdGeHQGW hQ
Gj jO
ĠhGY QH
j YQa
ĠY Qb
ĠGdc aGAI
NU jU
ĠbGf hfG
ĠGdeJ Ud
N dG
ĠGSJ Z
Lj Qj
ĠfG cd
e Z
WGQ jI
ĠGdLf Oj
ejf jG
ĠJfaj PG
SG Y
ĠGdY TQ
ĠaQj bG
ĠQG bj
ĠLhd jG
ĠeSD hdG
Sj Gf
ĠGdefJ L
ĠfMJGL g
ĠGdM hGOK
QG ce
hGf jG
Ġj HQ
ĠG TQ
ĠHGd GOGQI
ĠHGfJ XGe
ĠdG h
jY LHfj
ĠGdeO QSg
ĠH QJHI
ĠGdGYJ PGQ
ĠGdLZ QGajI
ĠH hdj
ĠGdGSJFe Gfj
ĠjYQa g
ĠGdce jI
GQJ ce
ĠGdHj hdhLjI
ĠGdS H
ĠGdGNJ HGQGJ
Ye O
ĠeS LdI
ĠGdU QGN
ĠHU MI
ĠH RjGQI
ĠGY Gfj
je g
aJ T
ĠSjSJ ZQb
ĠGdGfJGL jI
ĠhG hd
eG gjQ
ĠJ QbU
Ġc O
ĠjO eQ
T cQ
ĠdJ ZjjQ
ĠG SGAI
ĠGdV Ne
ĠS GF
W Ge
N dGU
ĠddU fOhb
ĠGdQS hd
ĠT QGcI
Ġd bhd
Ġaj ecf
Hj gG
Ġf HGJ
d GdG
Ġej dj
ĠJSJWjY j
j Gddg
ĠL Qjf
ĠhGd Yfa
Ġej Tjd
Ġc GT
ĠSJ bJd
ĠNd ag
ĠhG VGa
ĠGda JjGf
Gd GaVd
ĠJ hVM
ĠY Uj
ĠHGdJ fejI
ĠGJNGP gG
ĠGT QGc
WH bG
ĠhGd HjFI
ĠGde Qa
ĠGdehLhO GJ
jc aj
ĠGdaJ Gg
ĠGdGN WGQ
Gde QI
ĠJM ej
ĠP QGYj
ĠeG Vj
Gd ge
ĠeJ GSa
ĠdW a
M HI
OG bjI
ĠdS Gfc
ĠGdJ Yde
GSe M
ĠdQ FjS
ĠbO jQ
a U
ĠGdGNJ aGA
K GdI
J hQ
ĠO QhS
Gd LOhd
Ġdg fGc
ZH jGA
ĠHf TGW
ĠGdYG TQ
ĠM hGOK
aG ge
ĠeJ GHYjf
ĠT ed
ĠhG YW
Ġddf XGe
Gd YG
ĠG bO
ĠJQc g
ĠGde bGJ
ĠGdKGfj g
ĠJSJ eJY
Ġje Tj
hj LQj
ĠGdGde Gf
V h
dJ ge
R bI
Qc jI
ĠGdeH jfI
Ġj VGjb
ĠhJ bhd
ĠGSJ bQGQ
ha VdG
ĠehS i
ĠGMJ Q
ĠGde ejR
Sc hJ
h cQ
ad GJ
ĠJ hHj
ĠhGde edcI
ĠHGd QjGV
ĠHj T
Ġchf gG
ĠGdSJ jf
ĠddT Dhf
H NUhU
ĠUOjb g
ĠYjf c
GH Yg
ĠGhG NQ
hL jf
ĠGde MbbI
HGdc GO
ĠTgO J
ĠNWj QG
ĠJ hQW
ĠGdGH GOI
gh jI
ĠfL eI
ĠGdO hGFQ
ĠaG Yd
GNHQ Jfj
ĠGSJ MOGK
Z GS
ĠcP Gdc
ĠS GQJ
SQ gG
ĠhGL QGAGJ
ĠJM hdJ
ĠGdQG HW
ĠM aQI
dj h
ĠGdMOjO jI
O Qc
e eI
ĠGdGfJ UGa
b QG
Ġe jL
Ġa fRhjdG
ĠGdGK fGA
ĠGdGL RGA
M jGI
GS W
ĠGda hGFO
ĠGdb GQI
bJ i
ĠHJ Mbjb
ĠYd eGA
ĠT Gfj
Ġaj aG
TQ Wj
ĠZ GH
ĠWHj YjG
ĠJ VQ
ĠGdej fGA
ĠW dGH
fJ bd
ĠHYV ce
Ġf jI
ĠGdeYjT jI
ĠehJ g
Ġa djS
hf h
f OI
ĠhGdSjG SGJ
ĠGdR eGf
ĠGdGfJ MGQ
Wd YJ
ĠaQGfSjS ch
ĠGdJaG Yd
ĠU H
ĠS eGYj
jJ i
hG ba
ĠjD jO
Ġcfj SI
ĠGdM QhH
ĠGdJ hRjY
ĠGdRhL I
ĠM GOI
ĠGdf Le
Ġdda fOb
ĠGdb aR
Ġd Rj
YO h
ĠK hQI
RhL j
ĠGdG TQGQ
ĠeD cO
O Jc
ĠGdG MG
ĠR aG
ĠebO hfjG
HJ hf
e PcQI
ĠHGdY hOI
ĠGdOSJ hQjI
YJ GO
ĠGYJ bGO
ĠNdGd g
ĠGdJM hjd
YO g
ĠU QHjG
Ġhe T
eg fO
OG g
ĠLGg RG
ĠhJM djd
c K
ĠGYe i
Y Ld
ĠGdMad GJ
hj SJ
ĠefJ L
ĠOQ SG
ĠMGd Jc
ĠH VQhQI
YH Gf
ĠGdJcfhdhL jGJ
Hj K
ĠhGdGb djej
ĠJGjd fO
ĠYO dG
Ġd Hd
ĠgGJ ag
ĠJT Zd
ĠGJ d
Ġaj QL
ĠJJ Mbb
ĠfJ hba
Jj fG
ĠhJ hUjGJ
ĠJfG SH
ĠjJ RhL
ĠGbUO g
ĠGdeQc HGJ
Ġg hf
ĠhGde QGI
Gd gOa
ĠJfJ bd
ĠjSGYO fj
ĠQ hd
ĠJO jQ
ĠdY GF
j Yed
ĠGdQ YH
ĠheD SSGJ
ĠGdGT YI
ĠGeJ dGc
ĠJY cS
ĠGdeQJc HI
ĠGdL jQGf
GfJ JYQa
ĠeM Rf
ĠH hK
ĠGR Qb
ĠGV YGa
ĠddJ Mbjb
ĠeJ YdbI
Kj Gf
ĠL hOI
Ġh HGA
ĠeQ T
ĠjT JQc
ĠGde hQ
e QcR
Ġa dbO
ĠJO QS
ĠHGdJ MOK
ĠddG NJ
ĠHGd Oe
ĠjYQa hG
N GQ
ĠeMO hO
HGQ g
ĠMGd Jg
Ġj bdb
ĠhGd GNQ
ĠGWa Gdj
ĠWHj HI
ĠJ QHW
ĠgGJ jf
ĠjMJ ed
ĠHe fGSHI
Ġb f
Qj Hj
ĠM bd
ĠHGYJHGQ g
ĠHGd HjJ
ĠGdJ eG
Ġef ceG
ĠGfTW JgG
Ġdj hf
R eG
ĠGdefG RYGJ
YfO c
ĠHGc QG
ĠGdN O
ĠHGdM jGI
ĠJ hdi
ĠGh UJ
ĠefG bTGJ
gQ hH
ĠGP ci
hG jG
ĠGdg HhW
ĠGdeNd hbGJ
ĠO S
ĠdGF b
dS hA
hO Gf
ĠGda GFR
ĠN djd
ĠQG bH
Mjf gG
GSeY hG
H gj
ĠGdL GQj
Ġj GHh
ĠejdGO c
ĠGJ gGe
ad SW
ĠhcGf fj
Ġe edcI
ĠGdGa Z
ĠGdYQ hV
ĠGh c
Ġhd jO
Ġbj hO
ĠGdN HjQ
ĠddG WQGa
Gde ge
e gG
ĠeQc HI
ĠGdS Hd
ĠGdeM Q
ĠJQc fG
ĠSG Nf
ĠSG jehf
ĠGdbW YI
d fO
Ġdd QH
ĠGL QH
D hS
SGYO g
HY KGJ
ĠHU eGJ
hW jO
Gda Qjb
ĠGdYU GHGJ
QjO g
KGd K
ĠjG Gdgj
ĠGdGf T
ĠjY RR
Ġeef hY
ĠdG bhd
ĠGSe MhG
OY gG
GJ SGAd
Gd bj
ce dI
ĠGdJc Ged
cQ QI
a eG
ĠjO Qj
ĠddG H
ĠL HGf
Je Kd
bG X
ĠGdeJ aLQGJ
ĠdM VhQ
Ġa W
ĠGdbS Qj
ĠY HGS
ĠZ fi
g je
jO jf
ĠhGde eGQSGJ
ĠJT GO
ĠQ hG
ĠYdG hI
ĠhGJ efi
ĠGdS da
ĠhG MH
abO J
ĠGdgh GJa
ĠS GQG
ĠQ hK
ĠHb jGOI
gjG jG
Qe R
Oj hf
Y eGA
Ġe jcj
ĠGSJ j
ĠJY HjQ
ĠGUHM fG
M OjK
ĠJ Ld
ĠQhe GfjG
ĠGdG YGbI
ĠjM hd
LR jf
Ġc Jj
ĠHGde YdheGJ
Ġe QL
Ġe Xd
ĠgPGGd UHGM
ĠeT Gc
K eGf
ĠGdbU jQI
ĠJSH HJ
ĠGdd Ge
ĠG hGFd
ĠGdj hJ
ĠH hj
ĠGdT GF
ĠYhO Jc
Ġc HQJ
ĠGdbW W
ĠHYe dc
Ġj HGQc
ĠJJ MSf
ĠeSQ hQI
ĠGdNW QI
H fOQ
Lf hO
ĠHLGf Hj
a N
f XGe
SGJ hdi
ĠeV WQI
ĠGdeD NQI
ĠVeGf GJ
ĠGdGde Gfj
fG j
ĠP cQg
e ge
ĠL GQj
ĠGdb hjI
ĠaJ QGJ
ĠGdHQ O
ĠMb c
db hf
ĠjJ hGLO
YG gOI
Ge dc
ĠGdL Qj
ĠGdYGH Q
dJ i
UGF U
ĠJZ fj
ĠR GOJ
ĠGdeV ja
Z jI
ĠHf XGe
ĠHYV geG
ĠJ hXja
ĠT LGYI
ĠjY GdL
aG T
ĠHj Ljf
ĠGYW jfj
ĠJ hS
cd H
ĠL gGJ
MUd fG
J MH
ĠGdY L
Sj A
ĠL QS
ĠhbJ d
Gf T
ĠJY OjdGJ
ĠHG jI
ĠM QcGJ
ĠUOb fj
bG he
ĠGdeZ fGW
ĠLGgR hf
ĠJT gO
ĠGde VMc
ĠGL GR
SH hd
GQL hce
ĠJ ef
db H
ĠO QH
ĠGdYScQj jf
hH Gde
Ġd hRGQI
hb Hd
ĠHM Gd
ĠGT GQGJ
Ġj YGbH
JYGd hG
ĠH eQ
Qj cGf
ĠGdGM UGAGJ
H QI
ĠJSJ jbX
GjG c
ĠGj KGf
Ġf jJ
ĠJHJ YO
ĠGdGFJe Gf
ĠddT HGH
Ġf MXi
ĠGdGgd jI
ĠHGf ce
Ġhf RY
Ġa GL
ĠSjchf hf
Qb GHI
ĠMX c
ĠJS ge
cGQ d
ĠfGL MI
ĠGdS ghdI
ĠGdeS Ld
GdG Se
ĠGdeYQ hVI
Ġj Ojg
ĠHH fGA
hHGd fSHI
Og hQ
GQ fj
ĠjN SQ
Ġc Qc
Ġb jGO
ĠTc hi
ĠHGd Nda
ĠGL Qi
ĠY OGO
Gda fOb
Nj GQ
Oj a
ĠHf gGjI
D ge
ĠGTJ Qi
ĠZdW Jj
ĠM aQ
ĠeJ hGLO
G YJHQ
ĠG FJe
Oj ajO
ĠcGf fj
Ġc Yc
OGF QI
ĠGdG ZGKI
Ġhjd R
ĠhGdf Ua
Gf eG
ĠY L
ĠSJ hf
ĠGdN GVYI
a de
Ġf aGP
ĠGdH QG
ĠSJj aGf
ĠHGdZ QV
ĠGdeM Gejf
ĠeG MOK
ĠGdeQT Mjf
QL J
Ġf fSi
ĠHGd hGbY
ĠGdf O
ĠGdGS hG
ĠMGa dI
Gf OG
ĠGdG jSQ
hZ O
ĠjT JQj
ĠGdeYe hd
ĠQc R
ĠGdefRd jI
ĠGdJ GL
ĠGdL hOI
ĠGdc hQ
ĠjL Qi
ĠQG HW
Vj H
ĠGdegfO S
Ġf hHI
ĠJ hf
ĠGdV N
hb aj
HGd hGbY
ĠHfZ dGOjT
ĠK jG
ĠTQ YjI
ĠJfR GfjG
ĠM fG
ĠGdef gL
ĠGdJ hYjI
ĠGdJL eY
Ġd hba
hOj h
S bW
eMJ hi
JfG e
ĠbOeJ g
Ġhdcf ge
ĠGQ ej
ĠebG YO
ĠGdWa hdI
hbY GJ
ĠhG YOGO
ĠJf TQ
J GH
ĠJa MU
Ġd bj
Gd QH
gh QG
ĠSLd J
eJ GY
Ġdd fR
ĠGda V
F eG
ĠeJ N
R jeI
GJ J
ĠhGd cQ
ĠfbO G
ĠYdjg eG
ĠeMXhX G
Yd J
ĠSfG H
ĠGdPc hQ
ĠhGM VQ
e Gfj
ĠN Oe
ĠT fh
ĠL SQ
ĠGSJ YO
ĠR hj
Ġhb aJ
ĠGaS O
ĠJM PjQ
Le hYGJ
ĠGdebG WY
ĠTj WGf
Ġh Gej
ĠUdGM jI
ĠHJ ZjQ
S YI
ĠfG bU
ĠGe Tj
ĠTF J
ĠQj S
ĠGSJ ZQb
Yde jf
ĠGYW jJg
HGd aYd
ĠJf TG
ĠGdR HGFf
ĠY bHGd
ĠGdeSJ eQI
ĠGhd j
ĠJa LjQ
ĠQGjc e
ĠKQ hI
Ġd GfG
ĠGL Og
ĠWhGd GdhbJ
hR G
ĠOQG LI
bd jI
ĠeQj MI
ĠGdV HGW
Gf f
Ġdd bJd
ĠZ jG
ĠJS Y
ĠeG Zj
Ġf bOe
ĠSeGY g
Yj jfGJ
ĠU QN
ĠSd aG
ĠH hT
ĠWd YJ
Yf hGf
ĠWhj dg
ĠGdJ QJjH
ĠN QH
ĠJY UH
SJ Gfj
QG aG
gG i
G hH
ĠGN jQ
ĠUQj MG
ĠGSJ Zd
Gfg V
hR QGA
Gc h
ĠNd ajI
ĠGdh QGA
d MSf
ĠddGf TWI
ĠhQ Ze
ĠO LGL
ĠYGde jG
ĠjJ YG
ĠTNU jf
ĠNW QI
ĠGdbU jQ
Ġe hO
ĠeJ L
ĠjaYd gG
Pj Y
ĠSj WQI
ĠGdJ hLg
ĠGdM GFRI
ĠHGdG MJ
ĠGd gd
ĠdJ UHM
ĠGdJOQjH jI
ĠGdY QhS
ĠGh U
Ġdde WGdHI
ĠGdJ hf
ĠGdQ FGSI
ĠdGMV GQ
ĠGde Xd
ĠGdd Yfg
ĠGdLR Q
Gda Ud
ĠddGJ UGd
TG hQGJ
GJ Udj
cJ h
ĠaQU Jc
ĠfG j
ĠYfO i
O QG
ĠGjecf fj
GJ MOK
ĠYb dg
Ġc hQJ
GNQL j
ĠHGT jGA
Ġc Gdj
ĠWHj HG
ĠbGH dJg
ĠhL fhH
ĠGdeY PQI
Ġjf Whj
ĠjMH fj
ĠJL Ydc
ĠGdL GFRI
ĠGj a
ĠGfJgG cG
Ġd bG
ĠHGd eJ
Ġde TGgOI
ĠJJ ab
Ġf bOQ
cG jI
D KQ
e SG
ĠGj Gf
QL hG
hGJ L
Gf TGA
jJ S
ĠhVY fG
ĠGdY Qb
Gf hj
ĠK bH
dj jf
ĠT ja
hY c
ĠdGf TWI
ĠGdeJ eKd
ĠfYe I
Ge HjG
ĠGHQ Ge
ĠLO g
cJ TGa
ĠHGdJRGe GJgG
ĠJU H
ĠL gR
ĠGdef TG
ĠGdb QH
ĠJb GJd
ĠGdeJ HYI
a YJ
ĠJbG Se
Ġf bGT
Ġdj UHM
Qe hf
fG b
ĠLSe c
H Gfg
ĠGYWjJ fj
ĠHQ hM
Ġjf bU
ĠHf hO
Gb GeI
ĠeeKd jf
cd GQc
F hf
ĠeN GdaI
e HG
ĠhGdK bGaI
ĠeDbJ G
bGH dc
ĠGdb fGg
ĠGdL HgI
ĠGdTQj QI
ĠJf bP
gf Qj
ĠH HjGfGJ
ĠGde YJeO
QJ fj
ĠLf fJ
hd PG
ĠfaS jI
ĠGde WGYe
e hR
ĠSMH J
OJ fG
ĠJH fj
hG cO
ĠGdQ Uja
ĠVj ha
Ġf MVQ
Oj jf
ĠGdXg jQI
ĠQGjJ Td
ĠHebO GQ
Ġa hQO
ĠGjbG ag
ĠhJf Sjb
ĠJZjjQ GJ
ĠGNHQ fi
ĠGdGf LGHjI
ĠGJj fG
ĠddG M
ĠeSGA G
ĠJe gd
ĠSeY fG
ĠMhd j
ĠGdd i
ĠGfg jJ
ĠGde ed
e HOY
ĠMX j
ĠL GSJ
ĠGdeTGQ chf
SH J
ĠGdW d
Ġfa ge
NJ aj
ĠV h
ejd jI
ĠGdJaG ge
S Ld
ĠSGJ hdi
ĠfdJ bj
hGc g
ĠSN jaG
ĠaYd Jj
ĠJ gjFI
ĠGde Yj
Ġj Ua
ĠGdJMaX GJ
ĠJf aS
ĠGdJ h
ĠjY cS
ĠGdeLfhf I
ĠGdHW GdI
ĠdJ WhjQ
ĠGdUM aj
Y Qc
ĠGdL QG
hR h
ĠGdHQ L
ĠWa hd
Me OG
GV WQ
U dG
ĠGdNHQ GJ
GHJYO hG
ZGa hQI
ĠGdM TjT
ĠS GFQ
ĠfT GJ
Ġh bOe
M Gej
ĠTY hH
ĠL fj
ĠGdT HM
ĠHGd GY
QG Oj
ĠGdeT cdg
ĠGQV jI
ĠjJ bOe
ĠQ GfO
ĠNGU g
Ġg GFd
ĠGdfS NI
ĠSj bhd
ĠHT Gfj
ĠaYd j
ĠJQc gG
ĠU GF
ĠaXj YI
ĠS HGQ
ĠGdeaJ hMI
jY GH
ĠM GaI
ĠHjd GQhS
ĠOjf jS
Ġaj fG
ĠU hG
ĠHOG Ndc
fG UQ
ĠdGf aS
ĠNd U
ĠGUO QJ
ĠhGd HMK
ĠjTYQ hf
ĠYHO GdYRjR
ĠGdf TQ
ĠGdGW YeI
ĠGdUY hHGJ
Ġj bGJd
ĠGdeO QL
Ġh NdGd
ĠGdeO jQI
ĠehQ ZGf
ĠT Mf
ĠGdKGHJ I
Ġg JdQ
ĠGL JeY
ĠJQ hM
ĠhGdM Uhd
ĠaJ MI
ĠHJ MOjO
ĠGdPc GA
Ġe hdGj
ĠeM GQH
ĠGdYQHj g
ĠeO GQS
MQ U
Ġcd eg
ĠGdbQ T
ĠGdPcQ i
J aVdj
ĠjN Jda
dG ajI
ĠUGO bI
cf R
ĠeJ hQ
ĠdY dGL
Gg H
G Zd
ĠeSQM jI
ĠejR Gf
ĠGN Gc
ĠOY hJ
ĠhY GF
ĠHf TQ
ĠGYd GfGJ
ĠQO hO
ĠjQjO c
ĠGS hj
Ġh gfG
ĠK bjd
ĠeM Q
ĠJMJ Qe
Ġe PG
GJ HY
Ġha Qjb
TQ O
ĠgPGGd TjA
ĠQ Rb
J GHY
ĠH Rj
ĠZ GQj
ĠGdGUdGM GJ
j N
ĠebH hdI
ĠGdbj J
Ġd HS
Ġj hLg
ĠU Z
ĠGdH GQOI
ĠebO eG
Gd SGYI
ĠLO jI
ĠdH VYI
ĠPc GA
ĠGO hjI
ĠGM dG
djT jGJ
bQ QGJ
jQjO hf
L YI
Ġdd HQ
ĠMb g
ĠYjfj g
ĠHOG Ndg
ĠeMG V
QG U
ĠdG Ydi
GN SJGf
Pg HG
ĠTQjc j
Ġe RY
ĠGdb Hhd
Ġdhc GS
ĠHGdG SHGfjI
ĠeQGL Yj
QLGA G
ĠeJhJ QI
P HM
Ġfj fG
ĠhM aX
ĠGdL YI
ĠSJ NQL
ĠjM jf
ĠJW GHb
ĠGdJM jI
ĠWj GQ
ĠGdeTJ QjGJ
ĠG cde
ĠMche GJ
Ġc ejGJ
hGc H
g Gd
Ġjge c
Ġa djf
ĠGSJ cTGa
Gj H
Gb g
ĠddL Mje
ĠeL Gfjf
ĠSje hf
dG RdJ
ĠeU Qj
O ab
ĠGUO Q
ĠeJ GM
ĠGL GH
jGQ Ld
ĠH VQH
ĠebGWY c
ĠSd WGf
ĠJcQ GQ
ĠGdGT QGa
ĠT Qja
ĠJ RYL
ĠGdefJ N
haj JT
ĠJJMOK j
ĠeaG LF
ĠSf YhO
ĠJYQa gG
ĠJ cQQ
Ġde bGHdI
Ġe he
ĠV Oj
Ġe QGa
GJ JPcQ
ĠddMO hO
hR f
ĠGSJO YGA
K ja
h PI
Ġha GJg
ĠGdH fRjf
ĠGdhXja jI
ĠjdG Mb
ĠGSJWY fG
ĠGdU Ojb
Ġh Hd
ĠQG Yj
U Jj
ĠGdbU g
ĠGde bGH
ĠGdeSc jfI
Ġd he
ĠYdG bJc
ĠeR jaI
d jG
GSe MhG
ĠJT NjU
Ye dj
ĠdY bO
ĠGdbU hi
ĠGdGfG K
ĠbJd fG
GYW fi
ĠGYd GejI
ĠVQH GJ
ĠGdU YhO
ĠGdYd GeGJ
ĠGj aG
ĠhL hOj
ĠGecGf jGJ
GQS dJ
ĠHJf Xje
Gde Mbb
Ġhe O
Ġj bGHd
ĠYGJ b
M bj
Mf i
e U
ĠUO aI
ĠeNd hb
aj Gf
ĠHGdb VGA
ĠGdQ gGFf
Ġh SdGe
ĠJMH c
hR I
b QGJ
W GO
ĠHOGNd gG
ĠGS j
ĠGdGY hGe
Ġf eQ
ĠGdLZ QGaj
ĠGb fGY
ĠGb fG
ĠMb b
ĠdQ UO
Ġg hfZ
ĠhGd Mb
Jhba hG
ĠeG ajg
Ġhd de
ĠGdM L
ĠGQ T
ĠGdM eG
ĠbGfhf jG
ĠHjJ g
ĠGdT L
ĠgGQ jS
ĠGdM SHGf
ĠeS F
GJ hO
ĠbU Jc
ĠGdGH MGK
ĠHOj dI
ĠGdOY hi
ĠSeYJ gG
Ġc aG
Ġc hjS
ĠJbO eg
ĠG QbU
SG NHQ
Ġj hfZ
ĠGf ac
GU dI
ĠJeG RM
ĠGdb HWGf
ĠaJ GJj
ĠGS c
bd gG
ĠfT hH
ĠJOQjL jG
ĠefG gVI
ĠSJ NHQ
ĠhUd GJ
Ġj QGg
ĠjY QH
ĠGS MH
ĠhGd bWGY
GY jO
ĠQL dc
hj HGJ
ĠhGd LgGJ
ĠH QHc
ĠGde eKdI
ĠJ efY
ĠHG MJ
f hG
ĠeSJ Mj
ĠGdJGQjN jI
ĠJc HQ
Ge M
ĠGdGe GejI
ĠGdfX jaI
MG SH
ĠGfc j
GgJe Ge
ĠhJ WHjb
ĠjLYd gG
ĠGdS dje
Ga M
ĠMb bJ
ĠGdQj M
ĠPc jG
ĠGYW Gc
ĠU GdI
ĠGdW GdH
ĠHMb fG
Ġe cf
aG Oj
Ġjc HQ
ĠGdeg QL
ĠGdYG ajg
ĠGdW jGQ
ĠGe GQS
ĠGdbGH dI
ĠeJ RGjO
ĠOj cS
ĠSGe hJ
ĠJ dHS
Ġj Tc
XffJ c
ĠeU WdM
ĠHG bUi
e Qj
ĠGdeN WW
ĠJ eJY
ĠGdeMj WGJ
ĠHG bd
ĠGdX ghQ
ĠGdJYdje GJ
ĠGdQD SGA
ĠUGd MI
TQ jI
hb hO
g hg
YGO g
ĠGLd fG
Jc ai
ĠLYd gG
GQS hf
Ġj Nd
HQ hc
ĠdO aY
ĠjSYO ce
Ġc hQj
ĠGdJf bd
ĠHGdGT JQGc
ĠGf PGc
GQ h
ĠeG T
ĠGdHO fjI
ĠhUd hG
ĠHQ GfO
ĠGda QjO
ĠGdeQc H
ĠGfJ h
ĠGdGTJQGc GJ
ĠO jfj
hJ QO
ĠjJ GHY
ĠGdYH GQI
ĠT QHJ
aG S
ĠYfO ce
ĠcGf j
L QJ
GNQL hG
ĠfjQ hHj
ĠGdbQ U
ĠfU HM
ĠehY OG
Ġj HOhf
ĠGdehSj bjI
ĠhGd eQ
J bhe
bG j
SQ jI
ĠT LGQ
hJ dc
ĠefRd gG
ĠGdGM RGH
ĠYbd jG
W GHb
ĠjJ SHH
Sj eG
jGR GJ
HhS Yj
ĠGh ScGQ
Ġhb dJ
J hLO
ĠHM jQI
Ġdjd i
ĠS Gdj
ĠjY bd
ĠGdYd GeI
ĠJHMK jf
ĠhGde YOGJ
fG Gd
H gPG
MGhd j
ĠGdLR GFQj
GdJ bW
Ġe XgQ
O OI
ĠY GQjI
ĠGdSj fGJhQ
ĠWQjb ge
ĠGdbd hH
ĠGJ WdY
ĠGde GVi
ĠQGF Yjf
ĠGdSGM QI
ĠGJ hG
ĠHjf ceG
F Q
Ġdde hGO
ĠQS GdJc
ĠbGJ dI
ĠeQH Y
ĠGdecJ SH
ĠGdY bHGJ
ĠGde RY
ĠYf b
ĠJ GeG
ĠQ hGjI
ĠGYJeO JgG
Gf R
bGF g
ĠGcJ QK
ĠGdGWd Sj
gh OG
ĠGdfhG aP
ĠGdS hGA
ĠeL eY
ĠJO ghQ
ĠGdSf ZGd
ĠGdc GH
ĠO Qh
ĠTb Jj
QL j
ĠGdfj d
ĠeG L
hd jJ
ĠHY bO
Ġehg HI
ĠHe TGQcI
ĠOhf GdO
Gf ce
ĠHGd NQhL
ĠJedc jf
GK fGA
Ġb QHg
ĠGdGf bGP
S eI
ĠGa Q
R jGA
Z g
ĠL HGd
Gc gI
V HGW
ĠGde dJ
ĠS dI
aj Ud
Qa fj
bJ dJ
ĠGdeD Sa
ĠGdefX heI
ĠhJcQ GQG
HJ YO
ĠSG MGhd
ĠYTQ GJ
gd g
ĠHGdJ U
Ġfj HGd
ĠJY GOd
ĠGdT hGZd
ĠR QY
Gd aJi
ĠS da
ha jf
hQ hHG
SG MGhd
ĠGdeGF OI
Qc H
ĠGde Yd
ĠdJ dHjI
ĠHGdM OjK
ĠYHO Gd
ĠLhR ja
ĠGdRef jI
ĠeV W
ĠJaG ge
ĠGS bGW
ĠGdbe jU
ĠeM a
ĠYGF dGJ
hfG QO
ĠGda GT
ĠLO GQ
ĠeO f
GdGf SI
ĠGdM bGFH
ĠHG hfO
ĠRef jI
GU Z
ĠGT GQc
ĠJeGf Yjf
ĠS QGMg
ĠhY TQhf
jR I
aJ GA
ĠHJ Q
ĠHQ h
a jfI
ĠQ Oj
ĠJJ dbi
ĠGN WW
ĠSG MJGL
eL eI
ĠGdeSJ gdc
ĠGdS fG
ĠjO jf
aYd i
Rj jf
ĠGdYO hi
ĠGdeS M
HY GJ
ĠhGd hW
Ġb Vi
Qb hG
ĠaU dG
ĠGdJT QjY
ĠGH SW
f hQ
ĠGU GHGJ
Ġc OJ
ĠJ jOj
ĠYed ge
Gdf SGA
ĠLO jG
ĠJLGhR J
ĠJS Ld
ĠGdO hMI
Ġh NGQL
ĠHYe dj
ĠGdeU GQa
ĠGYJ P
ĠJ db
c KjQG
ĠJM Qjc
Ġde LehYI
Ġhc aGdI
HGSJ KfGA
ĠjS cf
ĠGdSjG MI
Qjc h
e hO
ĠGdeU fY
ĠHO dI
ĠhHYO jf
ĠY HGO
aGR GJ
ĠGdX de
ĠGdgfO SjI
ĠGb f
Gdb QGQ
ĠjT gO
be Q
ĠGfJ M
ĠhJ HGOd
Ġe MS
Ġj Hcj
ĠGdVY jaI
ĠjY Ged
ĠJf gj
ĠeTGY Qc
ĠGdK fGFj
ĠJY hj
Gd QLGA
ĠgPg gj
ĠGSJ FfGa
ĠGdH VGYI
ĠhGdJ f
ĠGdaQO jI
ĠH ZjQ
ĠGdH J
ĠT LG
ĠeGTGA Gddg
ĠJJ YGhf
ĠGdGNJUGU GJ
ĠHSH Hj
GJXf jf
Ġd P
ĠS dHjI
ĠJO d
ĠY hGFd
ĠJL Oj
ĠYH hQ
ĠcKjQ g
ĠGdGQ GOI
hQG S
ĠbdH gG
ĠHM Le
ĠecQ hg
ĠQFjS c
SJ fG
ĠWdH fG
QG Sj
ĠGdeMe hd
ĠS W
a jfj
ĠH bQ
LO g
ĠhGfJ j
ĠGdGd hGf
Ġef Sb
ĠJa hb
ĠJ HO
Ġcd JG
ĠYQa Jg
ĠGdT gGOI
ĠSf ZGahQI
ĠeJT GHg
HL GfH
ĠehJ i
Ġd MXg
ĠY hVG
ĠjM ej
ĠGdT cG
dG Fd
ĠGJ eGe
ĠLf HG
ĠhGd QLd
H bOQ
Ġh NeS
ĠGdeJcde jf
ĠW hcjh
ĠGdJQc jI
ĠJ cJTa
ĠGdc S
J ej
ĠJM ejd
hGJ H
ĠJ geI
Ġf TG
ĠGdJgOjO GJ
ĠGdGMJ eGdGJ
Ġa dOj
ĠHG a
OG Fj
ĠGdU hGQjN
ĠGjO jce
M WI
Ġj TGQ
ĠGdH dGA
ĠGdZ j
ĠGdUGO QGJ
MO g
ĠGdeJ eKdI
hd eG
ĠJ Ga
Ġj SjWQ
Ġdde cJH
ĠGdGL QI
ĠGdJN aja
e SJQ
ĠGff chf
Ġh fS
ĠhGde SGFd
ĠfG LM
ĠGdjhf Sch
ĠGdGYJ UGe
ĠGdJ g
ĠGdM dhd
GM PQ
Ġh Gfj
ĠeJ Lg
ĠJYQa J
ĠSjO GJj
ĠNH R
Ġe OY
jfj jf
ĠGa Y
ĠW GH
ĠddJ acjQ
Ġe GQG
ĠHGd eGA
ĠG QjJ
ĠhGde TGQcI
Ġg GOj
ĠSJ Y
ĠdJ hj
ĠegfO Sjf
GQ fG
Ġde D
Ye J
ĠTQj MI
j HJ
ĠjJ Mce
ĠbHj dI
ĠGMJ aGd
ĠGdQM eI
ĠGQ f
ĠhGd gjFGJ
ĠGdeK GdjI
ĠO hL
Ġh hd
ĠM LI
ĠGdedG MXI
Je Sc
ĠSd Hj
ĠGdM ceI
Ġcj Jj
Ġb PQI
Ġc QLd
HQ c
ac Qj
ĠQ HG
ĠhGd Yde
ĠT O
ĠdH f
ĠGY Wjg
ĠGdGf UGa
ĠGdYU GHI
Lje S
ĠGdU aQ
ĠdhMO gG
a LjQ
ĠGO Yh
cdG geG
Ġefa UdI
ĠGdf ab
S GQg
Ġe MjW
cf I
ĠjLYd fG
ĠTGA Gddg
hfj h
ĠGMJ jGW
ĠhG YeGd
ĠjNJ aj
ĠGY UGH
ĠGfJXQ hG
ĠGdb HYI
ĠGdGSH Gfj
Y GFdI
ĠQL dj
Ġhd eG
ĠeJ hGL
ĠGc hGOhQ
ĠMS fI
ĠGdeS Fhd
ĠJOY fj
ĠMbj HJj
ĠGHf gG
Ġj bQ
ĠGdGZ JUGH
Ġg PGf
Ġa WjQI
ĠSJPgH jf
ĠHe bGHdJc
ĠjS gd
ĠLS Og
ĠUO Qj
ĠdJ aYd
ĠGdN T
ĠGde Hjf
ĠGdeSG geGJ
ĠchSJ GQjcG
ĠGdT jGWjf
ĠjY jf
f Yde
Ġj Ve
ĠGde ef
Ġe GJj
Ġg heQ
dcf i
ĠefT hQGJ
ĠHO J
ĠY X
ĠMGhd hG
ĠGSJK fGFjI
F jd
ĠaGS h
ĠeG YOG
ĠeJ NUU
ĠJYGd hG
ĠUf YG
Ġa ej
ĠJU jQ
ĠJ Ggjd
O eQ
ĠGdOj ebQGWj
ĠfaYd gG
ĠMde J
GF ge
ĠGdedG c
eG OG
ĠGdf OGA
ĠXH X
P eQ
ĠSG bJdc
ĠdJT LjY
ĠQ Mj
ĠcK H
ĠGL fHj
ĠGdeL Je
ĠGcJ ajJ
ĠdG Tj
ĠGO NdJ
ĠbJd ge
ĠMeG jJc
ĠHef Y
ĠGdGU ZQ
ĠfHj P
ĠjWdb hf
ĠSjO GJ
ĠSdG MG
Gd hVY
ĠeN Rf
ĠGdec GdeGJ
ĠGdeM c
a fj
MJ ad
ĠMGS eI
ĠGe QGg
ĠGNJ aGA
ĠdK GfjI
ĠGdebU hO
ĠGSJ dGe
ĠH eQV
ĠQ NjU
ĠSJ YQa
Rj L
ĠQGj dj
ĠMj hjI
ĠdG Hf
ĠJhGLg gG
Ġce HhOjG
ĠGdZQ HGA
ĠS HQ
ĠefJ Xe
ĠHOj dG
ĠGdc GFfGJ
ĠGJQc g
ĠhGdJb fjI
ĠGdYH hQ
Ġj gGLe
ĠU hajG
ĠddW ad
Ydj gG
ĠGdGMJ jGWj
ĠMj dI
hG LH
Hd OI
Ġdd WahdI
ĠGN SQ
ĠGdP QI
ĠGdGfS MGH
ĠGdGfLGR GJ
ĠefG aS
GO hQ
gQ Gf
Ġg Gc
ĠH fS
ĠeD c
ĠGdfR hd
GdGJ MGO
ĠhL jg
ĠgGQ hdO
ĠjSGYO fG
ĠGdLd GdI
GYJ fj
ĠJJ haQ
ĠeUGU j
ĠHGd PGJ
ĠZ GdH
ĠacQ Jj
Ġd NOeGJ
ĠhGdJ OGHjQ
d ge
Ġh HO
ĠdN WQ
ĠHGd Gde
hG gG
ĠO ejI
ĠGdeabhO jf
ĠHGde bGQfI
ĠeG g
ĠGdJj GQ
Y hG
M QGe
ĠYGLd I
cGf jI
Ġf NHQ
ĠY Gf
ĠSJ HOG
Ġhe SGYOI
ĠTjN fG
N QG
ĠNd jI
Jj ehQ
R fj
Gd SG
ĠeeJdc GJ
ĠhGdJ bOjQ
ĠTQW jG
ĠGdGf XGQ
Ġj gOa
ĠGde GO
SfhGJ eMJhi
GJ VM
ĠJ hQj
f XQI
fO e
ĠSjO aY
V jf
HQ jI
dJ bj
ĠGdg jc
ĠGdK Oj
ĠJL GQj
Ġde hGUdI
ĠGdJ hJ
Ġhg cPG
Ġd RjGQI
ĠY Wd
ĠeG F
ĠGdY X
ĠGdj SJ
ĠeJ hJQ
QG hj
Gf UM
ĠM jd
Q hYI
hO c
ĠJGS jS
ĠOG Y
ĠGdGaJ JGM
ĠbO ec
Ġdd TNU
ĠJQc jH
ĠMe jO
ĠGdcJQ hfj
g Qj
ĠGdJTZjd jI
ĠH bi
ĠGde dj
ĠGO Ye
ĠhGd V
ĠhR f
ĠGdL jd
hGTGQ J
ĠM LQI
ĠN aja
Ġh OY
Ġe NUU
Ġj adM
ĠJage fj
ĠN GJ
ĠSeYJ c
ĠJgO O
SG NQL
ĠO YJ
Ġhc PG
ĠX HW
ĠH jQI
ĠGMe bG
ĠNUj UG
R GJ
ĠGdGSj hjI
ĠJZ VH
ĠGJNP Jg
ĠH GHj
ĠGdf bU
ĠSe cI
ĠecJ HI
LejY ge
ĠddGMJ aGd
ĠH bGA
ĠHGde OQSI
Jc j
Ġhd dG
GXf c
ĠM djH
ĠT Gc
Ġg OGjG
ĠcGQ hdjf
GSe c
ĠL HGQ
ĠGL JeG
gh Qj
ĠGdeN W
Gde bWY
ĠGdLGfH jI
Qjc S
Ġdj fG
ĠJU MjM
ĠjYW jfj
ĠHG SQg
ĠGdeY GOf
hG gQ
Ġdf HOG
ĠGNQL j
ĠHGd GQJ
LR GJ
ĠGdYQGbj jf
ĠJcfhdhL jGJ
ĠH GJj
ĠjZ fj
ĠddJ NdU
ĠWdH gG
Ġe X
ĠdG i
ĠGff PgH
ĠhGSJ eQ
eO jfI
HGH hj
Ġa S
Ġhj MaX
ĠGdZ dGa
Ġj QG
Ġchf fG
ĠU c
Z QjH
ĠSJ L
ĠRGd hG
hQ Gf
ĠWd Gd
Ġde WGdH
ĠLf QGd
GH JYOj
ĠddY KhQ
ĠGde UGdMI
ĠQ VjY
ĠfT QJ
ĠeY fj
ĠGdGSd hH
ha GI
ĠHeaQO g
hdG S
ĠGdeMj WI
ĠJ ejR
ĠM TO
ĠYRjR i
W QGH
ĠjS hY
ĠGdQ gGf
ĠHjJ RG
ĠGdc GP
ĠQG jg
ĠbQ GfO
R Gf
ĠGdfG bd
Z T
Ġh cQg
YJ ce
ĠJW jQ
Ġj Gddg
ĠGdL P
ĠU chc
ĠGdGU GHGJ
ĠeJMe SI
GJ I
ĠTL GY
ĠHGfJ X
Sj L
ĠQ VG
ĠGdYV h
Ġh gi
ĠL KK
ĠGJ UQa
ĠGdhMjO g
ĠYej bG
ĠjN Oe
ĠGSJe QJ
ĠGSJ bdGd
MGO K
ĠJ ced
ĠGdNj hd
ĠQ Me
YG gOGJ
Ġe WH
Qh VG
ĠhJT LY
ĠGdSM QjI
O jG
Ġj Jj
GS jI
ĠeUGO aI
ĠbO he
GQG ZhG
ĠLeGY GJ
ĠY PGH
Ġd Gej
ĠGdb Qi
ĠjSJWjY hG
ĠhLhO g
Ġdjf OG
ĠHGSJ YQGV
Ġe jG
ĠGNP fG
ĠaY dc
ĠGdeM GU
ĠGdGNjQ g
H Gfj
ĠGJYQa jf
ĠW QG
ĠLjO jf
fj fG
ĠJU jH
ĠPG cQI
ĠhGde HGOF
ĠGMH HJg
fJ MOK
hGQ b
ĠdG c
GJ QZH
ĠH fjI
ĠGJ Qi
R hjO
ĠYf UQG
ĠLghO ce
ĠHGd LghO
hdcf i
ĠGdJ QHjI
ĠGZ HjGA
ĠGd HGMK
ĠHGdZ GHGJ
Oj R
ĠeL Je
ĠdG jecfc
ĠGf LH
ĠeeJGR g
ĠhH Tcd
ĠYOO fG
bO jf
ĠGdQH Y
ĠdG GYQa
ĠddJ Mbb
ĠGdGR jGA
ĠGded Yhf
ĠMeG S
ĠGde Vehf
ĠGj PGA
Jd bjJ
ĠGdT GgO
ĠGdNGQL I
Ġf bdJ
ĠJa cQj
QjO L
TJ Hg
ĠGdNGW FI
ĠehX aG
ĠfG Qj
ĠGdL aGa
Ġec K
ĠGcJ Q
ĠYGd bI
ĠdJ jSjQ
ĠM Ge
Ġjf bP
ĠbdhH fG
ĠM Qe
ĠJfJ g
J Yed
ĠTQ Yj
Ġd KdGKI
Ġf hba
ĠGN Oe
ef XeI
Ġe YdheI
hd hf
ĠGdj hZhS
ĠL QHJ
ĠL GeGjcG
ĠHj hJ
ĠGj dj
eJ ge
ĠGdGJ MGOj
ĠGdJS hjI
ĠeTcd Jj
ĠGdfR ja
ĠH UOb
ĠL i
hGd JQ
ĠHe D
ĠJbj jO
ĠGdYej b
ĠeQJ H
ĠjQ hb
Ġd djdI
ĠGde SH
ĠGdN jGd
ĠUY hHGJ
ĠYGe dG
ĠhGdGe e
ĠQj GVjI
ĠhGdQ YGjI
c Gd
ĠhGd Pjf
ĠSj HOG
V OI
ĠMGd gG
ĠZj Qj
L GQj
ĠW dj
Ġea hV
ĠcG Sd
ĠO N
ĠGdLGfH jf
ĠGdGY UGH
ĠGdGeHQGW hQjI
j D
eh Oj
ĠGdeY GdLI
Ġef O
ĠK eGf
ĠGY LHc
ĠGdeN Rf
ĠGdeOQ SjI
ĠcGH hS
ĠdO hQ
ĠhGa QGO
P h
ĠhGb GeI
ĠGdY LdI
ĠHj SGh
Ġe hGdjO
Ġf bJd
ĠUOjb fG
ĠGdJT LjY
ĠGW dGY
Ġf fGbT
ĠJUOb fj
Ġc g
Ġh HdZ
ĠGdG aQbI
hGd g
ĠJHQ YGJ
ĠT gGO
ĠGdZ WGA
ĠGXf c
ĠGdeR OhL
ĠGde hg
dG TjA
Ġh Kjb
Ġeb QHI
ĠGdh ajGJ
ĠJ X
b b
J bOe
ĠeG cfJ
ĠYGF dJfG
ĠS Gde
hZ Gf
ĠGdZ HGA
ĠP gGH
dc S
ĠYf ce
Ġa fS
ĠhGde g
ĠM GV
ĠGdNGU jf
K jG
ĠGdS Ge
Gfg j
Ġg Oj
Ġh fO
ĠdS hA
ĠHM eG
ĠGdGN dGb
ĠeW GdHGJ
SGYO fG
ĠGdb WI
d Gdg
ĠGU YO
ĠGdUZjQ g
ĠGdeQL M
ĠhGdT HGH
GF jf
f U
ĠGdJTQj Yj
Ġha hO
Ġa fj
ĠGdSf g
ĠQ gfG
ĠGdeSQM jI
ĠGNJ Wa
GdL h
ĠH HQfGeL
HY hK
Ġdd RhGL
Ġd YOO
Ġhdcf i
ĠGcQg c
ĠLhdj Gf
ĠdGe QjcG
ĠeNJd ajf
ĠJY Qj
ĠJGL jd
GYJ Qa
ĠhGd eGOI
HG YI
ĠeS jQ
ĠGdO hQjI
ĠHa MU
ĠGdTa hjI
ĠM HG
WGQ b
ĠeeJ fG
ĠO ej
ĠGdGH bGA
JMOK J
ĠGUd M
Ġf LdS
ĠGN VQ
GP cQ
ĠJe Vj
ĠhT e
ĠGdSL GFQ
ĠddJ Ydje
ĠeN Gha
QGF gG
ĠHGd UO
ĠG haQ
ĠacQ Jc
ĠhMeG jJgG
ĠH HjY
ĠGSW hQj
Ġg GQH
S YOJ
ĠGdh OGY
ĠhGdT YhH
ĠT GTI
ĠGY eGb
Ġe chf
ĠGMG WI
a F
Ġe NUUI
W Qj
U GA
ĠY c
Ġef XQ
ĠGe HQGW
Ġj Ydf
ĠeD TQ
ĠScGf gG
ĠHGdM Uhd
ĠSf NQL
ĠGYJ bd
ĠGdUd H
T YGQ
ĠGdGL hQ
ĠJU dj
ĠGJ hdi
ĠGVW QGH
ĠdZ QaI
Gd HQ
jecf ce
ĠGdhWfj jf
SG g
ĠJ GeI
ĠehG a
Ġa Sjchf
ĠGdehG Wf
ĠGd Pg
ĠGHj g
ĠHGecGf gG
D hG
ĠGa Qjbj
ĠdG aYd
ĠYO h
GH M
GL QJ
Gg jI
T GLQ
ĠGdJS YjfGJ
ĠeY R
ĠeL Gdj
ĠHGQ fj
ĠhH eG
NP hG
ĠeL JeYGJ
ĠM bhd
ĠGdG HGMjI
ĠQj GVj
Mj GJc
ĠHGde hGabI
Hdj h
Ġja hb
ĠGdW QO
Ġddef XeGJ
Z dj
j dg
ĠdG bGeI
M GQH
ĠHYV ceG
ĠGdLR GA
ĠhXja Jc
L gGR
ĠJf eh
ĠGdS cQj
ĠeR ja
H GQI
ĠbVj H
ĠGQ ejfjG
ĠGX gGQ
GfJg J
ĠGdJ hXja
GdG Meb
cd jQ
ĠhGdG MJ
ĠGdchfZ QS
Ġdef Rd
ĠGdcGe jQGJ
hf JjLI
ĠJb Sje
ĠHGdJ fSjb
Ud GJ
ĠGS O
c OJ
ĠGdY TH
ĠJS QH
Ġhaj GJ
ĠHGd QGMI
Ġh NW
ĠQGjJ e
Z hf
R je
Ġhe HGOF
Ġej Qj
ĠGda hd
ĠGdGYJ bGO
ĠJQO O
eF RGR
N WG
Gd bGFO
fS Q
ĠNGW FG
Ġdh Qj
ĠR jc
ĠSj YQa
Tj WGf
SG MJGL
ĠGde hLg
HGc SJGf
ĠhGd QLGd
dc fJ
ĠGj Sd
e hbY
Ġhdj Ge
ĠG bje
ĠGN WGQ
Ġg HW
c jJ
ĠZ GfG
ĠGdGS GHjY
ĠfY KQ
Ġfa YG
ĠGdUj ZI
ĠGdGad GJ
L jS
ĠJ Hc
ĠT eS
ĠGdH S
ĠGdb GOI
a fMf
hj b
e MGhdI
Ġjf bd
Ġdd Oj
ĠGJ hSd
ĠGJU GdG
Sg jd
ĠQa YJ
GSJ GP
ĠGH Gdj
ĠjQ Rb
J MjI
eG j
ĠHT YhQ
ĠU QGY
ĠGdJ PGcQ
Ud i
dG OI
cj ja
ĠeG Kjh
Ġg OG
ĠGdf hGH
Gc OI
ĠhGd Hj
ĠWdH Jg
ĠGdG jS
Ġhh SGFd
ĠJd bJ
ĠGbhd gG
Ġd jehf
ĠdGK HGJ
Ġh Qe
ĠMG VQ
c ai
ĠW hQ
jJ GQ
ĠL QjOI
d Wja
Ġh Qj
ĠjG SjO
ĠGj ahf
Ġg QhH
JQj Gd
ĠhGL QGA
N QGJ
ĠGS cf
ĠJ ZGO
hL h
d Z
ĠGdWH bI
ĠO ec
ĠZ Rh
R dg
ĠbGF dI
Ġe Vehf
ĠGdT Ge
XGg QGJ
ĠJQc JgG
ĠGdeUQa jI
ĠHe RjO
ĠdL Gf
Ġdef WbI
ĠGdU c
hH e
ĠN QG
ehf O
ĠHd ZGQjG
ĠGdhGdO jf
Ġaj MGf
Ġdf RY
e LdS
ĠGdQj Gd
ĠJbOjQ GJ
ĠG hGYO
gL he
hG V
ĠfG bT
ĠGdGO GQGJ
b VjJ
GNJ HGQ
ĠPc Qj
h Ydjg
Ġa gPg
ĠGdH he
ĠSde jI
hX I
Ġeh Khb
ĠLhQO f
ĠGfJ MGQ
ĠGh VGY
hJ hf
ĠRQ bGA
Ġhb hO
Ġj QHW
ĠQj JT
ĠGdGSJY QGVj
ĠGNHGQ fG
ĠSGL O
Ġhgj FGJ
ĠfQjO g
ĠLPG HI
ĠQ GfOj
ĠGh jf
ĠeSGYO Jce
ĠhjJ e
Ġdj dg
ej RG
Rj fG
ĠWQj bG
S GfJ
Z QI
hG VGaI
GXf g
ĠMhd fG
ĠJ SjWQ
MV jQ
ĠGdJS hb
c QjS
aG LF
ĠeWGQ OI
ĠTe GdG
ĠGQJ aY
b dj
ĠGj djfG
ja c
ĠGdGW GQjI
ĠG ceGd
ĠhJ MJ
Ġdb VGA
dj ahf
ĠhGd jhf
ĠGeGe g
e cJ
ĠGdeSG MI
ĠJY LHc
ĠGj S
ĠHf W
e KjQ
ĠGd dGMbI
ĠJQjO gG
ĠH MHc
ĠM OjKI
ĠhGdeJ hSWI
MH hG
Sj bhe
ĠGdef UI
ĠhG UdJ
O fjI
ĠGdWH N
ĠGdfHGJ GJ
M eI
ĠGe Vj
ĠGg dj
ĠGdYGg QGJ
ĠUZjQ Jj
ĠGJ ge
GF M
ĠGdGL SGe
ĠfJ hbY
ĠaN hQG
hSJ f
ĠJaS O
Ġe Pf
ĠGShG b
ĠhJT Zjd
ĠGM Q
ĠGLJeG YG
ĠGU H
ĠeJ UdI
ĠGdGNJ HGA
ĠaYd Je
Ġa Jj
ĠJQG ce
ĠT GM
ĠGdcjejG hjI
ĠcQc hc
ĠjH b
ĠGMJeGd GJ
ĠhT Gfj
hJ SJ
bGe J
dGMX GJ
ĠHT QGA
ĠGdJ ZjQGJ
ĠGM UGF
Xg Qj
ĠJhG Rf
Ġdd SjGQGJ
Qc j
ĠSJ QI
ĠfQ MH
ĠGdQj a
ĠGdaOQ Gdj
ĠGdJ da
ĠSf Qi
Ġa hV
ĠGdJO QjLj
ĠeeJ f
ĠjPcQ fj
ĠSe YI
ĠfG H
ĠJL GQ
ĠGdea jO
ĠGdGejQ cj
ĠJ HOhG
ĠJS cf
Ġfa bO
ĠJYJ QV
ĠeKd ge
ĠJ QJcH
ĠN OG
hO fj
ĠhGf TWI
ĠjD Pj
Ġa Gdj
ĠHGdd ZGJ
ĠGde LO
ĠGfJ G
ĠjMUd hf
f YJbO
ĠLO c
R hfGJ
ĠLR GA
ĠHb VGjG
H GfjG
ĠHJ N
ĠM cje
ĠGdHQjW Gfj
Ġedc c
ĠGO GQjI
Ġa gfGc
GH OGY
ĠjfJ bd
ĠM PQI
Ġdjfc hdf
YO hf
ĠdJf Xje
ĠGdVQ hQI
ĠGdGHOG Y
ĠGY WG
ĠGSJ ceGd
ĠSHM Gfc
Ġe hLg
ĠaQjb c
ĠGL SGO
ĠGdjhZhS dGajI
ĠYd bJ
Ġf GfSj
Ġa bQ
Ġddj he
ĠehQj TjhS
ĠfX Qc
ĠfGO QI
ĠfSj Gf
ĠGh Ui
ĠHQ hcd
ĠGK GK
ĠHe cGaMI
ĠeWdH fG
V MJ
ĠGdS Gb
ĠGf SJ
K eG
hG VGaJ
a Ujd
Ġj gOO
ĠGdH hQ
ĠJ QGc
ĠGda Td
hG YJ
ĠJQ jfj
g Pj
hb Ge
SJ jc
K GQI
GQ HY
ĠGdJ YH
Ġdde OjfI
ĠHGdO hd
ĠGdGO H
jQc jI
Ġea UdI
hGf fG
ĠJh UdJ
ĠHYO I
LH jf
ĠGdGY OGA
ĠUO QJ
SO S
ĠGJ Udj
ĠGdaQG Z
ĠL QjL
ĠU haj
Ġdj Ge
ĠGdO cJhQI
ĠeeG Kd
ĠGdR eGdc
ĠjRYL c
ĠehQj S
ĠQFjS jG
ĠGdUM jaI
QjJ TGQO
ĠGQ hf
Ġbdb g
ĠGdS MH
Sa fj
Ġa QGT
ĠGdhL HGJ
be fG
M Qb
ĠGdcJQ hfjI
ĠhGdJ LGQI
ĠeQc H
ĠGLYd g
j YI
GJ ce
jd O
ĠGJ Se
Z hdjG
b djd
GL ed
QGL GJ
Ġjc Ta
ĠhJ bhe
ĠGfT F
ĠH Qjc
Ġh Qa
JT YQ
ĠY Ld
ĠGd Kd
GN Jj
Gej fGJ
hS jJ
ĠGL JeGYj
ĠGdS GFd
aG j
ĠGdh Kjb
Gd Ji
aJ fj
ĠjGNP hf
ĠdM jf
G ja
ĠeG gQ
ĠGdH SjWI
ĠYdjc eG
Ġa hcS
ĠGdeJ HGOdI
ĠMG ce
ĠJhaj J
ĠGdO hejf
ĠGS de
ĠJ jc
ĠdU fOhb
dG jecfc
ĠjS ge
Ġe RYLI
cQ jf
ĠJYQa jfg
ĠGdGfc djRjI
Ġf cJI
ĠGdaL hI
ĠGdV aI
ĠGdY fc
ĠJNHQ fi
ĠGj PG
Z QGJ
ĠGd QGa
Ġef Xe
ĠHO Nhd
hG Lj
dG W
Ġdde RjO
HQ fG
ĠGdef UH
GQO f
ĠjNHQ fG
ĠGdJ eGS
ĠHGdJ TGhQ
ĠJJ Lg
ĠGdGe WGQ
ĠKdGK g
ĠJSJ ajO
Ġa Sf
ĠGdJ dhK
ĠeQ MH
Ġbhd c
ĠhGd NQhL
ĠeS Fhd
Sj jf
L hfj
ĠGdNUhU jI
ĠGJaG bG
ĠjQ hf
ĠGde QGH
ĠeY Je
ĠY GH
ĠefR dG
ĠfJ bGHd
ĠGNP Jg
ĠW jQGf
Ġddg Lhe
HG Oj
ĠS Ljf
ĠU QGMg
ĠGdShO Gfj
ĠSf f
ĠVj bI
ĠHe TQhY
ĠGdJ dGYH
ĠhbJ g
ĠTGH G
ĠGdU OeI
ĠHJe hjd
ĠgPGGd b
ĠGdGY Xe
ĠGage c
ĠGdGHJOG Fj
ĠGdTcG hi
Tj M
Ġg GfJ
ĠdGf fi
ĠSGN fI
Ġd Sf
ĠGO Qi
ĠGe hQG
Ġc TaJ
ĠNda fG
ĠfSJ WY
ĠGdJbOjQ GJ
cQ hf
ĠHGd bJd
ĠGdeM VQ
Re dG
ĠhN WI
ĠbO QJgG
ĠhJ jSjQ
ĠGdeJ Hbj
GU Q
MO i
jS jI
ĠGdGQJ jGM
WQ fL
ĠGO QS
GHf Jj
ĠaQ OG
ĠHS YQ
UGU I
fG aSI
ĠcGP HI
Ġe ZGO
Ġj OG
GNHQ ge
he h
J Med
ĠGdeJVQ QI
ĠP gG
ĠGda SJGf
Md bI
Ġh hQ
ĠGdSGM Q
ĠHGd Tcd
ĠjM dh
hd gG
ĠGdGS QGY
Hj Jj
ĠGdjG S
ĠHGd GW
ĠGdJ Qajg
Ġec Ga
ĠbW YG
jL Qj
ĠGdc ga
Ġeb GQ
ĠdPj PI
ĠeY GfGI
ĠMGhd fG
ĠSj LO
ĠGN a
ĠGdh YO
ĠQS dc
G gG
Ġa dGM
Ġhe QcR
ĠL PH
ĠGdGSJ Q
ĠhGde SGhGI
ĠGHJ OGA
ĠMGOK G
ĠhGdL eghQjI
ĠhdG jJgG
V GHW
ĠGdcgQHG Fj
ĠJ jS
ĠGbJUGO GJgG
ĠfGF eG
ĠGdeYQ haI
ĠO Yg
Ġhe S
ĠGdR QGYj
ĠG QaV
Ġh QL
ĠhGdS GOI
Ġb P
Y QH
ĠGQc H
GdJ gGH
ĠePg dG
ĠGdeY jf
ĠHGd jhe
ĠGN d
ĠJSe Yjf
ĠTYH jI
ĠhG NQL
ĠGdb GJ
Ġc M
ĠU Q
ĠHOG Ndj
ĠSf MJGL
ĠGV QGQ
ĠHGd GdZGe
ĠGdHGH G
ĠGdWj HI
ĠGdNjQ jI
ĠjOaY hf
ĠL jShf
SH jQ
ĠGdV GQI
ĠaQj Oj
ĠJa hjV
ĠhGdHQ hJhchd
Ġc TNU
Ġdd Ye
ĠJ Ydf
ĠJbOjQ gG
ĠHGe hQ
ĠeN HG
ĠQG jf
ĠJg OG
ĠLO Jc
ĠS ghdI
dG jecffj
ĠGQ gG
ĠGdd hGA
ĠSj NQL
ĠGdQL GA
je hfO
GQj g
ĠGdS Hjd
ĠGh SeR
ĠGdGbJ QGH
ĠGdGT J
ĠGMdGe c
ĠfO aY
ĠM GW
TJ Gb
ĠGS Qb
V QHI
faS c
ĠMSG SI
hfS jJ
ĠLjS jcG
ĠGSJ fa
ĠNU e
hG N
ĠG KjQ
ĠGNP JgG
Ġhj bhe
ĠOQG jI
ĠGL gR
ĠGdbfG Y
ĠGS YGa
H R
ĠGfg jGQ
ĠbGF e
ĠJJ GM
fJ L
Je Gf
ĠGdTY Hj
Jg GfjfG
ĠGdJ NUUGJ
Ġd HOA
jG Og
Z Hj
ĠGMO geG
ĠHe hL
ĠaYd fGgG
ĠGdM QcGJ
hG Re
ĠeVGY aI
ĠGdH UQ
ĠeJ GHY
ĠS hf
MGO KI
R bc
ĠGdYU Hj
ĠGded MI
ĠeJ M
GfJ gG
ĠP f
dG jecf
ĠjY KQ
ĠGdg GJ
Ġhe UQ
Gb HI
ĠJSJ ZQb
ĠeY Q
ĠTYQ g
ĠGde Ge
ĠGfV eJ
ĠGdHj SHhd
ĠGhQ hZhGj
Rj dj
eGTGA Gddg
ĠJJ ONd
ĠGdeJ HGOd
dG MjGJ
ĠJbOje g
ĠUj ZI
ce Gf
YO dGJ
Ġef MJ
GN aV
ĠQG H
ĠGdc YcI
ĠGdYe hO
ĠeHQ Q
ĠhGde LdS
ĠJ QM
ĠbGS jG
ĠJJ SHH
Ġehf jcG
ĠGdc QGgjI
ĠGNQL hG
ĠGfT Gddg
SG SJ
ĠJYG Wj
G YJeO
ĠeV GO
ĠdG GQjO
ĠGdL Gj
ĠGdeSJ hWfGJ
ĠeTGY Qj
hL G
ĠJhb jJ
ĠH hfO
ĠHYe b
ĠdGYH jf
Ġje Vj
ĠGNHQ hfj
ĠYjfG c
ĠGe dG
hH QG
ĠGdSGa d
ĠGdg Q
Ġhef J
ĠGdW GF
ĠJbd jO
Ġb hJc
Tcd g
ĠJaV dj
ĠJV ZW
ĠaYd jc
ĠfG ej
Ġh bd
ĠGMG W
ĠGdef Sb
Ġdde QGbHI
dG jjf
Ġj MS
Ġb WI
T SJQ
ĠGdMche jjf
ĠjbOe gG
ĠJPcQ jf
ĠGdR jJ
ĠGdN dGa
Ġa aj
ĠHhS Yg
ĠhVYJ g
JU H
ZGd HG
ĠGdjhe j
ĠM Hg
ĠGdGK GQI
ĠHY K
ĠGR jGA
ĠHG jL
ĠHGdf SGA
ĠhGdY TQhf
ĠHG NQ
MJGL jf
ĠM HjJ
ĠGdY LR
ĠeSJ bQ
ĠGdKdGK jf
ĠGdGa QGL
ĠGdTe SjI
ĠGdefJ gjI
ĠGdcGe jQhf
Z hH
YG bHI
ĠeN GW
ĠeM QR
O Ye
hg Gf
ĠGdG ZHjGA
ĠjfJ g
ĠGdHj Gfh
HhG SWI
ĠhVY c
ĠYde fG
Gdb djd
ĠGdeY ScQ
hW jf
ĠGdGL QGejI
ĠeJ Ud
ĠJUd M
ĠGdL eGQc
ĠGdeY GQVI
jf S
Ġhe L
Gc G
Ġef fG
ĠHGde cGf
ĠR QGYI
ĠjM db
ĠNQL fG
ĠT hGQY
ĠGJ Lg
ĠGdd W
ĠOe Tb
ĠGdJbGYO jI
Ġa QHeG
ĠJM Gda
hLj gj
ĠhGdf XGe
ĠSJj hGQJ
O bjbI
ĠGde edcg
ĠGh H
ĠGddg j
ĠaY GdG
ĠQ YH
eG Og
ĠeGQ KG
ĠGK QJ
Ge Mc
Q hR
ĠGO jQ
ĠgPGGd hbJ
ĠGdKe Gfj
ĠhG jG
ĠhGdJ T
ĠGdJ XGgQ
Ġc Qe
Ġf MHc
ĠfS Gd
R jfI
hUd fG
ĠhL RQ
ĠGdeL Gfjf
ĠjdYH hf
ĠfMJ ad
ĠjbJ dc
ĠHO hfj
Ġd ej
ĠJ Mjg
Ġh Ld
ĠeJ WdHGJ
ĠjXf hf
ĠQ JH
ĠGdKdG Kj
ĠhM HjH
ĠGWd Y
jY GO
ĠjJ dbi
M ej
hjJ Yjf
ĠGdHWG bGJ
ĠaQ fSj
ĠGS dGe
eO jQ
ĠGdeR GL
ĠJf XQj
ĠGdeO Yi
ĠGSe i
F jGJ
Ġdd Jc
ĠGdGU aQ
e jO
ĠSM QjI
Ġb GY
GJYde hf
ĠMS Hj
ĠWad Jj
ĠGU dj
ĠY Xe
ĠGdhG Oj
Ġehf JQjGd
ĠhGd ed
ĠHGSJ YeGd
Ġde bGHdJc
e dj
ĠGde bJ
Hc SJGf
SJ jQ
LQ S
ĠGdhR GQGJ
f TJGjf
ĠQ hfj
ĠQgj HI
ĠGdef S
ĠGdJ QHI
ĠJJ hGLO
ĠGdGjL GHj
GLd H
Zj R
f LQ
ĠJ daRjhf
ĠjbJd fj
ĠG MSH
ĠSf MUd
Ġe WHN
ĠGdGfO eGL
ĠGU Q
GQ Yjf
ĠGde OG
ĠdG aJ
GdGT NGU
ĠGbJQGM GJ
ĠGdU hJj
ĠGdV QHI
ĠjU GH
J MGhd
ĠGdeV jaI
ĠjS Yfj
ĠMbj HJc
ĠGJ aGbjGJ
ĠGdJaG M
Ġd SGf
ĠYbO g
ĠHe cJH
ĠH QcI
ĠGdM QGSI
cf i
ĠGdLOjO g
a QjO
ĠJYJ fj
ĠJ QH
ĠjQ ej
Ġdd K
aQ Gf
ĠGNHQ Jge
GQS jG
ĠU GfY
ĠKdGK jf
hS hf
Ġj Mj
ĠGdY WdI
Ġe edI
ĠGdg fhO
Ġdef J
ĠGdeSJbHd jI
ĠGdeeQ VI
ĠYGde fG
ĠGdM bjb
ĠHGd GU
ĠhG UO
ĠhG ge
Ġe MX
Ġeg fI
ĠhU aI
ĠGdbGO eg
J hfj
YhOj g
ĠgR jeI
ĠL FfG
Ġe SdMI
Ġdd Gef
ĠSJ OaY
ĠGdP FH
ĠHb YI
ĠJMO jG
ĠGQGO hG
ĠHe QcR
ĠVM cJ
ĠMLR J
OQ R
Ġdd GQV
ĠeaG LFI
hj L
be GQ
Ġh HM
ĠGdeeJ GR
ĠcQ hR
ĠOGj ef
NGe SG
Ġj QGc
ĠHGd HQO
Ġc jH
ĠGdGjW Gdj
GJ bUO
ĠGQG OI
Ġad hb
Ġf cJTa
ĠGdOQG Sj
ĠeO Qc
Wg jQ
UO i
Ġh Mb
ĠGdbJ dI
ĠGdH Ojd
Ġhb hGYO
ĠGdGR O
ĠGdhG SYI
c KjQ
ĠJ hJ
ĠGh T
ĠGde hS
ĠYd he
Ġf W
hG Se
ĠM ajO
Ġfjc hd
ĠJM de
aY GJ
ĠGde bGYO
hG UI
ĠHjJ G
Ġb QGA
Ġddb QGQ
GNHQ fi
Ġa Qjbj
ĠGdO QS
ĠGdef Y
ĠeGQ SJ
GSeY fj
ĠGdeM ce
ĠHUjZ Jg
ĠRhL Ji
ĠGdGe O
ĠJhG YO
ĠbU g
Ġddh QGA
j MH
hGJ c
ĠGdeQj N
Ġddc hjJ
ĠGdJ Pc
ĠeQ MG
ĠGdKe GfjI
ĠGdGQ Vj
ĠGdYGF dGJ
ĠGde Sd
H YJ
ĠGdT GHI
ĠHGdb Gfhf
ĠJM Udj
Ġej fGA
ĠGdeMO hOI
Qj R
ĠbQ U
hU dc
ĠhGdJ RGe
ĠGdJ ZWjI
ad S
ĠJ hMjO
ĠHGde hJ
ĠGdW Ye
ĠGdL hajI
ĠJbOje gG
ĠeJ ge
ĠGde bGWYGJ
ĠGdjO jf
ĠHGd bjGe
jQ S
ĠGLd Sj
a Gfg
ĠGdYe jO
gPG Gd
Ġaj ZGS
ĠgGJ ajI
ĠGa GO
YG g
ĠJQG Yj
ĠjY GOd
Gd jce
ĠhGd bjGe
ĠS hO
ĠGdSa GQI
Yd H
adhf RG
ĠO cJhQI
Ġa GPG
ĠGdKQ hI
ĠGe jQI
bH dI
hjJ gG
ĠhGdf XGaI
ĠPQG Yc
VM i
ĠJL Qi
ĠjSJNOe hf
P Qj
Ġdde NOQGJ
ĠGdT GP
ĠGdGeQjc jjf
ĠGda fhf
UGF M
ĠGd de
ĠGdH YjO
g jc
gG hS
ĠGWdb hG
ĠH QaY
ĠMHjH Ji
ĠGe I
Gd SjGQI
ĠddG LFjf
ĠhJ hRjY
Ġd NW
Ġbd YI
hL R
ĠdfJ MOK
ĠTYQ gG
ĠL fGFjI
Ġj YHK
ĠehL I
e Sc
ĠfJ fGhd
ĠhGd SJhf
Ġj cda
SG Fj
ĠLfG RI
ĠeJ fG
Ġddf ghV
ĠJ GeQ
ĠY QHjI
ĠGdM aQI
Me i
ĠTQj QI
Ġj hJjhH
dJ G
MGQ HI
ĠhaQ fSG
ĠYQa fG
ĠG gh
X G
ĠHGQ YI
ĠJSG ge
ĠGdY bGbjQ
ĠjSJ Q
ĠdG NHQc
Ġa QjOI
ĠHMb c
ĠGdcjejG hj
ĠGdeSJ TajGJ
ĠGZ QH
hdcf ge
ĠM GedG
GJ Yfj
ĠhGd dj
ĠGdJ TGhQ
bH dj
ĠGT QGa
ĠGdGQ R
ĠGQ Rb
ĠhGd P
Ġc QJ
ĠGj W
Ġj hbY
ĠGdeL eY
ĠWd bI
ĠZjH hHI
ĠJT YQj
W he
Ġjd bj
Ġj QJc
ĠfhQ eGf
ĠGN jg
Ġa Gde
ĠGdeNO Q
ĠGdHQ b
ĠGfJ N
ĠM HI
c hQ
Ġb QO
ĠGXf fj
ĠcQj SJj
ĠHjQ S
Ġa JjGf
ĠjG F
de OI
ĠSj GJd
ĠGdWd HI
fj hjhQc
ĠGde hR
Ye i
gQ HGA
RhL Jc
ĠeU fhY
ĠHf eG
ĠGN hI
S GdJ
ĠGdT HcGJ
ĠGSf Gfc
Ġeg QLGf
GSJ eYj
ĠZ Sjd
ZQ bJ
ĠGdeGO Jjf
ĠHL QjeI
ĠGJ YJbO
FH b
ĠY jGd
ĠGdSd Gde
ĠGSJ de
ĠGb djej
ĠGde jGI
ĠHG UdGM
NO ej
ĠGdM hKj
M OGc
Ġdd SjGQI
ĠGW QM
ĠeZ ad
ĠHL eY
ĠGdf eQ
ĠQbe j
ĠGdJfajPj jf
ĠGdGQJ aGY
Ġcd Geg
ĠY hOj
ĠGj dG
ĠYOO gG
ĠG cQ
ĠHGde SGFd
Ġc Gda
Z VH
ĠGdTgQ jI
ĠGW jb
N je
fS hf
ĠGMP Qc
Ġcj GfGJ
Ġj WGQ
ĠGddj Gdj
c GI
ĠJe WQ
ĠW Yf
GNHQ Jg
ĠHGfaS fG
Ġe QGLY
ĠjM jd
J NdU
ĠGdJ ZjQ
dh QjG
ĠfJ ab
ĠJQc Jfj
ĠhGdK Gfj
ĠhJ fejI
Ġa eg
SGH bi
ĠYU Hj
GNHQ fG
L GO
ĠjM K
hGf c
Me dI
L ja
ĠeYJ GO
ĠZ OGA
ĠGdf bj
ĠhGfJ GL
JY GO
hPcQ J
SeHQ Z
ĠGddG GfSGfjI
ĠhS Ge
J chf
YJ Gf
ĠGdeJ bOe
ĠSj LQj
ĠGP fj
ĠJ jf
ĠJ hVY
O QL
Ġaf QLhG
ĠGUHM hG
ĠJT jd
Ġg hGA
ĠGH dg
ĠJaJ bO
ĠHGdJ bOe
hQO f
ĠQM dGJ
QGb Hj
Ġd djhf
ĠcdG j
bG V
ĠGdM eGQ
ĠZGR GJ
ĠHM d
ĠhH GdG
J KGd
Qj gG
ĠJYJbO j
Ġb hjg
ĠdU Ojb
Mb GJ
aj fG
ĠjfJ L
J a
ĠMUd hG
ĠddJY hjV
S Ljd
LJ hf
ĠJf Ra
ĠdG bd
ĠJ QHjI
cj Qj
ĠGHb hG
aG PG
GdM jf
hK Ge
ĠGhd jI
ĠGdGe hGJ
ĠjbJd hf
Ġe hab
ĠY GdL
Ġbd fG
GdH bGA
ĠfJ Ud
QM ef
ĠGdchc Gjjf
ĠjgJe hf
Ġa GO
Ġhcf OG
ĠGdN fGRjQ
ĠHG YW
ĠJeGRM fj
ĠddG YeGd
ĠdY QV
ĠfT GgO
Ġaj cJhQjG
ĠYe OG
ĠGde hd
ĠONd fG
F Jg
ĠdGR GdI
ĠMd gG
ĠGHJ Se
ĠJJ age
ĠGdUj GfI
Ġje jf
ĠJ Medg
ĠSc Gj
ĠGdYfc HhJ
ĠY Rd
ĠHGd eh
Zd W
HYO eG
Ġadf PgH
ĠGdL ej
ĠGdc hQj
ĠK fGFjI
ĠGdJY Ljd
gO aI
ĠHGdU MI
ĠGdjGH GfjI
ĠGdT aGA
G hi
ĠhGdb hGYO
Ġefg LjI
W HjH
ĠGdhb GFjI
ĠK bG
bGF fG
ĠGdGQ T
ĠcGdY GOI
ĠKbj dI
ĠeM GQHI
ĠJJ YQa
ĠYf a
ĠbQ QfG
S gG
ĠGdJbd jOj
ĠeO hfI
Ġh deGPG
ĠhGdG bJ
b Gdj
jJ T
ĠN L
Gd gPG
ĠGQO Jj
ĠjLO hf
Ġjb jf
Ġa cja
ĠHGd h
Ġhf XGe
ĠGNJ HGQGJ
ĠGN dGA
WGdH GJ
ĠjW QM
ĠGdY hf
ĠHQ YGjI
jQ Li
ĠGde abhOI
ĠGeQ gG
Ġc ef
L jc
ĠZQj Z
he eG
ĠTY hQj
ĠjMJ Qe
ĠhGd OGj
ĠGdGQ SGd
ĠeJc GedI
Ġh Tj
ĠGdab Qj
ĠHO hQg
ĠGdeSGA dI
ĠjN WQ
ĠhGd jGHGf
bG heI
ĠNW Fj
ĠR f
ĠHjO c
Ye dG
ĠGdb H
SG aI
Gd Sd
Jc GQ
ĠGdGS gGe
ĠJQ NjU
ĠQS Gdg
Ud jI
ĠfJ GcO
ĠJe fjJ
ĠGdeY HO
ĠGSJ HOGd
ĠGdGbJQGM GJ
Ġjf HZi
ĠGf Ki
ĠjMJ Qb
ĠH Lfhf
ĠGdM QS
ĠfG Jj
ĠgGQ HQ
ĠGde XgQ
ĠGdUY hHI
ĠehLhO jf
J LI
ĠGdeJ Ma
NP J
ĠUGQ hN
ĠXgQ g
ĠK hH
ĠG ce
SJ Mb
ĠGdUa MGJ
ĠhGY VGA
ĠGdf N
F HI
d YHI
W GfjI
ĠcQj SJjf
ĠHGdH bGA
ĠdGf bG
SJ h
aj hf
Ġj MSH
ĠeSGYO JgG
Ġf UQ
NJ fTJGjf
ĠGbJ QHJ
hH YV
Ġf QGg
ĠeK jd
ĠS hfj
ĠGdeM GOK
ĠhJ Yjjf
ĠhGde hXajf
ĠLhf Z
ĠjZ db
ĠGdGL eGdjI
ĠGbJ MGe
ĠGdHG c
ĠGY VG
ĠGdbhe jI
ĠGdeh Fd
ĠHGde SGYOI
Ġj ghO
ĠTc dc
O YGA
ĠGde FI
ĠjG SQ
U hH
ĠGdeQGg bjf
ĠGJ GHYc
ĠhG cO
L hdj
j ja
hGW fjf
ĠGYde c
ĠhbJ fG
ĠGdSGN f
ĠdG Hj
ĠJN a
YfO fG
ĠJ Sj
ĠLGf Hc
ĠGdG MX
ĠGde dh
bQ Ge
Ġhf X
Ġf OYh
ĠeD ef
ĠSf HOG
ĠhJ OejQ
Yf jf
ĠGdG hRhf
V hA
bG g
ĠjJ LRG
ĠL PGH
ĠGdX Gdejf
Jf e
ĠR hO
ĠhGd fGS
ĠYO d
ĠeD JeQGJ
ĠU hQg
ĠeHd ZG
ĠHGdH TQ
ĠHU Qa
ĠeMH hH
ĠHGd fGS
ĠHGd TGQY
ĠW GHb
ĠGdYe dI
ĠGde Zd
e Ff
ĠdGS ad
g QGA
hU J
Ġe ha
b GQjQ
ĠGda WGFQ
ĠGdZ HGQ
ĠjO QS
Xj ej
Ġa deGPG
ĠHG b
ĠGY HQ
ĠGdeS GHbI
ĠH YJ
ĠJJ efi
ĠGdMQGQ jI
ĠbO QG
ĠSJ Xd
ĠYGO dG
ĠfG a
GYJ OJ
ĠGdaOQ GdjI
Ġj gO
bGH dJ
ĠGdSdGe g
HGd ZI
ĠaGf ge
ĠGdef XQ
ĠHW ad
ĠGdeMG SHI
ĠGe KGd
ĠGdZ Gdj
ĠhJT ed
Ġjf Ra
ĠGdS GFOI
Ġhe hXaj
ĠeGd haG
ĠJfaj Pg
Ġg GQJ
ĠT WjQI
GdJ M
Ġbe Q
ĠGS jQ
ĠGM PjI
ĠYU G
ĠhH Pdc
ĠHe eGQSI
ĠGL fHjI
ĠS cQJ
MOK J
HJ jf
ĠN TH
ĠN Qb
ĠGdM UGQ
ĠJ UQ
ĠGM RQ
S GHb
SGF b
ĠGO Yi
Ġcjf Z
ĠGd HGW
F Jj
ĠGda QGQ
ĠGdT OjOI
SH hc
ĠGdGY QGH
ĠGdeg jfI
Ġg fJ
ĠTNU jGJ
ĠGde hXahf
hJ GJ
ĠGdaY GdjI
h bOe
ĠhJ OQjH
YhO hG
Gdg i
ĠeeQ VI
ĠeJc Ged
ĠJT cQ
ĠGdGfa UGd
ĠGdU OGbI
ĠjSJ gOa
Ġe HjYGJ
ĠN WjH
ĠjL Oj
ĠGdHdO jf
ĠHZ QaI
ĠGdb VjH
ĠJY KQ
ĠGdh YhO
ĠGg dc
ĠGdL eGgjQjI
ĠJQc c
ĠJaG Yd
ĠHGd bOQ
SJ bhe
ĠhY QV
ĠaQU JfG
dJ Gf
ĠGdLGe Yj
Gfj he
hGdO Jj
ĠGdT Qjc
ĠHGd GSa
ĠaJ Qg
ĠeSG geGJ
ĠR efj
ĠGQjJ QjG
ĠHGde SDhdjI
SGJ MOK
Gb de
ĠJc HO
ĠajOj hgGJ
MH jf
ĠGdGjc hdhLjI
e YJ
ĠO QO
bGH GJ
Ge jd
ĠNGQL I
Ġdd bJGd
ĠU QjM
hfSjJ QGd
S Hj
ĠGZQGV c
ĠehG Lg
ĠR GFOI
Gde g
ĠfU H
ĠHGd Gef
Je Kjd
ĠHQ DjI
ĠGdGQ HYjf
a T
MJ Qe
Ġcd h
ĠHGde RjO
ĠGH MGK
ĠSjf J
ĠJN dj
ĠGjG c
Ġd ZGjI
ĠGdS HYI
b djdG
ĠGUObGF g
L dj
ĠGWdH g
ĠdaYd g
ĠHOhf g
ĠfX eJ
ĠGdYe dj
Ġjf Xe
ĠGeG g
F Jjf
ĠQ UjO
ĠGH fi
ĠGdGSW hQI
Ġe bGd
ĠGdG ja
U fOhb
ĠddT YhH
ĠLGfH jI
NH QI
M jG
ah jG
K jf
Lf jO
ĠS hc
ĠhGde fGWb
ĠJJ bOe
ĠhdG jJg
ĠY Gdjg
Ġf fGTO
Ġdef XheI
ĠSQ hQ
ĠeM WGJ
ĠeQJ HGJ
ĠHH Lj
ĠZ QGQ
ĠefG aSI
ĠHjf jJ
hO cG
ĠeSG ge
ĠZ fjI
ĠHh SGFd
ĠejJ T
ĠcJ dI
ĠGdW QGR
aY GdI
ĠGdfR dGA
HZ V
ĠJbG WY
ĠSHM Gfg
ĠHjf ce
ĠGdfhY jI
Ġf hQG
ĠRhGL fG
ĠGdYGF dj
hG NHQ
H bjf
QJ Oj
ĠGb fY
ĠGYe b
eh fGJ
RhL c
ĠGdGH dg
dOj ce
ĠGdYGe jf
ĠHe YOd
a hJ
KeQ jf
SGQ Sd
eJ ce
Sd jf
ĠHGdGe Gf
VGj bI
ĠGN abJ
cd GJ
ĠGdeSDhd jGJ
GQjO g
gG LeI
OGF b
ĠfG ja
ĠQ MJ
ĠGdGf hGQ
ĠHe hGabI
UOjb c
ĠjV ZW
GK QI
ĠdGf i
Ġff gj
GV QH
Yd GeGJ
ĠehLhO g
Ġee KdG
ĠJc ef
ĠJGN Pg
ĠGdeg Hd
ĠHZ QGHI
ĠeJ haQI
ĠO bI
ĠhG TJQGc
ĠGQGVj gG
Ġf jO
ĠeQj Y
Gd HQfGeL
ĠGdeJ a
ĠJbd jOjI
ĠJS OjO
ĠO hejf
ĠHGde Kd
ĠcJGH c
ĠGSJQ OGO
Ġc ai
ĠhGd WGbI
Mc je
J GfjG
SG VY
ĠJg QjH
GJ bhd
ĠJYjT jf
ĠNd d
ĠhLg J
ĠGf bWGY
ĠGdL GPHjI
ĠS ba
GT JQc
ĠJfG bT
NP fj
ĠeQ YH
ĠGa WGQ
Ġgf ZGQjG
ĠUQj MI
ĠYe b
ĠHhQ cjfG
ĠdJ Qc
ĠOY fi
ĠJLYd g
ĠMP a
ĠGfOQ Shf
U YH
ĠeG Rb
ĠJY hjPI
ĠdU fY
Ge fG
ĠdG ja
ĠLe YJ
ĠdO Nhd
Ġdjf O
ĠHP dJ
Z V
ĠGdeY bOI
hj R
Ġd KdGK
ĠGdN Oeg
ĠGdGSJ bUGFjI
QGa h
ĠM ej
ĠGdGfM jGR
ĠGdN GQbI
ĠjQJ HW
ĠJM hj
Ġeh MOI
ĠHGdJ M
ĠeY QhVG
ĠGj d
ĠGdeS F
ĠGdVN eI
ĠhJ dGMX
M Uhd
hGO di
Gj ej
ĠGddj ehf
Ye g
Ġj Yj
ĠeJ QG
cJ HJ
ĠhGdGa QGO
Ġa Vd
ĠgG jO
ĠGdJQc j
ĠHj GfG
ĠhGdg fO
Ġde QcR
ĠJaYd i
ĠH dGA
L eO
Ġg jO
ĠT OI
ĠhGdM cheGJ
ĠGddG S
ĠhLH GJ
ĠLGS hS
ĠYQV g
ĠHfj J
gQ g
ĠJf aLQ
ĠHjT hH
gG g
ĠGdY GOd
ĠHW Qj
h WdH
ĠjQ hM
ĠWdH g
ĠHGde OjfI
Ġf hH
ĠJY b
jO GJ
ĠGdeTJQc jf
ĠGeJ KGd
Ġjbd d
ĠddeSJ Tai
ĠGdQ HG
ĠGMdGe j
ĠhS hA
ĠjG YRjRJj
ĠJc Ta
L HI
SG MI
ĠGdJR GeG
ĠH QjW
ĠJfGhd gG
ĠGdd MXGJ
QjS eGS
ĠjT JQ
GQ GJj
j j
ĠOj hf
ĠOY hfj
Ġd GQJ
ĠHG MJQGe
ĠddGL QGAGJ
hL I
Ġea GOg
ĠGbJ Me
ĠGQ fj
ĠGdJT OjO
ĠZ jd
ĠGdeY fi
ĠeY Ge
ĠJ Oe
ĠW Gb
ĠJQJ aY
ĠGdJU QjM
ĠGf bd
ĠGde Gc
cG PjH
ĠYGW ajI
GQG ce
Pc GA
O hd
Mj hGf
JMQc hG
ĠhH Gf
ĠS OGO
ĠhJ MK
ĠWdH c
ĠYbO gG
ĠHjQ hJ
ĠGdGd RGe
ĠGdYjf jf
Q hHQJ
MJ eG
ĠGdeSGYO g
Ye Qj
ĠGdX GgQI
GF e
ĠGdQG H
abO Gf
aj dI
GK HJ
ĠNWW J
ĠYe Jj
hJ I
ĠGdHdGZ GJ
ĠSGdJ fj
G cJTa
ĠHGdO hQ
Yd GeI
ĠSJ JQc
S QM
Ġhe cGf
ĠJSJ Sde
ĠGdf UhU
GaJ Mj
ĠGdG TGQGJ
ĠeTJQc jf
ĠhG bhd
ĠJf bjM
HGecGf fG
SG LO
ĠhT YH
ĠhGdf ghV
ĠGdNeS jf
e Gde
GT GJ
gjG cd
QT M
aj FI
ĠGSJ QLGY
ĠQ bUI
ĠGdGO hGQ
ĠGN WQ
ĠOGfj jd
ĠeT ghQI
ĠHhS Y
bJ dj
ĠLQ hM
ĠGdQ hGHW
ĠYd ejI
ĠddM QH
ĠGe KdI
Ġjc ef
Ġa SJGf
ĠOhQ g
ĠJbO eJ
ĠHe YQaI
ĠLeGY jI
ĠjL JeY
ĠQ J
Ġf ab
ĠGdd hGJj
ĠhJ bQjQ
ĠK GfhjI
ĠGdY GajI
dGf fi
WG bGJ
ĠGdS jGOI
Ġjd Mb
ĠGdUhJ jI
Ġc OG
ĠGdM HS
ĠGYW GFj
ĠQ hSj
ĠaGf fj
Ġe WdY
ĠHQ hO
ĠSfJ MOK
GZ dH
ĠGdGJ gGe
Ġg OGa
GR GJ
LO Jj
ĠGdehG ab
QG VG
ĠY jGQ
hd ge
ĠUj GfI
ĠSj Ud
ĠjbJ UQ
Ġh YGA
J ecf
Ġh HdOGf
hJ bhe
ĠGc SjO
ĠYOj eI
ĠddQ hYI
hSJ chf
ĠZQa Jg
Ġj bHV
Ġj SH
ĠQjc j
YV h
ĠGdh Sje
ĠdjJ e
ĠGe gGJ
ĠGdTb b
Ġj QbU
ĠGdJ QGLY
LR g
ĠJ Ged
ĠV Fj
ĠGjSd fOG
Ġb QG
ĠhJ YQV
HJ I
Ld i
ĠGdLS jeI
ĠhG YQa
ĠJf TjW
ĠJNQL j
GS hG
ĠHJ fGhd
ĠGdO bjb
Ġh TQ
ĠGhO Qj
ĠGdH GQO
ĠYdGb g
H jfj
b VjI
ĠJU GH
ej Qj
Hc QI
dGb g
ĠGdeSJ MbI
ĠJfJ L
j Gdc
hG Yde
ĠJ aj
LO jI
ĠX Qja
ĠHb dH
ĠdG SHhY
ĠGQc V
hfG jJ
ĠGdHWG WS
GdU hJ
ĠeT j
ĠeU GFO
hQ b
ĠecS hQ
ĠX Qa
ĠGdaQ SGf
ĠGdQa jYI
ĠhGd HGdZ
ĠU hf
ĠGdScGf jI
ĠGde fO
ĠGdH fGjI
Jg f
Gde hSe
ĠGdfG O
Ġa SjM
ĠGMH HJgG
ĠY ef
ĠJM jG
ĠGdQG Mg
ĠOQ SJ
ĠGf Xa
ĠUOj bGJ
Ġd ZjQ
ĠhG W
ĠHW HjYI
ĠNeS jf
ĠdJ bQjQ
ĠGdS dc
ĠN GdU
ĠGdfgG jg
ĠGT dj
ĠGdeO jf
ĠhGdJcfhdhL jI
j MGhd
ĠQG Sd
Ġgh c
ĠhLg GJ
Ġdd Yfa
ĠSG WdH
ĠM hGdi
ĠGWa Gdc
ĠN aj
eGO jI
ĠN GQb
Ġed Yhf
ĠGdGSJ gdGc
ĠJ aYjd
ĠHQhcd jf
ĠQ hej
ĠeG jdR
ĠfLO g
ĠYj fGJ
GZ QH
ĠHW hd
ĠGdT Hcj
ĠdJ HGOd
Ye OI
ĠGdGf HGA
ĠGdG gj
ĠJN Oe
ĠeJ SY
ĠjONd hf
ĠZ R
Ġe Scjf
ĠO jfjI
ĠTQGF M
ĠhJ bOe
ĠGZ dHjI
bU U
ĠXg QG
ĠJMJ Qb
ZT bQ
Ġdf TQ
GQL M
GdM GdI
ĠHQ Ld
ĠGdehGVjY jI
ge fj
GL j
ĠGdY TQI
hQL Gf
ĠGSJ bGd
ĠGdehSj bj
ĠcJGH G
ĠHGd GO
ĠjN dj
eG Ti
ĠeU fhYI
Gd NW
Ġf je
Ġja QV
U QGMI
ĠGh HQG
Ġh fJGFL
ĠGd hQO
ĠhGYJ eGO
ĠGdQ g
ĠGdeZ ad
aG L
ĠGj c
ĠcGR GNSJGf
Ġd LdH
ĠQ NU
ĠGP i
ĠGdHj hJ
ĠGdgfO jI
Ġf Wdb
ĠJ Kbj
dj dg
ĠafS fJ
ĠGdH UQI
ĠhGdY Gde
ĠGdO ajFI
ĠJW GdH
ĠTY Hj
Ġe Hg
ĠZ W
ĠeJ Ma
GO Yi
hA I
ĠSG VY
ĠHjc Q
ĠGdSN jaI
Ġhj hLO
ĠdG YdGf
H Ge
ĠSdha jfjG
ĠhbO eJ
hH Gf
J Mbb
ĠhMO fG
ĠHGN Qi
ĠcK QI
ĠGSJ HYGO
ĠGdhb GFY
ĠGdGS cGf
ĠGdGe QGI
Ye jQ
ĠHGSe c
hL SJ
ĠO HdheG
GM dG
ĠGj aj
ĠJY Wjg
ĠHhd jajG
ĠJb fj
df f
ĠaVG FjI
Ġc hN
ĠGdeJ RGjO
ĠGdJbW J
ĠHehL Hg
ĠT GedG
ĠTGQ dhJ
j SJWjY
ĠjMaX ce
Ġdd LghO
bO eJ
ĠGdd UhU
ĠGdG Pi
ĠN GQ
ĠGM GdI
hjQ O
ĠLG jeS
GSJ Q
ĠGdJb jO
Ġa Oj
ĠeMJ edI
ĠdHYV fG
ĠHU aJg
ĠHGde hGQO
Ġj VjY
ĠHj H
ĠGdM jI
ĠT GZ
ĠUOjb gG
YG Oj
ĠGdYU HjI
ĠJO HjQ
ĠGdaj S
ĠeJ NUUI
ĠeJGcO jf
ĠW GR
ĠGdeSJ aGOI
QGa GJ
ĠGSJ fJGLGJ
ĠGdeSJ ajO
ĠcdG S
hdhL jG
ĠJbd d
GR Q
ĠGdSG bWI
ĠGdc Ggf
ĠSfG NP
ĠJN Rjf
Ġeb RR
ĠGdedG FcI
dGM jI
eKd jf
Gd LdSI
ĠhG PgH
ĠHQG jS
ĠGdS HY
ĠGdS ejf
ĠGM hGd
ĠHGL QGAGJ
ĠW hGQF
ĠeO fjI
ĠHGdJ LGQI
ĠSeYJ e
GQ jc
ĠJbhd jfg
bhe hG
ĠhLO fGg
jY jT
ĠhG ba
ĠGT gO
ĠddY QGb
ĠdeJ GHYI
ĠGdS hHQ
ĠGL GHGJ
ĠGbhd dc
ĠddGe GfI
ĠeW GHbI
a Yj
ĠcJ GHj
ĠGdTQj ajf
Z Gdj
ĠGeK Gdc
ĠJ Vj
ĠZGe V
ĠJM bjbG
ĠH ed
Rj hfj
ĠfSJ eQ
ĠGdJMV jQ
ĠGdZ fjI
ĠJgJe jf
ĠYGe dI
ĠLG jShf
Oj Qj
ĠGjL GH
ĠJJcde jf
ĠT M
bG jb
ĠGdeQJ HW
Qc V
ĠGdfXQ jI
ĠHSQ bI
ĠhGd Oi
ĠGdGU GHY
ĠGdM bd
ĠOG jeG
ĠGf TQ
ĠL hGQ
ĠHGd cdGe
ĠGdY hGbH
Ġj LjA
ĠhGd OG
ĠGSQ ge
aj MGf
X ghQ
ĠYjfG j
fG FH
ĠH aJQI
ĠT Ge
eG Vj
Ġde eGQSI
GMH HJ
ĠM da
ĠehSj bjI
ĠGJ dbi
ĠGZ JjGd
ĠU hQG
ĠHS hA
ĠGO hGQ
ĠGdSj F
ĠhGdf bd
ĠGdN dG
ĠGde FhjI
Yde hf
GdM QH
Ġd ha
ĠGgJe Gec
ĠGde hdO
bW YJ
ĠGQ MH
ĠZ T
ĠOj dGf
ĠSj LGQI
ĠJf UJ
ĠGSeY gG
ĠYej bI
ĠbUO J
Ġf RGd
ĠGdS hjS
LO OI
Ġjd Yf
ĠSj HOh
ĠGdJ HGOd
ĠGdMe GeGJ
ĠeK GdjG
ĠbU Jj
ĠG hGLg
Gd hG
ĠHGecGf ge
ĠJd he
ĠGde hV
ĠGS eGc
ĠGdf LOI
Ġfh hj
ĠhdG O
ĠGNJ W
YL HG
ĠjJ QJH
ĠGM Qb
ĠGYe GQge
jecf gG
ĠW QGFb
ĠSf SJ
ĠdO QGSI
ĠQ HGg
Ġjf eh
ĠGdG hfSjJQGd
ĠGdc GK
ĠhGf XQ
G VY
Ġc GQG
HG gj
ĠGb hjGA
ĠKd L
YH jf
ĠhJ Ve
ĠGh VMJ
ĠGdM QHjI
ĠHGded d
ĠGde HGQc
ĠJbJ dg
ĠW Ghd
ĠaG bO
bQ Gf
ĠJJNP gG
jSQ fj
Ġb fGJ
ĠQGj Jj
ĠSG Y
b Gfhf
ĠHQj FI
ĠeL Qi
jS YOfj
Ġc hG
ĠGdQ ed
ĠU Oi
ĠT aQI
ĠGdJ VMjI
Ġd GdJRGe
Ġb GV
fS NI
ĠHGde QI
H hHj
ĠLYd Jg
GL jc
Ġe Gfg
ĠH hQc
ĠTcd gG
ĠJJ Mce
dc i
HM GQ
Ġj ZaQ
ĠhGd GR
LejY ce
Ġg Re
ĠGdJ QGH
ĠfR GY
ĠSjO fj
a Qb
YW jfj
ĠGdL eGgjQ
ĠjJ faS
ĠGdYed GJ
ĠJaYd hfg
ĠHb VjI
ĠGdQO hO
ĠeHc QI
ĠGdKbG aGJ
ĠR b
be Y
OY ge
ĠGdeMJ hi
ĠGdeJ eJYI
Ġh VM
ĠHGSJWG YJj
K f
ĠGdd bH
ĠW hfj
ĠGHf fG
JQjO fj
G aS
hH GdQZe
ĠHOA G
ĠGdh Ua
ĠJ QGL
Gd abQI
Gc jf
Ġh QaY
ĠNd UJ
ĠM HS
LO GJ
ĠHJf Xja
GJ efj
df bd
ĠPgH jI
ĠdJ fejI
ĠGdG hf
Ge Hjb
Gde LdS
Ga jG
ĠdG jecffj
eG We
hQ Z
Ge e
Y HG
SJ PgH
GO eI
jG aI
ĠjW jQ
ĠGYJQa J
GL JeGY
ĠHJ Qc
ĠWGd HI
e V
ĠGde QShe
ĠUGQ eI
ĠGdL QjOI
Ġdde Gd
ĠddG V
ĠGdMhG LR
ĠdM GdGJ
hde R
Gd ed
ĠJ SQY
ĠhSGO Jj
Wd MGJ
ĠGdb PGFa
Ġgj hf
ĠeSO SG
Gde hGabI
ĠGdHQ hajShQ
Ġe dGe
hj bhd
ĠHGdJ Mbjb
LQ hM
ĠMjG RI
ĠGda hQj
j V
e YdheGJ
ĠGdY QbjI
ĠhGbY jI
ĠJGJ jf
ĠHN dGa
ĠGdehLhO jf
Ġc GFf
Qj Oj
Ġab jQ
GdY hOI
GaJ bO
ĠGdM GdJjf
ĠGdGQ fH
ĠGdJRGe gG
ĠhGd GgOGa
ĠGN UGF
ĠeG gPG
ĠGage g
ĠH ja
ĠddY dGL
ĠGdfG JLI
Ġd hQO
ĠJN djJ
P QGA
ĠGHJ SGeI
ĠHGdM GLI
ĠV Z
WG W
ĠGdJU hjHGJ
ĠJL Og
ĠcQj gI
ĠeTQ hYG
ĠGb QQ
ĠjfJ gi
HQG Rjd
ĠdSG YGJ
ĠNj Gd
ĠGdeYO dI
ĠGdJ Z
ĠJJ NdU
ĠGdS eh
Ġe bY
GdL eYjI
ĠGd cQg
ĠJage j
Ġj ced
ĠKe Gfj
ĠhLhO gG
aQ hV
Ġa cd
GN JQ
ĠS hQjI
ĠJYJbO hf
ĠOYe gG
Ġd MSf
ĠSG aQ
W hQGJ
ĠHe hVhY
ĠGh cj
ĠGdYe dGb
ĠGQS dc
ĠO Hdjh
HW hdI
YQa g
ĠHGd PcQ
Ġaj Hj
JY QV
Ġg LeGJ
je jGA
ĠJ MGaX
ĠZGe VI
hJT jQ
Ġe hW
ĠT bJc
ĠeG V
ĠTQ bj
J GQjN
ĠGde HjYGJ
Ġc heI
ĠSj Yed
YHO Gddg
Ġh SJchf
ĠGSeY g
ĠcG SG
ĠjS MH
ĠNdj L
ĠGj djf
ĠGdeYde jf
ĠjSJ ajO
Ġf Xf
hG ge
ĠGdGe Kd
ĠeN OQ
ĠGdGQ HGM
hS jG
ĠUZj Qj
ĠjSJ jbX
ĠGdYO jOI
bG gG
ĠGdQc V
ĠGdeGVj g
Oj e
ĠeR GQY
ĠGdQM dGJ
ĠUYH g
ĠhGdGH dGZ
ĠjG c
ĠcGQ dG
gj j
ĠSjO g
Ġd HYKI
ĠGdeHGQ jGJ
aG hVGJ
ĠJG KjQG
GZ hGj
T GYQ
ĠbH dg
ĠSGd Jc
ĠUO Qc
ĠhGb YI
ĠSJ TYQ
ĠjG UOjbj
ĠGdHGdZ jf
ĠYGU eI
ĠbGJ dG
ĠQ OJ
ĠGYJ OGA
Ġe eGQ
GTJ bJ
Pj g
ĠGdQbe jI
ĠGdGe jQcjI
Z QGe
ĠeeJ fI
Gg dj
ĠSGH OG
ĠdJ Qi
ĠGda FQGf
ĠJeQ jf
ĠeY fjI
ĠeN JU
hGa bJ
ĠGf UGa
ĠR H
Ġe bOQ
ĠHQ hf
ĠdZ GJ
Ġf aJ
ĠGf aGb
hS cj
ĠJPc Qj
ĠGL j
HQ fj
Ġd HjY
ĠG Qa
Ġef MI
Ġeg dc
ĠGf HhH
ĠH bWY
aY g
Ġf SeM
ĠL YI
ĠdGf O
Ġhj ZaQ
ĠSG Yed
ĠhGdO JgG
ĠjQZH hf
Ġh dGf
ĠGdJ Kbja
ĠeSJ bje
X gGQ
ĠLdSJ g
ĠdQD jJj
ĠTaJ g
ĠQ Hc
ĠhH TGf
ĠJJ Gda
ĠJe cfG
Sf YhO
ĠSdha GcjG
ĠGdedG MI
ĠfG V
ĠedJ ReI
ĠHeSJ hi
ĠSJ QG
ĠHJ WHjb
ĠdGj bGa
ĠT aGA
ĠGU jHJ
ĠGdM Sf
ĠQjGV I
Ġdd hcGdI
ĠHjQ J
ĠJ bGYO
Ġc hSjdI
Ġjhab ce
ĠGdL QhM
Ġe YdbI
ĠJN ejf
ĠGdVh VGA
Ġg HhW
ĠhGd NGU
ĠeU ee
ĠQ Gf
b eG
e ef
ĠeQJ HI
L PH
Ġc jc
ĠGH g
Ġfb Vj
ĠGdHWG WG
ĠeL ghO
ĠGJ efj
Q hYg
ĠHe geI
Sf MJGL
Q MH
ĠGNHGQ g
ĠJdeS fj
ĠGdO bjbg
GQj R
Ġg OO
ĠJU a
ĠddGL JeGY
ĠGh j
ĠGdGM jG
ĠGde eG
ĠcJ GHg
Lj L
ĠaYd fGg
ĠGdcf R
ĠGdeYO fjI
ĠeO JgG
ĠGbJQ MJ
ĠGdW jf
G je
ĠYSG j
ĠGV ef
ĠGWa GdG
ĠcQH dGA
ĠaQG Z
ĠJc SH
ĠGdeQG Md
db jI
ĠGdbj he
ĠN OGY
ĠejR I
jO hf
MQ R
ĠJha QJ
ĠHU QGMg
ĠGdeYJ GOI
G bOe
Ġhb QGQ
Ġhef P
ĠJ dGYH
ĠhGdJS QjM
ĠHG SdhH
ĠGdYRjR I
f Xja
ĠGSJ L
ĠGQ HG
ĠJfXQ jf
Ġe QS
Gd GU
Pc hQ
ĠecQ QG
Ġb ad
ĠgGJa gG
ĠbejU c
hJ Tj
aGA GJ
Ġh dH
ĠGe HQ
ĠjYhO hG
ĠGdSda GOhQ
ĠGdaJ jI
ĠT hg
ĠjQjO fj
ĠNO eJc
N WI
ĠJNHQ g
ĠGdea hVI
GQO h
ĠGdGQL GA
ĠJY PQ
ĠGfa UdJ
ĠYd b
ĠGdY hG
GY GOI
Ġf Hjd
ĠP Q
ĠHdG Og
hg jf
Ġe bHd
hL GJ
ĠcfJ i
ĠGdMd HI
ĠdG OGA
ĠH hjO
ĠT gGOGJ
ĠH I
eHG TQI
ĠJV WQ
e KdG
eGY jd
ĠGdeJge jf
ĠU GOQ
ĠGdeR GQY
hGQ h
ĠGSJ fJGL
ĠGdb QGUfI
Og GQ
GdJ bQjQ
ĠHN j
ĠGQJ HGW
G Nd
ĠHM PQ
ĠLjO hf
ĠQ W
ĠdGSJ YGOI
ĠhdG OI
ĠGdHOG jg
ĠGde FGJ
Ġcd a
ĠdGY VGA
ĠGdQ hc
ĠbVjJ fG
ĠhG YO
GMVQ hG
Og I
ĠhK bJ
P HJ
ĠGfUM c
ĠGdGjW GdjI
ĠGdGf GHjH
Ġd QaY
ĠGdQ eGd
ĠGdT GYQ
ĠJJ GNQ
GWdb hG
ĠdGJ QjO
ĠMGd ce
ĠGdeT GgjQ
dGej P
dG GYQa
ĠhHQGeL gG
e hV
ĠVQ hH
ĠdO jI
ĠGdR hGQ
ĠGdYb GQ
ĠGdY jGOI
ĠR gQI
ĠGHOG A
Yc GS
Ġdja QHhd
ĠdG U
Ġdj hfGQO
ĠGdGj bGY
ĠUa MGJ
Jg Q
ĠQLGd fG
G XgQ
ĠGdeZ QHj
ĠGdGdRGe jI
ĠJMW je
ĠYfG jI
Ġegh hS
ĠJc SQ
ĠGdGYJ QGV
ĠW dbGJ
Ġhe hbY
ĠGdM SGA
Gd aG
Ġa GY
ĠM Gdj
Sc I
ĠbH dc
ĠGdd MGb
ĠNV QGA
ĠeJ hSWI
ĠGdGT YGY
ĠO fjG
ĠbO Ge
Q f
Oj bj
ĠHdG Z
ĠH hjf
ĠSG j
ĠgG hGj
Ġj deS
Z QjJ
ZG Rd
ĠeY f
ĠLQG MjI
Ġddf bd
Ġj VM
Hd jf
Ġj OGc
f Yg
ĠbQjH jf
ĠM QL
ĠL hGFR
ĠSeYJ j
GMJ QS
ĠJJ chf
hGJ jI
ĠddGf VeGe
ĠGdd Mhe
H T
S jGOI
ĠM We
Ġd YjO
ĠeQ QfG
ĠGdg OjI
ĠUGd MG
Ġehf Qh
ĠgOa fG
ĠGdbOje g
ĠcGe dg
ĠJ jd
ĠHaYd g
ĠGdSe he
ĠGdGSQ jI
Ġbje Jg
ĠGde aghe
Ġaj deG
Ġgh GJa
Ġf eGPL
ĠGdM GaI
jS g
Gd TQ
ĠGM PQ
Ġhe Gdj
Ġf gJe
ĠGSeY fj
ĠGdS dG
ĠHd jQ
ĠGbJ UGOj
Z GR
ĠSJ fJgj
ĠHG SQgG
GVWQ QJ
ĠZ h
ĠGdJ QG
ĠfG T
ĠcdG hS
ĠeZd bG
ĠGde MS
Q Sd
OJ ge
Hj Qj
ĠGde de
ĠhGd Gj
ĠT GWF
ĠGdQ JH
N Ga
R hQ
ĠGda QM
ĠGe Jf
ĠLO jQ
ĠJQG ajS
Ġaj TQ
ĠdG HS
ĠGdLfG RI
ĠH WGb
ĠfT QH
G hj
ĠQcHJj c
ĠdGf h
Ġde Kd
GO h
ĠbU Oj
ĠU dGJ
ĠjG THGH
ĠhGLg J
ĠhYO Jfj
ĠO ehY
hGd H
dG RGd
W hY
ĠM GdJgG
ĠGL QG
VG ag
ĠGde YdheI
ĠGdOhejf jcjI
GQJ Oj
ĠHc QI
ĠeQcR G
Ġj SQ
Ġh WGbe
ĠhJ OGHjQ
YjO g
ĠhMHjH fG
ĠddM eGjI
ĠSGYO hfj
d Yd
HW M
GNHQ gG
ĠJSGYO fG
ĠJ hOj
ĠdhMO fG
ĠGjOj fG
ĠM eGQ
L ejdI
e GeG
ĠeN jaI
ĠGYW jJgG
ĠHe gGe
Ġh hRGQI
ĠSG bJd
ĠS GUHM
ĠdG Gdg
ĠO eg
ĠGdbWGY jf
Ġc QS
Z hQ
ĠebJ fY
ĠGdYH jO
ĠGdNJ Ge
Ġefa Ud
ĠhS jGSGJ
ĠGdY fGA
ĠHJ hLjg
ĠO Qj
ĠMed J
Ġg hL
ĠjG UGM
O NdJ
ĠGdebGJ djf
ĠeJ RGjOI
dGJ bdb
ĠL Ga
ĠH bJdg
ĠO SJ
ĠY ejdI
ĠJa Ujd
ĠhGd abQI
Ġd Yd
dh i
HGH GJ
ĠGdMGS eI
ĠJ hL
ĠQH WI
ĠGdZ Sjd
ad hS
ĠGf bdH
G cJH
ĠGe QJ
ĠhGd jhe
ĠGS GJ
Ġed F
ĠGdGe QjcGf
ĠGSJ TGQI
ĠGM W
GMV Qj
GQ Md
HG Se
hc jd
ĠGe hGJ
M dI
ĠeN GWQI
ĠQ Meg
ĠGdeWd bI
ĠJJ faS
ĠGdc hjJj
HGQ J
ĠGdGb dGY
ĠGdefNaV I
Ġh YhO
L fj
ĠGdGf MGA
ĠGHj Y
ĠGdGFJe GfjI
ĠhG UdGM
ĠcjejG FjI
QG jJc
ĠR fR
MJ hj
Ld HJ
ĠGJ JPcQ
ĠT ahjG
ĠfG KGf
Ġh SH
GLjc SJGf
GV ZW
Ge dJ
ĠMSGH c
Gd hKGFb
GNHQ c
ĠGJ UhQ
Ġeg QL
Gda JjGJ
cG jd
ĠGM c
Ġe ejRG
ĠhHQ hJhchd
D fG
dg j
ĠfQ Sd
ĠHGdN ha
GdGe jQ
TGQ cJ
ĠJH dj
hcGf g
Ġdda hR
ĠSGYO Jfj
Tj g
ĠJYb jOG
ĠHGJ eGf
ĠGdeJeQ Ojf
ĠSj K
ĠHGdN jQ
ĠGdM QHj
ĠGdQ TjO
ĠGdhX jaj
Ġh YedjI
SG bW
ĠL hjI
ĠaG ge
ĠGdGfU HI
ĠH jG
ĠhGfgG A
ĠLg OG
ĠjSJMb hf
a dbO
ĠGdG cGPjH
Ġef h
ĠGZ JUGH
ĠGdNd hj
ĠGO N
ĠdJ Naja
b GdGJ
ĠfH bj
ĠeY Gg
ĠdGjc GJ
ĠGWaGd fG
Oa YJ
G Mj
G ce
ĠbQGQ GJgG
ĠGdSGN fI
ĠL GQjI
ĠGj R
ĠGdhL hg
S he
ĠGd GdGJ
ĠeDN QJg
ĠGde GOj
GY KQ
d aI
ĠSJ Ud
ĠGdOSJ hQj
ĠddGY LGH
ĠHGd HQ
ĠYfO FP
Ġj fSi
ĠJHJ Se
ĠGdNW hQI
ĠhGdGSJ KeGQ
Ġj Ydb
ĠGdeTJ Qj
hd SJ
M adI
Ġhj H
ĠHGd SjO
ĠGR OGO
Gd djd
jf LG
NU GF
GMO i
ĠHQfGeL G
ĠLd GdJc
ĠGj QGOGJ
ĠefG O
ĠGdbQ hV
ĠeG Lj
ha J
Ġgh jJg
Ġh bGF
eG GdPi
Qj YI
ĠjGJ hG
ĠPg fj
ĠGdejJ I
ĠfR ja
ĠHJT Zjd
Sj QG
ĠjQJ Ohf
ĠJdJ Re
ĠGdSjGSj jf
ĠM Hdi
Ġj j
ĠJ hLH
Wd bJ
ĠJaS Q
O b
ĠQZ HGJ
ĠGdeNd hb
ĠGdP GJ
ĠHGdZ QaI
a QG
ĠhU j
ĠGdGbJUGO GJ
ĠeSD hdj
cf O
ĠH hdGjI
ĠQS GdJj
ĠSGJ Qc
Ġg hQ
OGF gG
L jfj
bW Q
LO O
ĠGdH dOj
eGY g
ĠGdSd WGf
ĠGJ HG
Ġj HYK
ĠQ Vj
ĠGg f
Gh SeR
ĠeGd ha
ĠSGO aY
ĠGdeX Gde
ĠM Hd
Ġhf HjfG
ĠGdGe hGL
ĠJSJWjY hf
Ġg Ga
ĠGdJ hLjgj
ĠGdJ GNQ
ĠH Zj
ĠJJ Udj
cja jI
eh fG
Ġab QI
Ġj GQOI
ĠUO Ge
ĠQ hHjf
bO he
ĠJGNP fj
ĠhGd abQ
Ġhj HOh
ĠGdeg JeI
ĠVQH g
j hSa
ĠMe bi
ĠGUdGM g
ĠGdO g
ĠddJ QHjI
ajf g
ĠHGdX HW
ĠddO Ye
jJ Ge
RGH jd
ĠhcGf j
Ġcjdhe JQ
Ġd F
Ġe Ydb
MQ T
ĠGdhQ e
Me S
ĠfY Wj
W Gfj
ĠGdGSJY GfI
ĠGZ VH
ĠGdHO dI
ĠhGdW ad
ĠHJ O
ĠeT Qa
ĠeM Gd
ĠeMGhd GJ
Ġj hQc
ĠjSJ LjH
JY RjR
K hd
ĠTQjc c
dj Gf
U hQGJ
ĠN SGQ
Ġdg f
ĠGdOG aY
ĠGdg jQ
ĠJG hf
Gd Oj
JJ MOK
ĠJW QM
ĠeOg TI
HdZ J
ĠJMH jfg
ĠN Oeg
a jOI
ĠeU eeI
ĠGde chf
ĠGdfS N
SJ MUd
ĠcG Sj
SJ QG
ĠGdGYd Gej
ĠGdT HGf
ĠhGdG MJQGe
ĠJ gjH
ĠJaYd hG
Ġehf JjQj
J hej
ĠJe Kj
ĠeO QL
ĠGdGOYGA GJ
ĠHG MV
GO Qj
ĠU jfj
fH hd
Ġc djGJ
ĠJPcQ fj
Ġg T
ĠQG SG
ĠJ Phb
Ġj eGQ
ĠGde MXhX
ĠGdc dGS
ĠGdS O
ĠjM Qb
HGM g
GO jf
ĠGdeOa hYGJ
ĠGdY GFO
ĠGded hc
ĠJQJ GM
ĠGbGH dc
hbO eJ
ĠM GSe
MH hH
ĠT QGcGJ
Ġefg f
JHG c
ĠGdeSJ OjQI
ĠgjG cd
Ġa hGJ
GQ YI
Ġef RYL
ĠhGd Ye
ĠedJ Re
ĠGf N
ĠGSJe Yj
Je hg
ĠHSj GQI
GaYd j
ĠGdM GQI
a GQO
ĠhGde hbY
ĠdJ LfH
Ġd aJM
ĠU HQj
ĠGdL eY
ĠQGF MJg
ĠGMVQ g
ĠGdcGK hd
Ġe Tc
ĠQ SGF
Ġa cGf
ĠjMH gG
JY Ged
Ġa Ojh
ĠGf Sj
OG OJ
ĠLYd Jc
ĠJZ dH
ĠHdGO fG
ĠJJ Ndi
ĠGdJ cjja
ĠGj LGQ
ĠR GeHjG
YjO gG
ĠjfJ TQ
ĠHc jJ
ĠhGMJ dGdg
GYW g
ĠaVG Fj
ĠGdeD gd
ĠehdO haG
ĠGdGNJ WGa
ĠSf ehJ
ĠGdGSJ LhGH
ĠGf Gf
ĠGdGbJ QGY
ĠGjLGO gG
ĠeQj e
ĠGJQc gG
LH f
ĠJT Gf
ĠGSJe YJ
ĠGdSd Hj
GQj h
ĠYGF dJgG
ĠjaYd hfg
ĠHGd hMOI
ĠGdH dh
ĠeGJ QjO
Jhb YJ
QO jf
ĠGdS bhW
ĠMW jJ
ĠKGd KI
ĠS fS
ja jf
ĠdGN QGL
ĠGLd i
ĠGdYGF djI
ĠNSQ fG
hV Yg
hGF b
ĠSQ QJ
ĠQ NjUI
ĠGdJW hjQ
c Gj
eGQ jf
ĠHG gQ
ĠhGU HMJ
ĠjN aj
Qc HGJ
S F
Ġhe GJ
Ġege Jc
ĠOhQ gG
ĠNj GfI
ĠJJ GcO
ĠSGJ MOK
ĠhG hO
NO eJ
ĠeQV jI
ĠHGdGe e
ĠehfG ch
ĠJQJ HW
ĠGdGe heI
ĠLf hfG
ĠHfaS i
ĠGde HcQI
Ġdd Lfhf
R GY
Ġa Pdc
ĠGdQ VjY
ĠHGQ JcGH
QO Ge
ĠeMXhX jf
ĠM QGSI
ĠU Gaj
Ġj GfZ
ĠGRO jGO
e GdG
ĠhJ hSjY
ĠjSG aQ
ĠGdeDS Sj
ĠGdGY TGH
ĠH GFY
ĠU MJc
L QG
je jf
c dj
ĠGdT hchd
ĠGM UGAGJ
ĠLfG Hce
ĠbW Yg
GcJ TaJ
ĠGdL Gf
ĠGdeJYG bOI
ĠeJ hb
Ġfbd gG
ĠL hGH
GdT cd
ĠJ hj
ĠGdaQ f
ĠGc SH
ĠGdGcS Ljf
ĠJMGhd j
ĠGJQjO jf
ĠGdM Qa
Ġhf U
ĠQM jd
ĠdG jRGd
T iA
ej jf
ĠGdeSJYe QI
Ġef Jg
hGF a
ĠHHW F
ĠSjG OJc
ĠGde ejRI
GT JQj
ĠhT Gfg
SJ LO
ĠGdeMGaX GJ
ĠdG RGdJ
ĠQj KeG
Ġg hdeR
ĠGSd MJce
ĠddJ LGQH
ĠHGdf LGM
ĠGdJ hSY
ĠGc G
ĠeY U
ĠHgPG Gd
Ġj WHb
Ġf Kb
H Wd
M GdjG
Ġb hJg
ĠGdL OI
Ġe bGW
ĠR GjO
ĠWQj bJc
ĠH Oe
ĠSJJ RhL
L a
ĠhH Gde
bGF gG
ĠGdTQ hY
ĠddG cd
ĠGdeeQ GJ
ĠHGdGM Qi
ĠJbGQjQ gG
K dg
ĠGcd g
Ġa hQj
ĠYb HI
HY jO
ĠHdO c
ĠGdGjQ GfjI
Ġhjf J
ĠeY b
ĠGdeY GQc
GO aY
jQGf OG
ĠGf Ljd
ĠjGd jJ
ĠGdJ aSjQ
ĠLf hHG
b Jj
GO gG
ĠNGF f
ĠYhO Jj
ĠGdS hGFd
ĠTc hc
VQ hGJ
ĠJO Nf
ĠGdQZe ef
ĠM GdJ
ĠGb aR
ĠJ jfG
GaYd gG
ĠJQ MjH
Ġja QL
ĠGdeZfGW jSj
Ġbdj dg
QG YGI
Ġaj jJ
ĠHGdJ acjQ
Ġj dHS
ĠeVj YI
ĠGdeMGOK GJ
GH bGJ
ĠeS cf
hJ Qi
ĠhGdGO GQjI
ĠGdeSj Mj
K GK
Ġj MSf
ĠGde bje
GQ jS
dG GYde
ĠQbe c
Gj LH
ĠjG N
ĠddG ZPjI
TG aI
GMH ce
GJab fG
ĠGdZ hda
ĠGde P
HGf fj
Ġh GeG
Qa YJ
ĠeS hj
L SS
ĠjJ MSf
V ej
ĠbfG Y
ĠhGSJ ZdGd
ĠGLYd gG
Ġe FhjI
ĠGdHf hc
ĠSG bhdg
ĠM SGA
ĠhGb aG
ĠHGZ dHjI
hb j
ĠjbJ Vj
ĠGdO jfj
ĠgQ bd
cQ hfI
ĠdGf ce
ĠGJ efG
OQ jf
ĠWY GeG
ĠGdY UhQ
Gj eG
ĠeO fj
ĠGdedG Yjf
ĠGdY hOg
ĠGdT gGOGJ
Ġaj cj
Ġed Re
ĠZ Gd
ĠbJdJ gG
ĠJM Qb
Ġe QGO
ĠJO HQ
ĠJaYd jg
ĠGdc jS
ĠGdJcfhdhL jI
ĠGdGL QGFjI
ĠYGF djI
ĠfGO QG
ĠGQG ce
Gda jOjh
ĠGdT gjQ
Ġgj g
ĠGdS ge
Ġc QGe
ĠHGd Yfa
jL G
ĠefT GI
Qj Hg
ĠbQ hf
Ġe cSjc
Y dGhI
ĠYT hGFjI
ĠGdMGL R
Ġde MI
ĠGdeU GYO
Ġa dg
g P
ĠGb SGe
ĠJ QJc
ĠGdh S
g jO
ĠhGd TQWI
Ġdf NQL
ĠhGdGbJ UGOj
ĠfaS jG
ĠH SGWI
ĠMPG Fj
eGY OG
ĠbGF eG
ĠM Oj
Me V
ĠGf HGA
ĠGdf jI
Ġh HYKI
GNHQj g
ĠGdG OjGf
ĠMche Jj
ĠGdUGQ hN
ĠGda MhUGJ
ĠHf f
ĠJ OGaY
ĠYGF dj
dG GQjO
YG gQI
Ġdd MeGe
aS GQ
ĠjOY hf
ĠeM hQ
ĠfR gI
Ġe WGYe
ĠHS MH
ĠHMO hK
ĠeGfg GJf
ĠaQ YjI
ĠHG Ydi
ĠGdcjejG Fj
ĠHGdGf TWI
ĠYd F
ĠU eJ
ĠGf VeGe
ĠHhG MOI
ĠGdSN ja
ĠJLf jO
J jO
GH gG
ĠSJ g
Ġf SGYO
ĠhVY hG
QG LI
ĠR GFQ
V Gef
ĠGdb aU
Ġh ai
ĠGM ej
Ġdde TGQjY
ĠGdLe QcjI
Ġd MX
ĠeT GHg
ĠddS NQjI
T jc
ĠGdcK jQI
ĠGdY R
ĠR GFO
ĠeV GOI
ĠGde GQ
Ġhf Xe
ĠGdGSJ QNGA
ĠMed GJ
ĠHG jf
ĠGdK Gfi
ĠeQG Sd
ĠdG YQa
Ġghdj hhO
ĠO bGjb
ĠGdeJ fG
ĠJ hGe
ĠMQ HG
ĠeMd jG
Ġh Ke
ĠGdQH M
ĠjQJ aY
G Ud
ĠHj dG
Zj dg
ĠQhM g
ĠYGO hG
ĠGdb QjHI
ĠhGdJ WhjQ
Ġde RjO
ĠeL Q
L hj
f bWI
ĠHGdGf L
ĠHGdeSJ bHd
ĠOeGZ c
Tc Qc
Ġd LghO
ĠeSJ hj
ĠN GQbI
ĠTOjO G
Ġe bGJd
ĠQG bUI
ĠecS hQI
ĠGdd Jj
ĠeR O
ĠGdYf b
ĠhGTGQ J
jf OG
Me jf
ĠH hJQ
ĠGdJRGe GJgG
ĠGdeaG Ud
S MH
Y dG
fS N
ĠGdP FGH
Ġc fR
ĠGdefG UH
ĠddT QcGJ
ĠKd K
ĠhG jLGO
ĠSG b
Ġed LG
ĠJMbjb GJ
ĠdJM QjQ
Ġa VGA
cGf g
ĠhS jGOI
ĠGJ Xf
ĠU QGN
ĠJY Oj
G cQQ
T jJ
ĠGM d
T hQ
ĠGdJ GQjNj
ĠddYed jI
ĠgR je
ĠGdG hYjI
ĠdG bhe
ĠjMJ VQ
GdGfJ XGQ
ĠGdSY jOI
ĠddS fI
ĠSGaYd gG
ĠLg Oj
ĠGdN Oe
ĠhY TQjf
Ġed NU
ĠddGN Qjf
cQ Ge
ĠGdhG SY
ĠGdU GdI
J GR
ĠGdefT GJ
hYfO gG
Ġf WG
ĠSJ Qi
ĠdT YH
ĠcQ hS
U hJc
ĠeYJ hg
ĠjSJ eJY
GdSjO GJ
ĠJJ GHY
ĠhGde YGjjQ
ĠbHd gG
ĠjSJ Zd
SH jf
e TcdI
ĠVY jaG
Ġh dce
ĠGdO YGA
ĠGdeSJ hOY
ĠeGQc h
ĠhGd dG
ĠM GR
Y ejd
ĠhM hT
Ġef ZhdjG
Gb QG
ĠGY OG
ĠGde gO
ĠGeJ OGO
ĠQG bU
ĠjO he
Se i
Ġf YJ
S aj
Gde UOQ
ĠeSJ Ye
ĠjU hQ
gPG GdQLd
ĠGNJ QY
GJQjO fj
GU Zj
jOj hgGJ
ĠGdefT hQGJ
Yj Gd
ĠGOQj Gf
ĠhM d
ĠhjdjGe R
ĠGde cG
ĠGdh Sj
Ġ VGL
ĠTGQ dj
ĠNW a
ĠQM dJc
ĠaQGf cdjf
ĠGdQc GH
ĠZGdH jI
ĠHM hK
ĠJT h
ĠGJPcQ g
ĠhGde Sdejf
ĠYU GHGJ
ĠeUO QG
ĠGdH GfjG
ĠGS gGe
SG MUd
ĠjO gG
ĠJS gjd
ĠGdb Hd
Ġef UI
ĠGdf Md
ĠJfJ TQ
R hfG
S fO
ĠGdfhG Mj
ĠefG UH
ĠdM adI
ĠJOY hfj
Ġjf gj
ĠGdSjG L
ĠhGL Hj
ĠHWQjb g
bj HI
ĠGde hUi
ĠeG H
gL QI
Ġj de
ĠGdP NjQI
ĠhGSJ YQGV
ĠGdJ SGeM
GQj M
ĠeM LhR
ĠGdH ZGA
ĠGdGf Ljd
ĠeO jQI
FG Sj
Le jO
T fG
Ua jI
Ġhe SGYO
hM jf
dG jf
ĠLR Fj
Wj M
ĠHhJ S
Ġddb hGJ
ĠhGH OG
dh dG
ĠdGf S
bGF jG
ĠhhO R
QG Lg
ĠdJ SJ
Hc GA
ĠGdeS LdI
ĠGdGe KdI
bG bI
Ge QGJ
ĠHGd HjFI
ĠSJ SGYO
ĠGe Kd
Sj GQg
ĠLhg GfS
ĠhGdGJ UGd
ĠGSJ hfjG
QS jf
Ġehc dj
Ghba hG
ĠM f
ĠGdeQ hMjI
Ġchf hQ
GJ aGbjI
Ġehd OQ
ĠZQj Hg
ĠGdRj GQGJ
M Qa
ĠGJ abO
Ġh HOGJ
ĠGda c
GdL Mje
ĠaGT dI
ĠePcQ GJ
ĠGde QS
ĠGdc QjSeGS
ĠJSe Yj
ĠhGd fG
ĠdZ R
bJ ce
ĠGdJ Tc
ĠMV QJc
ĠhJe cjf
ĠGdGdJ MGb
S GQi
ĠGdGPG YI
ĠcGe jQhf
ĠHGN HGQ
Lf Oj
R OGO
aJ ge
Ġa cQj
ĠGdO YG
je dc
ĠGdJT NjU
Wj hQ
Ġb hg
ĠL HJ
ĠhGd GQV
Sf Qi
ĠP QI
N ef
ĠddU jO
ĠGdGe jI
ĠSf hjI
ĠGdebO QI
ĠGdJ PcQ
ĠecG aGI
GdJ MOK
a Gfj
ĠGdMbjb i
ĠGdJ QGK
hGJ d
NOe g
ĠYhO Jg
KQ GJ
Qb fG
ĠjM aV
ĠGZ QGVj
ĠGVG ajG
YGO d
ĠGdSJ QI
ĠT hGZd
ĠJeJ O
ĠjLO hG
ĠHe OjfI
ĠGdMV GQGJ
LR Q
jGd gj
a OY
Qj jd
ĠGdY Ra
ĠHG jLGO
Ġjf hj
ĠGdGUW fG
ĠjJcde hf
Ġjc hfG
ĠYfj aI
ĠHe hJ
ĠJ hdO
YH J
ĠGdU NQI
ĠGdeJ GM
ĠHJS dje
Ġgf Oj
hd dG
ĠGdJ RdL
hGR fI
ĠGdMSG SjI
ĠKdGK jI
ĠO aJQ
ĠGdefJ Ua
ĠL gf
ĠGdLe YjGJ
cd ej
ĠdeSGYO Jj
ĠhGd gOhA
ĠGfg f
Se e
ĠHU YhHI
ĠLR Gc
ĠZdW Jc
GK fjf
ĠajJ Gejf
Y TQhf
ĠGdQG bjI
ĠjMH g
ĠS MbG
ĠGfJX GQc
GUO b
Ġd hH
ĠbQ T
hG YQa
ĠhGde QGab
ĠSG ZGOQ
ĠL HgI
ĠJGNP gG
aG VI
ĠGdQF GSjI
ĠQ cf
ĠhG MjGfG
LYd J
ĠL hS
ĠGdb VHGf
ĠUhJ gG
ĠbQ f
Ġcj eG
ĠGYJHGQ g
ĠGdM QGe
ĠhGdGT NGU
Z dg
Hd S
Ġea GJj
bO ej
Ġf bj
Ġdh MGJ
GW H
ĠdJ YQa
ĠQ GJH
ĠeJ haQ
ĠddJ UQa
hO hf
ĠJb dH
ĠQGjJ ge
ĠdjJ hGfjG
hjJ g
QhL jf
ejJ I
Ġf hGa
Ġb jQ
ĠGdfG L
ĠGdGSJ SdGe
ĠGdJQ MjH
ĠeQJc Hj
SGA dJ
ĠGdT bjb
ĠHGfaS ge
ĠGdGSJ e
ĠjMed hf
ĠGQJ aYJ
Y LH
Ġd GdG
ĠGdO bI
GL O
ĠYO hi
ĠJH YG
cd hj
ĠQGF O
ĠMb ge
ĠJSJ Zd
ĠHhG LH
ĠG hL
ĠL dj
HG jf
ĠGdGZ dHjI
SG j
hb g
ĠhJ fGhd
TY hQ
HG LI
ĠGda Vj
ĠGdGZ fjGA
ĠGdO QY
ĠJbQj Qj
ĠddJU hjJ
ef hf
ĠJ Qa
ĠGfJ bGe
ĠNj W
SY jOI
aS Q
ĠH de
ĠbGd gG
Ġd bjJ
ĠGdb HGFd
ĠGaJ Mj
T gQ
ĠhJ OYh
Ġb GVj
ĠY ahG
ĠddG b
ĠGff aYd
ĠSJ MH
ĠJbUO g
ĠHGfJX GQc
ĠH HQ
ĠGj bX
ĠSj D
Ġaj JR
ĠGdH JQ
ĠSj N
Ġcj h
ĠeQJ GMI
ĠGdJ geI
ĠGdYGH QI
ĠHGdW Qjb
Ġh QS
Ġhj Yed
ĠLGF YG
ĠGdaV hd
ĠdM cheI
ĠGfJ QfJ
SH GfjG
ĠGdef UQ
ĠGdhQ bjI
jQ i
ĠGdGSJj dGA
ĠGe VjJ
ĠHGd MO
ĠhGdc KjQ
ĠhSd ha
GJ TYQ
ĠGde YJbO
hQj GJ
ĠGdeMGU jd
ĠGdJ Gag
ĠeSJ hOY
ĠJYWj fG
GJ OQj
ĠdGJ YQa
ĠS hfZ
GdGN HGQ
ĠY jSi
ĠJYQa i
ĠGdeg fI
ĠHGdGS i
ĠSj Xd
ĠdJ hg
ĠGHfJ gG
X eg
ĠZQG jS
ĠhGd jGJ
ĠGde Wdb
X Gag
ĠHQ eJgG
ĠhG aJ
e hS
Ġc Qjf
ĠGfc i
SQ hQ
Ġfa hP
ĠHb Gfhf
ĠHSj WG
ĠJQ Mj
ĠGdGW HGb
eL jGJ
ĠGdGL GHGJ
bW b
ĠGdGaZ GfjI
GdG Ud
ĠGdaj RjGA
jJ hLH
ĠbS WG
ĠGdab QJGf
a gd
ĠHY HGQI
ĠGdbG VjI
ĠSjf LM
bG jG
ĠGdc GJ
ĠaN GeI
GeS cJ
ĠGdJ UOjQ
ĠGYO OJ
ĠSYQ g
ĠdM ad
Nj GfI
ĠhV hM
ĠGYe Gdj
ĠhG WaGd
ĠGdd PGf
ĠQL Gdg
ĠGdOGF ejf
ĠGe GfG
ĠGKHJ J
ĠeS LO
M P
ĠQG MJ
G Yd
L S
Gd jd
ĠHG Rd
df HOG
ĠbO hec
hH GdJ
ĠYde fj
dja Rjhf
ĠGhR HcSJGf
ĠJT QjY
ĠfU fY
ĠJSJ Q
ĠJaG Oj
ĠGdJN ajV
ĠKef gG
ĠHe YdheGJ
ĠgPGGdb Hjd
Ġf dbj
ĠU OGY
ĠQa bI
ĠeSJjbX I
Ġj ghOj
ĠGSH hYG
f fj
ĠSj bOe
ĠGdRhL jI
Ġj K
ĠJQJ Ojf
Gd ag
ĠGW aGA
hGdj he
ĠhGdM eGjI
ĠJJ hbaj
ĠGh Tc
ĠehX ah
ĠGdJ QOO
ĠSJ bOe
Ġe hQO
ĠHYO c
Ġfjc GQGZhG
ĠGdJM ed
ĠddT QH
ĠGdGH hj
a hg
ĠJa Vj
ĠGda X
R hd
ĠGdeQJ HI
QjGV I
ĠbGW Y
Ġchd jf
ĠGTc Qce
ĠhG LYd
ĠJ SQ
Lj g
ĠLjQ ej
ĠGdJb djd
ĠLghO g
cJ Q
ĠGde gG
jd jG
ĠGdd SGf
ĠGdP fH
hG Gd
ĠGda fGA
Ġfg LG
ĠJd Mb
ĠQ HjY
hL Qi
ĠGdc jeG
ĠGdg hGFjI
JYJbO jf
ĠQZH Jc
ĠHjf g
ĠjSG ge
ĠjRYL fj
bd d
ĠhY bHGd
dGMX J
ĠGdU OGY
hjJ T
ĠGQO Je
ĠGPc Qc
e SGYO
Ġh hRjQ
ĠJ VGLY
ĠHWj FI
Se gG
Ġhj bOe
ĠbH dj
ĠJcd a
Qa Gb
ĠOj H
ĠGT LGQ
ĠYT hGFj
ĠGdc Ga
ĠGdJ QhjL
ĠhGdef J
Ġe Qei
GHj M
ĠZ GdjI
Ġdd LjT
ĠJe KGd
ĠhGdef XeI
L Gejf
ĠU GeJ
ĠjJ VM
ĠeG gjI
hH Pdc
ĠGNJ QGY
ĠGdJa hjV
ĠGdK Gfhj
ĠYHQ J
VGF gG
ĠGdY WGA
ĠhS Ld
ĠGdJfG SdjI
Ġh Nd
ĠGdN GQb
ĠJc GaD
ĠeJ GSaI
df NQL
hGY QHJ
ĠGQ hM
Ġeh MO
bGH dg
Ġb SW
Ġfa SG
Ġa eGPG
Ġdd NOeGJ
D S
ĠUOj bJg
ĠjfXQ hf
a LGI
YG V
ZjR SJGf
ĠL eGYj
ĠGg Gdj
L jOI
ab QGA
ĠY Gfi
GdS GOI
ĠJdG Mb
ĠdG TF
ĠGdL fjf
ĠeMGOK GJ
ĠGdGL GRI
ĠbVG I
ĠGdJ Hhd
f PgH
JSJ Ggd
ĠhGd fR
ĠMdh Jj
ĠeUa i
ĠGdfG Le
ĠhGdL Hd
ĠHGd SdGe
ĠGdJfG aSjI
Ġhf Xja
ĠaGQ b
ĠY hG
ĠY hfG
QH i
ĠjHPd gG
ĠHeaQO gG
Ġ VGY
bO QGJ
Y QJ
Ġh NOeI
ĠOj GfG
Ġjf TQ
ĠGdGN dGbjI
ĠaGJ hQI
UOb jfj
Ġfb dg
ĠjS GQ
ĠGdS Ljf
Md d
Ġbhd gG
Ġejd Gf
ĠGdeXde I
ĠSJ LYd
ĠHf hY
ĠJYJ Re
ĠGdJ eGQjf
Ġc hR
Je Gd
ĠfGF HI
ĠGdJV Gef
ĠR Hhf
ĠGYW Jfj
Ġj GO
ĠGfL djS
e TGA
ĠaGJ fI
ĠeNW WGJ
ĠhL eY
ĠY VdGJ
ĠGTNGU G
ĠHc KQI
ĠjMUd hG
ĠGdGe YGA
ĠGdGJ QGc
ĠejJ g
W QM
ĠhGde UGdMI
ĠGdeYJ Qa
ĠHL GeYI
ĠhGdH fc
ĠGdJY hjPI
ĠJN Gaj
HGd MOjK
ĠdGS jG
Gd efJ
ĠaG jQ
ĠGdYGW djf
g GfG
GfJ HGg
ĠhSd GeI
ĠaGF bI
ĠGdc GJH
Gf aI
e VMc
HG WG
ĠGdJbjje GJ
ĠGO GQj
ĠGH hg
ĠddSd WI
Ġj ejR
GF QjI
ĠJT hjg
ĠhGde cSjc
ĠHT Og
ĠhJ H
ĠHc eG
hdf Oj
ĠH hSJ
ĠHOhQ gG
ĠhL hH
Ġef f
ĠGJ Ndi
ĠGdGM JjGd
ĠjfGSH c
ĠHf Ua
ĠhGdJM OjGJ
ĠGdeQ hfI
ĠeGf Oj
ĠLK Jg
ĠGdU jGZI
eh M
ĠJdJ bW
HGH G
ĠZjQ ge
ĠH aQUI
GY R
hO gG
ĠGdGjQ Gfj
ĠeD da
ĠHhG SW
e Vj
ĠWd Hj
ĠeJ bOeI
ĠGdGL gGV
GS MH
Ġdd Je
hH c
QO g
ĠHGdG YOGe
ĠehbY c
ĠYQV j
ĠGJ NPg
ĠYfj a
ĠOG YT
Ġa GFb
ĠGdJY Qj
ĠHGS eGA
ĠGdchjJ jI
ĠGdM RGe
ĠGfJ U
ĠGdGb QGU
GdJ U
ĠGdR fRGfI
ĠGdeLJe YjI
ĠGdefW bj
ĠHGd YO
hG hVM
JSJWjY jf
ĠSJ QjJ
ĠGdM WGe
ĠJbJ Vj
ĠeY PQI
ĠGdG ab
ĠPGg HG
ĠYGj R
ĠGSJ KfGFj
ZjQ J
ĠeJ MOK
ĠGdX Qa
c HjQ
ĠUhQ Jc
ĠHjf J
ĠGU QN
ĠQj JG
Ge Qj
ĠeSH b
J Hjf
ĠddS jOI
U e
ĠGdH JI
Ġh KdGKI
ĠO NGf
ĠdG g
Ua MI
ĠJf aY
ĠeY HO
ĠJb aR
Ġce HjhJQ
ĠHGdGL QGAGJ
adSW jf
ĠGdS HG
ĠGdc jd
ĠhGde jGg
ĠTj dg
ĠGdJ hUjd
U eI
ĠeV GOGJ
QG jJg
ĠY GQV
SG WdH
ĠdG MJjGLGJ
NH R
Ġcjd Q
ĠSj GJhf
eQV GJ
ĠMa fI
ĠJc aG
ĠecGde GJ
ĠGj J
ĠWH bGJ
Ġbe Je
Ġe QGI
ĠeS jQI
ĠjM XQ
ge ef
GU W
ĠGdeMJ LRjf
ĠGdP NGFQ
ĠGdHG U
ĠJSJ LjH
ĠdGJ SJWjY
K hf
ĠH hGQh
b hHI
ĠGdeS fjf
ĠGdU ZQ
ĠYKQ fG
ĠSf h
ĠHGd eQV
ĠddGJ UGdGJ
ĠYGW ajG
ĠH KdGK
ĠhG gd
Ġh bQQJ
T LY
Ġjhe fG
ĠGd QaV
ĠGSJ LhGH
jO GO
ĠM dj
ĠhG Yde
ĠGHfG Fce
ĠGdGe OGOGJ
ĠhH f
Mh P
ĠQ Gda
ĠGN Jg
ĠGdGSJ eJGY
ĠGL QJ
Ġdde YGjjQ
ĠL Mje
ĠRhL jf
ĠGdGZ dGb
ĠjfJ be
hdO f
ĠGde cja
ĠOG A
ĠQLd jf
ĠJ TQM
ĠGdeV WdY
QL g
SjO S
Ġeb jGS
ĠYQa hG
hL ejY
ĠGdeYG TGJ
Ġj QV
Gdg I
Md hd
Ġchd jfR
ĠGLO gG
ĠddGZ QGV
ĠGdc Jj
ĠLGSJ f
TQ W
ĠeG SI
Ġjhe Gf
ĠScQ Gf
b dG
ĠGdb P
ĠH bdb
MS jfGJ
GMJGL c
ĠGdS hG
Ġjf Lh
ĠGdeM GQHjf
ĠGdGdJ gGH
ĠL ghOG
ĠjY bhH
ĠHGd GQV
ĠPc Qc
Ġe bje
ĠeG bdJ
ĠK jGH
ĠYb hHGJ
Ge V
N Hjf
ĠGdeT ghQ
ĠHb QH
ĠSj MVQ
ĠeGd WI
ĠGdJ GHYjf
ĠeG RdfG
ĠhGd bj
ĠJD P
ĠZ PGA
ĠMjGJ ce
ĠHJS Ljd
Ġj fO
GO hS
MS Hj
ĠGde Kb
ĠGdM QGFb
ĠYe dGb
ĠfT cQ
GJ T
Gd GY
hQ K
NHQ fG
ĠdQD jJg
X GaQ
Ġb hS
G hGab
ĠGdbGO Q
ĠHG MK
a jOjh
GdG YJ
j Xf
ĠhG UMGH
ĠSjf eG
ĠdM GdI
ĠGdJL hd
ĠMO jO
ĠGQ HGM
ĠdGfJ GL
ĠGY hP
ĠLQ MJ
ĠjJecf hG
h WdHJ
ĠJf cQ
ĠGdSjO g
ĠcPG H
f YG
ĠHG gJeGe
ĠQLd fG
ĠGdeN JU
ĠGdGSJ hGFjI
Ġaj LGS
ĠGY U
ĠGdGaJ QGV
bj dI
ĠdT gQ
Ġf ba
ĠeJ SGhjI
Ġh gf
ĠcG jSj
b QjH
Ġh Ydjg
ĠhJ Yed
ĠHGdW ad
ĠhS jQ
ĠHU fY
S aI
ĠH Jg
ĠH Qab
ĠMU U
PcQ fj
Ġd Gec
Ġg Ojg
gG gh
Ġd GdJ
ĠGdL QO
Ġdda JjGJ
Ġef UhQ
ĠhGdf XQ
ĠGde LdI
ĠGdW dGA
Ġc haj
ĠU jG
GQc H
ĠdGJ ajG
ĠhGdSd GeI
ĠGdeeJ OI
ĠGdc H
ĠGb QJ
ĠGh SGW
ĠGN WG
Ġcd jf
ĠYQV c
ĠGdbO Gei
ĠGdGSJK fGA
ĠGdY jfGJ
VY hG
Ġd VMGjG
eJ Gf
ĠGfg i
ĠMGd Jj
Ġa Gjf
ĠGdY Qja
aQ Y
ĠHGde SGhGI
ĠecGf I
ĠJNHQ gG
ĠGfJ JYQa
ĠMche j
hGd Og
ĠGfbG Pg
ĠGfeG W
Xg Qc
ĠHGdY cS
ĠGdjGH Gfj
Ġc Mhd
ĠSj bhO
ĠeL ghdI
ĠJf hY
ĠGSJ TGQj
ĠGdGW aGA
g hdg
ĠGh gGj
ĠY OjO
ĠGddj dj
ĠSeYJ fj
ĠhO hQ
ĠgG hQO
ĠGdT QaI
ĠHf RY
ĠhGdOj ebQGWjI
ĠJJMOK hf
ĠJXf g
ĠeU OGbjI
ĠJ HGdZ
Ġde SGdI
ĠGK fJjf
ĠQL GdG
Ġhj M
Ġh QHfG
ĠM bJ
Ġad hQ
ĠbHj M
ĠTj HGQO
ĠGdbGJ dI
ĠJb fjGJ
ĠJ hYjI
GdY Ge
ĠGU GHYc
ĠSjG SjG
Yh P
ĠddJ bOe
Gde YdheGJ
ĠHGd eg
ĠGdeGVj jf
ĠGdeJ cQQI
ĠSJ jf
ĠGM ce
ĠSf Hbi
ĠGde hb
QGQ j
ĠGddW jaI
ĠdJ O
ab QGJ
ĠGdeUQj jf
ĠT i
GL H
ĠGdGJ gGeGJ
Ġaj JfGe
V dI
Ġd bWGJ
ĠJd bGFjG
hfOj Gd
ĠGde HjY
ĠddG UGHI
ĠRe HGHhj
ĠGecf fj
ĠGdNj GfI
ĠeG SGI
ĠH Gej
ĠGdeSJ Yed
ĠdZ Qa
ĠhGdT QcGJ
ĠddeSJ hWfGJ
ĠHQG jGf
SG LYd
ĠeM V
ĠGdGgd i
ĠJYhj VG
Ġhf Qi
ĠHGQ OG
ĠZ djf
ĠQjc S
ĠGde WH
ĠJhba fG
ĠGdHU eGJ
ĠGLJeGY jG
ĠGH W
ĠGdefgL jI
ĠGV WdYJ
ĠeMH W
ĠHGde bGHd
ĠQ JHI
ĠGdc g
ĠGdUfG YGJ
Ġdd HdO
ĠeQ TM
Ġ I
ĠhGde TGQjY
ĠGdebQ QGJ
ĠGMH ge
J Gj
Ġh Oe
ĠGdeSJ OGe
ĠGjQ jf
ĠhGdOj g
ĠJGQjN jI
ĠO hjd
Ġd Re
HQ YGJ
ĠeY JU
e bGHd
ĠjMJGL g
ĠGdO QGLGJ
ĠGda hGJjQ
ĠhJ MOK
hGf I
ĠJW hQGJ
ĠddS jGSGJ
ĠSdGe Jc
ĠGSJ a
ĠLYd fG
ĠGdhSj dI
ĠJc Kja
jJ MOK
ĠMche Jg
ĠGdT GMfGJ
ĠeTQ hHG
Ġd jfj
ĠGdUa QGA
ĠM K
QG bj
ĠGdL QGI
ĠGdH jQ
Sj SJ
Ġa hL
hOG Y
ĠGde bGd
ĠU ja
ĠGHfJ i
ĠYe dI
ĠGdeY LHjf
GfO jI
dG Mb
ĠLja Qj
ĠGdY Jj
ĠJD NP
ĠGdJO QjS
ĠYH bQjI
ĠdG gGj
ĠGdKeGfj fGJ
ĠGdGJ SGb
ĠHMj GJg
Gde hVhY
ĠHe NJda
Ġf hec
ja Yd
ĠTNU jJc
Ġejc Gf
ĠH Sf
ĠS GQi
ĠbVG Fj
ĠR fRGfI
ĠGW GQG
ĠTQj WI
LGR GJ
eGQ Gjc
ĠLSO gG
ĠN eQ
ĠeJ bOe
ĠehGW fj
ĠKdG Kj
ĠMG hdj
ĠhGO GQJgG
ĠM bGFH
hGfJ e
ĠcQ SJ
ĠGddj djI
ĠJO abGJ
Gf Lj
eY fi
V WdY
ĠjGQ jJ
ĠH SG
ĠGdZ OI
Ġj YJfj
Gd Oe
ĠGdY dG
P dg
Ġdd bWGY
ĠdJ ZjQ
hfj g
ĠdN WI
ĠV d
bW f
ĠHJ OejQ
ĠJcPH jf
GM fG
Ġdd HjGfGJ
ĠO hO
ĠRhL G
ĠTQW jI
GQL Gd
ĠHGSe g
ĠHhb Jc
jecf ge
cdG ceG
ĠGdJ hbYGJ
ĠRe Ge
GH fI
ĠGYO g
ĠGUObGF fG
ĠGSJ GLQ
dc Gf
ĠGdGf NaGV
ĠSj WQ
GM bG
GM d
Ġjc SQ
Ġf Def
hJ hUj
Ye c
ĠGdGS GdjH
Wj FI
ĠeSJ OGeI
ĠSj QjfG
Ġc ha
ĠS ge
ĠGNJ JGe
ĠJc a
ĠGdGR hGL
bH dg
GSJ NOGe
ĠWj hQ
ĠTjd O
ĠQheGf SjI
Gde hbY
ĠGdM LQI
QL hY
b h
aS ha
ĠHU aJgG
Ġh HGQ
GQ e
Ġc GOj
hG K
ĠHjJ fG
ĠGdeTQ hW
J MjGJj
ĠGdeSJ gOaI
ĠfGej HjG
hH OG
ĠGdGL hHI
ĠGdP QGY
ĠhW ad
ĠGb GJd
ĠjJ MJe
GJj g
ĠGdQ ehR
ĠGdGfa QGOj
ĠGf HYGKGJ
ĠGdL QGM
ĠJM db
ĠGdgGJ ajI
ĠHOG hG
d hS
ĠGdef aPI
ĠJ GQG
ĠGfc cfJ
bJQM GJ
ĠHJ hGab
ĠU Oe
YQa hf
ĠGdeJ hGUd
G DcO
ĠO hH
ĠHQ hOj
ĠeGQ cJ
ĠGQL GY
ĠHG Oj
bd hH
Gd bjGe
hjQ i
Ġdchf c
N Qj
g Oj
ĠHYe dg
ĠRhGL c
ĠU hGQjN
ĠjU H
ĠU aI
ĠdJS hjI
ĠGdJ hG
ĠGdN QGFW
ĠGdeSj MjI
ĠJ QbjI
Ydj ge
ĠJf Gd
ĠM jGg
ĠGdMSG SI
ĠhJ hUj
ĠJbhe hf
ĠefW bjI
ĠZQ GfJ
ĠJ ed
bG YI
ĠeQg b
ĠeT GHgI
aG Yj
ĠffJ bd
hb aJ
ĠJhd jO
ĠGdH T
SfG NP
ĠYGF dg
ĠQe hR
Ġcd Hj
Ġj ejd
Gdb Gfhf
ĠGS Gdg
M eJ
ĠGdQ UjO
ĠGdh V
ĠGMV Qj
ĠHGdGQJ jGM
SGJ Qc
ĠGde Oe
Ġf TQI
ĠeJ hbYI
ĠMGL R
ĠheD JeQGJ
ĠJ GQ
ĠfG R
ĠH cJ
ĠGTJQc J
ce ef
ĠGdGfS LI
GTJ QjJ
ĠjG L
ĠHe hGUdI
ĠR hGLj
ĠhGdGf UGa
ĠGdR jJhf
ĠGdL QYI
ĠGdU Z
ĠjS YOfj
hdG MX
ĠJSe jI
Ġdde HGOF
ĠGMJ LGL
ĠfWG bG
ĠhGd YH
ĠGddhM GJ
chf hG
ĠR HGFf
ĠH ZGjI
fj Gf
ĠZ Gj
bGd jO
ĠGdbj GeI
ĠGdT aGg
Ġbe Jj
ĠGdYU G
ĠMPG Fc
Ġhjf Oj
ĠhGL JeGY
QG HY
ĠGdS eGYI
ĠeLj Fc
a gO
GH fc
ĠddM Qe
ĠQ MH
ĠGZ di
ĠGfg GQ
ĠGdeR eY
ĠGa MU
Ġj HO
ĠGdeU HGM
ĠHe TcdI
Ge gd
ĠHJ bjje
GfJ JYde
ĠR jO
ĠGN h
Jc QI
ĠeJ fGhd
ĠJGN QfG
ĠbO QJ
ĠGdeSJ GfaI
ĠHGd RhGL
ĠJYQa hG
ĠOG c
ĠGU Zj
ĠOj e
ĠLjQ Sj
ĠeQ VG
hjS QG
ĠGY L
Ġgj dj
ĠHGdf XGe
ĠZQa JgG
ĠGYe Gdc
ĠGYO Ge
ĠT edJ
ĠHQ FGSI
Ġeh K
hQG j
ĠWH N
ĠHGd Lfhf
ĠGYde g
UGF d
ĠhT QcGJ
Ġhcd fG
ĠG YG
LG hH
GfJ XQi
ĠJL Q
MbG b
ĠHOG aY
ĠGdeR GQYjf
jQ R
ĠN UGFU
ĠfLG MG
aJ jf
ĠhY bO
ĠHGSJWG YJc
ĠHT Dhf
Ġd NeS
PcQ GJ
eJ GcOI
ĠjGcd hf
Ġba U
ĠGYJ QV
Ġdj Gdj
Ġddb hI
ĠN S
ĠdJ MUd
Ġe aYhd
ĠS GgJe
ĠGdc hN
aj dj
ĠMW eJ
Ġh hLg
P FH
ĠGhb aJ
ĠJMbjb g
ĠL Gfj
ĠGdc jH
ĠHGfgG A
ĠaXj YG
ĠGYW GFc
Ġf bJQH
ĠjZ VH
Ġdd ej
ĠGda GQb
ĠGdGN hGf
Ġhe QGbHI
ĠJ GP
hg GJc
ĠGNJUGU fG
ĠU djJ
ĠGdehG RfI
Gde OjQ
F hG
ĠGdN jd
ĠGdGQJ HGW
ĠHGd GdJRGeGJ
hg f
ĠeY Ged
GT QH
ĠdJ OejQ
ĠGdYV je
OG FjI
Ġa QGS
ĠJW GQO
ĠhGdeJ YdbI
Ġ VGF
ĠHG jO
Ġhe Oi
Ġdj bhe
ĠHGe J
ĠJQc Jc
Ġd Mf
ĠhGdT cQ
ĠbOQGJ gG
ĠGdYO hGf
ĠH QGJ
Ġc aQ
ĠJMUd jf
ĠfgG FjI
j ej
ĠHGN JjGQ
ĠGdeLG hQ
ĠGMc GeG
ĠGdT WQfL
ĠGde e
ĠGdefG aS
Wa ce
Ġec g
ĠjVY hf
Ġhj YJHQ
ĠLG OG
ĠGT Y
Oa f
ĠJWHjb gG
Ġh QM
ĠGdd bG
djS hG
ĠJd aGR
ĠGO Yj
Ġhe N
ĠGdLfSj GJ
Ġfjd Shf
Ġhb QjH
ĠhGdf QhjL
ĠMP Qjf
ĠGdQ hH
ĠHjJ S
ĠY hV
ĠGdGK HGJ
M hQ
GSJ YO
ĠGYWj gG
ĠZV Hc
ĠeR GM
ĠHGdN WG
ĠGYJeO Jg
ĠJS Qj
TNU G
ĠfL MfG
eh PL
GLd Sj
GF Qjf
hG Kb
Ġhe DJeQ
G jOj
Ġd Yj
jG RI
Rj b
ĠJH Ojd
HhS Yc
ĠGd he
Ġa jI
ĠHO QGSI
ĠGfSGf I
ĠGdSM QI
hJ i
ĠM ceG
Ġeb gi
ĠHGj HQ
ĠGf LGH
HjQ h
ĠeUGH G
ĠY XeI
ĠSG MH
ĠGdGN QjGJ
Le dI
ĠaYd Jjg
ĠhGde TQOjf
ĠJJ fG
ĠddJ Shb
ĠeYJ bO
Ġdd QGMI
Jj J
ĠQG Ld
W je
Ġg GF
aQ R
ĠHGdL fS
Ġde TcdI
ĠR d
Ġdd YOGdI
ĠGdH bYI
ĠSj LYdc
ĠGc jGS
Ġed hc
ĠLGF J
ĠHGdGL eGY
Ġhj LQj
ĠGdT gQI
ĠddT QcI
f MI
ĠYGT J
ĠGdeOGaY jf
GW dGb
ĠGdc hGOQ
ĠJbhd gG
Ġfjc hdGS
ĠGLO c
Gd efRd
ĠQ hGHW
bj c
ĠGfJ TQ
ĠMe i
Ġgj hR
ĠMd eG
ĠdG MVQ
Ġdd HOA
ĠTjd Ohf
ĠGdS jd
ĠJfXQ hG
ĠLfG Jg
ĠgGQ aGQO
ĠGdJHQ Y
ĠOj Hj
hG Mj
ĠGMJ dGd
ĠdJ bhe
Ġef RYLI
ĠGK QG
Sf LO
ĠWYGe c
ĠGde Yed
hGf F
Ġcj K
Ġjf UM
ĠGdaQO hS
ĠGf Ua
Ġf QLY
ĠKe dG
ĠeNd hbGJ
ĠSQ bJgG
GdG MJ
ĠeH Gfj
dG MXI
hG T
ĠU jGO
ĠGN hg
Z Pi
ĠgGL e
ĠGdeJ haQI
HY c
ĠhGdG Z
ĠdGf LGR
ĠGdJeQ jf
ĠH efRd
Ġc HO
ĠfN SQ
ĠG aj
YH GQI
QG TO
ĠGSJF UGd
ĠhM cheI
Ġchf L
ĠYj hfc
hfGjJ O
ĠSde J
ĠQ hHQ
Ġege g
ĠMHj Hc
RM a
GQ Gg
ĠYP QGA
ĠYH jO
ĠSGf Oj
ja GA
ĠddM cheGJ
Le YI
ĠJJ QJH
cf jSI
J PcQj
ĠGQSd gG
ĠhGdeL JeYGJ
K Gfj
ĠhdG cf
KGd KI
ĠheY GdLI
ĠGdGS dGc
ĠjJ Lhd
ĠjN JHF
jG NP
ĠeD GeQI
ĠJfG Ojfj
QGO h
Sj bi
Ġhe cGa
H dc
VM cI
Ġcj hJ
Ġed A
Qa hf
T YH
Ġh Kj
ĠhGd HjGfGJ
ĠGdRf Lj
Ġaj Qhf
GOQc J
ĠGL QGejI
Se MJ
a hV
ĠGdeZ Ri
Ġh QGM
ĠjaS O
ĠGdJ eg
ĠbUO c
cJ jf
jSJ Mb
Gd HjJ
ĠGdbU hQ
ĠHGdGJ aGbjI
ĠGdeQGbH jf
ĠGdOG YQ
ĠSjbhe hf
Ġe hQLGf
ĠH cJGHI
ĠGdf b
ĠS hQ
ĠGb U
d Hj
fO bjI
edG MXI
ĠZ QGj
Z Oh
ĠMb gG
ĠehL RI
Ġaj jhe
ĠGdG YeGQ
ĠHGde TGQcI
Ġhe LehYI
ĠJW HjbGJ
Gc Sj
GSe YJ
ĠSGQ jc
ĠGSJfa GO
bd bj
ĠHdO jI
ĠHGdGe hQ
ĠddG hfcJGO
GdG W
ĠGdeL hgQGJ
Ġa GdJ
Yf c
ĠJ dH
ĠNd bJ
ĠGdSYhOj jf
ĠHLGf Hg
ĠSJ ZGOQ
ĠhR fg
ĠGN aV
QcR jI
ĠGdL hGFR
ĠGded Y
ĠT hQ
GSJ eJ
ĠGdJU fja
ĠSjaYd hf
Ġa fGOb
ĠGO Nf
V g
ĠdG b
ĠGdfehPL jI
ĠGdf UGFM
Yf UQ
JL QHI
ĠY jGOI
ĠJSJNOe gG
ĠhGde SGAdI
ĠHTQ W
f X
ĠGde cd
ĠJc hfG
ĠdJ hc
ĠeYO hOI
ĠGT Qa
ĠSj DOj
ĠGdefT hO
ĠZQ GeI
ĠGdS ad
Ġf Mbb
ĠJUOb jf
ĠjM GQH
ĠhQ hM
ĠHGQH QG
Tj h
ĠjYWj fG
ĠGdeL ghd
Ge GR
ĠGdh Gf
ĠGdZ fj
ĠLh Ld
hGA eI
Ġda MU
ĠGU M
ĠO jO
ĠhG bd
ĠJ LH
ĠN f
fG M
ĠSJ MVQ
f XQG
Ġdc SeHQZ
ĠHJM hjd
Ġdd Oe
he jI
hGd a
jR Q
dh Sj
ĠeO QS
ĠjJ Gda
ĠGQV j
ĠGdeJ Qh
ĠGdGSJ Z
Ġde Ud
ĠGaYd j
ĠGQJ GM
ĠJb djU
ĠGda GcgI
eh gG
ĠGdefb M
YQa Jc
ĠJNHQ c
SGH jY
ĠjJ chf
dG chf
ĠUhQ Jg
Ge LO
QGg bjf
ĠbfG Hd
ĠGSJe Qj
Ġhf XQG
ĠGNJj GQj
ĠGded bGI
Ġdd Mb
ĠhdG MXJ
c hH
Ġc jO
ĠMV hQc
ĠM bGF
ĠJha i
ĠGMJ eGdjI
ĠGdJe SGM
ĠGTJ Gb
cd J
ĠJLYd gG
Ġaj hfG
ĠU NQI
Ġajf T
ĠjT aj
Ġeb fY
ĠGdad ad
ĠhGdJ fajP
ĠeHG TQG
GSW hQI
ĠVFj dI
Ġf TWI
ĠGdef bhdI
ĠGdYb GQGJ
ĠGdchd hfjd
Sd hf
ĠGdN Qja
ĠbOe hG
ĠdjSJ Q
G jJ
ĠGW Q
GfJ gj
QGK je
ĠhO hd
dG Ti
ĠeZ fGW
ĠGdMj hj
ĠGfS MGH
ĠRe dGA
ĠTbjb c
ĠT dhf
ĠHj g
ĠGU GHJ
ĠT LY
ĠGdL hG
K Qj
ĠYU HjI
ĠGdGcJ FGH
gh eG
eG I
ĠGfa LQ
ĠGN aj
ĠGa GOJ
ĠYTQ g
ĠZ GHI
WG MI
ĠYd Ge
ĠJJ XGgQ
ĠdJ H
ĠGYO JgG
ĠJJMQc j
ĠdGJ aGb
hj bhe
ĠT GYQ
NHQ GJ
ĠfT W
Ġcde GJc
ĠGdN djI
Ġh dOjg
ĠGdg jO
Ġaj Lj
ĠSQ bJg
ĠHQH GOhS
Ve hfI
Wb S
ĠbJ dI
ĠV Yj
jL Ydc
ĠGdTg Qj
hG Xf
ĠGMVQ gG
ĠS fj
ĠY fGA
Gdb VjI
ĠeY GQV
ĠedGHS g
Ġe LH
ha bc
ĠeG hi
ĠJS NQ
M ad
be jU
ĠGNQL J
ĠOQ ge
ĠhV Yj
Ġd chfj
ĠJY PjH
Ġh QGjJ
Ġb hGe
ĠGdTe HGfjG
ĠOG Ndc
ĠGdGL jGd
Hj Hj
GdZ GA
Ġh hLhO
ĠGdYGW ajI
ĠhGdM ce
ĠaN e
ĠeG LO
ĠGdhG LHI
ĠHOhf gG
ĠJMV jQ
dJ fj
ĠGV WQGHGJ
ĠSQj Qj
ajJ Gejf
ĠaGS O
ĠGdeJ GKQI
ĠSe jf
ja h
GeG I
ĠGdY eI
ĠGYW Gg
ĠeT GA
ĠeYQa Jc
ĠGdcKjQ jf
ĠddY hGFd
ĠGac GQc
ĠGHfG Fc
Ġh HGcSJGf
ĠJ ejd
ĠL Hg
ĠGdM TO
ĠhT NU
Ġjf gGQ
h ZG
jJ fj
ĠQG jehfO
ĠGdeO bY
Gc GfJ
ĠhGdM aGX
ĠOjQ HGf
D SGA
ĠGdc hQjI
ĠGde QGS
V GQ
hV MJ
ĠSJ NHQfj
Ġf bW
ĠGf aj
Ġde d
ĠGdW hYjI
ĠGe O
ĠGdehG YjO
ĠLjH hJj
ĠGdQFjS jjf
ĠhGdGYJ OGA
Ġj QH
Ġdef Rdc
ĠGejQ cG
ĠaQ bG
ĠaYd hg
ĠfX GQGJ
ĠhGdO jf
Ġea Ud
ĠSM Qj
ĠjYhO hf
ĠhJQc jG
ĠGVY a
ĠO QY
Ġj OGaY
ĠHGdJY hjV
ĠdGL JeGY
ĠGdM GTjI
ĠGdR LGLI
ĠehSj bj
bU j
ĠfO Qc
ĠGhdG Oj
Ġjc SH
ĠGSeG Dge
N GA
ĠGdJ SG
ĠedG FeG
Ġede hS
ĠGdYU jQ
ĠhjT ed
hG bJQM
ĠeY ed
jd J
ĠKe dI
ĠGdc GR
Ġdc SH
ĠGNJj GQc
ĠehJ c
Sj GJj
ĠKGd KG
e Pgd
ĠGdJ OejQ
HGd g
Ġhe eKd
ĠYU jH
ĠGdd MXg
ĠHGd bGA
ĠjS Yhf
Qj aj
ĠGdeM QcGJ
ĠdJ OQjH
ĠGfL djRj
Ġh MGhd
ĠJYG bH
ĠGdL HGf
ĠGdR FHb
ĠGh cS
ĠGdQ FI
ĠfX GeG
Ġe RG
j jS
ĠGdM bhd
ĠLhgGfS HQZ
ĠSJ h
ĠGdWQa Gf
ĠV MG
ĠGdGT YGQ
ĠGYW hfj
ĠhG MUd
Ġh aYGdjI
QGa jG
ĠGdV ZhW
ĠYd ec
jfj h
ĠGdeHJ O
ĠJY Ra
ĠhL jRI
ĠhGf ge
ĠGdfe W
Ġehg hH
Ġf be
ĠGe OGOGJ
Ġef Ua
ĠhGd GV
ĠJMW eJ
ĠZ HGQ
Ġgh jJc
ĠUO eJ
cjf R
ĠeN jaG
Ġj ejfG
Ġdd QbU
ĠJM P
ĠddJ T
ĠHhQJ h
ĠbJd i
ĠS GfJXQ
d bGA
ĠGdKdGK jI
ĠGdO jQ
ĠhGd cj
ĠdG GYde
ĠehVhY jI
ĠGJ bOe
K GfjI
ĠGdGT YG
ĠJUQa J
ĠeG aYd
ĠGde PfH
ĠGdL Gfj
ĠGdN db
SfJ MOK
ĠGdje fj
ĠhdO i
SJ b
ĠGQH Yjf
jd hdI
ĠdbO hec
hdG A
ĠJY Wd
ĠjS NQ
Wd hH
ĠWQO J
GHb g
ĠGdTQj Gf
jd jf
Gfc G
jJ QjG
Gdf XGe
ĠJOY je
dG h
ĠGda hGcg
ĠGfa LQJ
GZ fjI
hQ Gfjhe
c ad
ĠO GfG
ĠeM dGJ
e djhf
Pc QjGJ
ĠGdeT GgOI
ĠGdOe i
ĠJ gj
ĠGdeSJ fOGJ
ĠJaJ bQ
ĠddJY PjH
ĠGdO ejI
ĠSG Md
ĠGSJ jYGH
ĠGSdhH c
ĠZjH R
Y hOI
hS cGQ
ĠGdHM jQGJ
ĠefG N
Ġdd haGA
GT G
ĠHG W
Ġf hej
ĠHQhc Sd
ĠGdeO aY
ĠbGd h
ĠGdGR gGQ
ĠHGdGT jGA
Ġh Mj
MS HJ
ĠGSJ NQGL
ĠJM XQ
ĠS i
ĠQ OGA
ĠdGJ RGd
f bhe
Ġhe TQhY
ĠGehGd c
U Gdc
Ġf Gf
Gdg QGA
ĠJbJ UQ
Y Hj
ĠTa hjI
Ġf jQGf
ĠGdL eLeI
ĠGdTj dg
ĠGdJ Yjf
ĠfhY gG
ĠdW aGA
S hG
ĠT hjg
ĠL Z
ej JgG
ĠHhQ JQ
ĠP HM
ĠJG jeR
ĠHJ GJG
ĠJUO bj
ĠHe SGFd
ĠGdNQj Ljf
ĠhRGQI GdfaW
ĠGdNR fI
ĠHGd SQWGf
f W
dGf i
ĠJQc H
c GfG
ĠQD jJge
ĠHj FjG
ĠHQ ejd
ĠNQj Lh
ĠZ dGa
ĠeG N
ĠbOje g
ĠNd Y
Gd GQV
ĠHGd QLd
Ġdde dc
ĠGQG ge
ĠdJ bhd
ĠJN Ti
Sj GJ
ĠGdY fH
ĠGdd U
ĠGdb ad
ĠMW h
Ġdh jO
ĠGdGMJ LGL
ĠdG hQhHG
ĠGddGF MI
Ġc GdH
ĠjaJ bO
ĠGdb hG
ĠGO Ndj
ĠcG Kj
Ġje RM
ĠGdSN QjI
ĠJdh K
Ġj Ged
Ġd hJ
ĠaQ hY
Hj R
ĠcKjQ hf
ĠGU Z
hjT ed
Ġdj hZhSdGajG
ĠP fhH
U ehf
Gde D
ĠGdYGe dGJ
jS cj
ĠjfJ ehf
ĠjDde fj
ĠSG ge
ĠVO fG
ĠeSO Sc
Ġg Gfj
ĠGb UQ
Ġehf Jj
ĠT MfI
ĠT GQH
UGO a
PH MI
ĠL QO
da jG
ĠYdGb Jj
ĠGN hGJ
ĠcgQ HGA
ĠGL SGe
ĠGdQ OgI
ĠYW hGf
ĠQG Md
MQc GJ
ĠJd bGA
fG Jc
ĠjS GQG
ĠQG V
ĠGdGSJ YeGd
ĠGSJNOe gG
ĠGdR GFOI
SGf OQ
Ġf Gd
ĠJY bjO
Yf UQjI
ĠGdef VOI
ĠGdeSJ fa
ĠSL GFQ
ĠGN dGbj
ĠUM ajI
ĠGV WdY
ĠhGM fG
ĠGdOY GQI
ĠGdeG SI
Ġdde ThQI
ĠHQ hajShQ
ĠjJ WdY
ĠfGJ Gdj
We Ff
ĠGH GO
ĠGQ Ld
ĠMe OG
ĠefGSH GJ
gQ jI
GH hc
jD Safj
ĠGdM Sjf
ĠGdT aQI
ĠGNHQ JfG
ĠHGN QGL
ĠGSJ eGY
ĠhGd GdJRGeGJ
ĠhJc hjf
ĠLGd SG
J haj
ĠGdT LGQ
Ġcde Jj
Ġj QJcH
Yde g
Ġf Md
Ġg hfL
hJ M
eJ GSa
f bY
ĠGYO gG
ĠhGdK GfjI
ĠGdf fh
GM RQ
bU GA
TQj YGJ
Ġe jYGO
ĠZ dG
ĠGdN e
ĠGf U
ĠhR GQJce
ĠJbOjQ g
ĠGdeJ RGjOI
hS h
Gde bQQ
ĠN QHJ
MV QGJ
Gd GNJ
Ġcdj geG
G NdY
ĠGdN GFf
ĠGdJ Sdd
Ua bI
ĠhGY QHJ
Ġa WhQ
SGf OI
ĠL jQGf
ĠR YeGA
SJQ hd
hj LhR
ĠHGdGQ gGH
ĠJSGYO c
f SJ
Ġc GQShf
ĠG cGf
bW jY
F JgG
GdM cheI
ĠYGW aj
Ġf aY
ĠSj QG
ĠYHOGd QMef
Ġe Hjf
ĠGJNP gG
hT I
ĠGe hGdj
ĠdQ hGfOG
ĠY Re
Ġc GJj
ĠaYd i
W HjbGJ
YG Ld
fG Hd
ĠGdbJd i
cJh QGg
Ġh aYGdI
ĠGJ abJ
ĠJYgO J
e TGhQGJ
hG ZQ
ĠGdf jGHI
ĠjacQ hf
ĠGdOe hY
Ġa GVj
ĠGdYGLd I
ĠGdf SjL
ĠGdQ hYI
ĠGdGSG WjQ
ĠQaj YI
ĠGfS MH
ĠL Hf
ĠjGH Wd
ĠhLO Jc
ĠS cGQ
ĠN aJ
SGH OG
ĠHGdW GFQI
ĠGdMQ U
ĠTQc g
ĠJUH Mj
ĠN hGf
ĠeOG hdGJ
GQJ ge
ĠJe Rb
ĠJY Q
ĠLGf jJ
ĠHGd V
ĠHG YdGf
ĠGdcd eg
Ġfb hOj
ĠGddGF b
GJ Qcfj
hGR GJ
ĠMeG bI
ĠJMO b
ĠGdGYJ HGQGJ
ĠGdQheGf SjI
ĠhGd YedjGJ
ĠHGdZ GA
ĠGdGYJeGO GJ
ĠHGde jGg
ĠGdS hQ
ĠYbO I
L ej
Ġf eGQS
ĠeN Gda
hHG Zh
Ġhb hI
ĠeMGe jG
ĠGf XQi
Ġj bOeg
ĠJQ g
ĠGdMX jQI
f LGM
ĠGdJ GeI
K a
ĠL QGj
Gdf hY
Ġe hfc
GJPcQ jf
L QjeI
ĠdJ Ydje
ĠGOY hc
ĠH SJ
Vj ha
ĠJS hb
aQ OI
ĠGdY Hg
JbUO jf
O eJ
ĠGS eGYjd
ĠS eQ
ĠcfJ JQjO
QO c
YTQ SfhGJeMJhi
ĠeQ hY
ĠNQj LhG
L Qi
dG bjGJ
ĠJf TF
ĠjbOe hf
ĠGdQ hGb
GSJ YOhG
ĠHef WbI
ĠeROhL I
ĠZ GF
ĠjJ fGSH
Gf Wdb
ĠGdGHJ SGeI
ĠHGd WGbI
Ġjf aLQ
ĠfJ RhL
ĠGddG Fj
ĠHGf fi
ĠGdK bjdI
G bWY
jO Yi
ĠGdR e
hGf fj
Sf jf
Ġdd bGA
ĠbGH dJc
hdG MXJ
ĠJbdb hG
ĠGdefGSH GJ
ĠGd Gda
ĠGde YdbI
ĠShHQ eGf
ĠYf bc
ĠGJ YG
jO J
ĠhGdJ NWjW
ĠbO QJg
ĠGdV HGH
ĠGdGV WQGHGJ
N fjf
ĠH Qb
ĠGdY bhd
ĠGdWjH jf
ĠJJ M
ĠGeJ MGf
ĠHe SDhdjI
ĠJSG aQ
ĠhL ejd
ĠHJ WhjQ
Je YJ
haj dO
ĠYQV gG
he hf
ĠJaG be
ef WbI
Qc J
Ġddg LQI
ĠNGQL j
ĠGdeNJd WI
ĠHj Z
ĠMR eI
ĠJhbY GJ
MG W
ĠGdeMG SHjI
ĠSG SGYOc
ĠheJ GHYI
N GJ
ĠGV ja
ĠH jcj
ĠJYbO gG
ĠHQ Ze
ĠeY fGg
hH O
ĠGS aQ
ĠHUa Jj
ĠeHJ O
ĠGdJYGhf jI
Ġe gGLe
ĠQhf GdO
jG OjI
Ġg LQ
ĠGdUM ajjf
ĠGdeed hcI
ĠddQ UO
ĠGdGf W
ĠdJ WHjb
ĠGdeSJ WGY
ĠJ hWjO
Gj hLO
ĠHU eI
ĠGSeY hG
ĠGfNaV J
ĠJbdb i
ĠGac GQj
Ġhaj g
ĠOhf c
ĠGdGb SGe
Ġe Ydhe
ĠddG WdGY
ĠeSJbH dc
ĠGdGO dGA
GdQ bjH
Ġf QcR
ĠGU aQ
QGc H
T hG
ĠGdQ VY
Ġdd LfhH
Ġcd T
ĠGdOGF fjf
ĠGdeYG UQI
ĠGdH N
ĠhGN Qi
ĠfU hU
ĠSG aQJ
ĠHGdGf UGa
ĠHGdW GHb
ĠM RjfG
ĠddZ GHGJ
ĠefOg T
bd jf
ĠGN O
ĠGQ SGA
db jf
ĠGdRhL jf
GJ hSd
ĠGdJf Xjej
ĠLj Hj
ĠGdecJ SHI
Ġh GQi
ĠTQ bG
ĠGHfJ fG
ĠGdJa LjQ
ĠGde NdU
a eGPG
c H
ĠYed i
ĠhJ DcO
ĠhVY jI
ĠhGdGQ gGH
Ġfh Hd
ĠGf H
ĠJU YO
ĠLhg Q
ĠSj SJeQ
ĠH hajg
ĠOYe g
ĠGdeOa hYI
ĠhJ YQa
GY hf
QG i
ĠGdGeJ MGf
ĠShd jaGf
ĠfJ GHY
ĠGdec hfGJ
ĠGdb de
L SO
RhL jf
YQV J
ĠMj hj
ĠeSDhd jf
ĠhHjf c
Ġd SQbI
ĠLhQO Gf
ĠS Gg
ĠfL hJ
GA J
Ġfe Vj
ĠhGdQ UO
LR J
ĠGS gGeG
QG Z
ĠM ehOj
LG jc
ĠGdcQ GJ
ĠM cGjI
ĠGc GOjejI
hd Oi
ĠHGd YOjO
ĠddY GFdI
ĠHQGfO hf
Ġdde O
ĠeR Q
ĠJ Ndi
ĠddJ aGhV
ĠfbO jI
ĠGgd g
ĠejO GfjI
hj dg
ĠGdeY f
ĠJL ejO
ĠjQMe c
ĠQheGf Sj
bG Oj
ĠGdc jGf
ĠGfeG FjI
ĠU Gf
ĠeD deI
ĠGde hbYI
ĠHU MHI
ĠUGO QGJ
G bQ
ĠTj iA
ĠeTJQc G
Hf aS
ĠaQU Jj
U ZjQ
ĠajQL jfjG
ĠG HGA
Ġh aGb
ĠNP gG
ĠGdeJ GHYjf
ĠGdT hGP
ĠX Qj
Ġeh Jj
ĠGV jY
ĠGdeb gi
ĠGdJ Gdi
ĠhGd TQ
ĠGdd Mf
ĠSj aj
ĠGfLR J
ja f
ĠjN W
ĠY QGb
ĠU aj
ĠHd he
ĠHef J
ĠfL JeY
ĠGdOj GQ
ĠGfJX Qc
ĠLhfj hQ
ĠGdGb hi
ĠjJWdH g
Ġb g
ĠHGd fR
GdQ be
eG jG
ĠGJ GNQ
ĠGdHGF Y
ĠGSJWG YJ
Ġgjd R
ĠGdeO Y
ĠH LghO
Qj GM
ĠfG aP
ĠGO GfI
Ġdde TGcd
ĠO GeJ
ĠGdfX GQGJ
ĠGdMO hK
ĠGd hec
SGf I
ĠGdgG FdI
ĠSJ YbO
ĠWGQ F
ĠhGdT Dhf
ĠGbQG U
ĠZ QjfG
Ġhe Qab
ĠGb GQH
Ġcdj fG
J PgH
ĠUO Qg
ĠGdW Yf
WGQ OI
ĠGLJeGY g
ĠGdgjQ hjf
ĠW hG
ĠdJ Gejf
ĠZ hdO
Ġdd MSGHGJ
ĠcQjSJ jfG
ĠGeGe gG
Sje GJ
ĠeXde I
Ġh Yd
hd OjfG
Ġh beJ
ĠGdR GFO
ĠGT LY
ĠGdeOQ Sj
ĠGdV QjHjI
R eg
Gd bGJd
hG NJ
Gfg f
Ġhj YG
g Gfc
ĠeNJd ag
ĠHGdS cGf
ĠGdaGJ hQI
ĠGOYGA GJ
ĠY QjVI
ĠM bjbg
Ġdd SjWQI
K QG
Ġf Med
eS GdI
ĠLgf e
jG WI
ĠGdc jajI
ĠOG Ndg
ĠeY Wa
ĠGSJ HO
Gde OjfI
fSG N
ĠGdef Gd
ĠHQ he
ĠcgQHG FjI
YG c
ĠdG aVd
ĠgPG GdJ
ĠGf LM
ĠGdad hS
ĠeO Ge
ĠGdeTQ hH
ĠeSJ Y
ĠGdaj d
N Qg
MG M
ĠhJe hjd
ĠLhfG KGf
ĠYd fG
ĠGYJ eGOG
Ġj hVY
ĠH hR
he Ji
ĠGdGJ j
ĠGdeQj VI
K jI
Gd HGQ
ĠGjOj ge
ĠW GdHG
ĠTj hYG
ĠGde QGLY
e DJeQ
hQ ge
ĠHGdS YGOI
hT G
Ġj QGgG
ĠGdc a
ĠJT jf
aG LGI
Ġa SGO
ĠHjc jJ
a LGQ
ĠhJ hHGZh
ĠGdj bjf
ĠGdHQ eLI
Ġj eO
ĠddG j
Hj hJ
ĠO b
QGF YI
ĠeSGYO g
ĠcGf fG
Me hO
ĠGSJ bd
ĠGdeL jO
ĠGKGQ gG
ĠQg jfI
ĠGdefWb g
Ġdd VQH
ĠGda GQS
Ġe edc
ĠedG Re
hJ dGMX
ĠjQ hG
Ġdde cGf
ĠGdc djGJ
J GJj
hd fG
OG jdQ
ĠGdM GO
ĠSf Yed
ĠddM GdI
ĠhGdY bhO
ĠaQjb g
J aYd
ĠR ej
dGM bG
L hT
ĠGdehG LgI
Ġeh Oj
GdG h
ĠgPG GdM
he J
ĠGNJ GQJ
ĠSY jG
YRjR Ji
ĠGdL Rj
ĠGdg O
hHGd WHY
Ġhb GeJ
ĠdO hdI
ĠeYd eI
ĠHGJ aGbjI
QhL Q
ĠGdSe cI
ĠGdeYfhf I
ĠGdO f
ĠjJ efi
Ġhd YH
GdT F
L GOd
Ġajg eG
ĠehG YOI
Gd Gde
YGF dJj
ĠGbJ Qa
ĠV Fjd
ĠeZ fj
ĠSG cf
ĠYb GQ
ĠeYXe gG
W aI
SH Y
Uj ZI
ĠJOY g
ĠHT Y
ĠOeG Zj
ĠGYQa ge
P hP
ĠhG bJ
ĠdGN HGQ
ĠMde c
ĠGdGfT WGQjI
ĠhGde cGf
ĠGT Yd
GdZ QaI
ĠGMJaX J
ĠjRGd hf
ĠH WQ
ĠGdc QjeI
ĠGdfG a
hV c
ĠhGdG YeGd
Ġd HdOGf
ĠGfJ hfj
ĠGfW hfjh
ĠGdW hd
Ġd I
ĠGdZ jH
ĠGdeQJ HGJ
ĠGbSe J
QjO hf
ĠSf Ud
ĠHM VhQ
QJ i
ĠhGde GfjG
ĠGdH hdjS
ĠHj Hj
ĠLghO fG
Sf HOG
Ġhj WdH
ĠGHJ SGe
ĠGdeY GdL
ĠecJ hHI
ĠTbjb Jj
ĠGSQY hG
ĠhJ cfhdhLjG
Ġf D
ĠhM QjI
ĠLS ej
SG N
Ġd aJGI
GS cJ
ĠGN hGfj
ĠeO ZTbQ
Ġhj LYd
hGW F
ĠGdJ fS
ĠdG YW
Ġb Qi
ĠGdW Ghd
ĠGdNO YI
Zj dj
H bjJ
HGd Ga
ĠJW QO
Ġj aj
ĠeJ hGVY
ĠJ OG
Ġde OjfI
Sj N
ĠSj XgQ
Ġhe K
JJ PcQ
ĠGgd gG
Ndj c
T ag
SGQ jc
ĠGdj Gf
ĠddM ce
ĠhM Ud
ĠeJRhL G
Ġhb ha
ĠebO S
GQjO ce
Gd GO
ĠY eg
Tj R
Je hfj
QJ GM
ĠGJ efg
ĠUd UI
ĠbU hi
ĠLfhf jG
ĠV GH
ĠGdg I
ĠGdT bg
ĠeM We
ĠHGH dh
ĠGdeJ WdHGJ
a gPg
QjJ T
ĠH WjA
ĠJM QcGJ
ĠGN JgG
ĠNd hOj
ĠSJ GJjf
ĠGdGSj hj
ĠJa Td
ĠGdc ajdI
ĠeT LY
ĠHjO g
hGc OJ
ĠbO jeG
ĠHGd Gb
UQ jf
ĠefJ XQ
GQ GOJ
cGf c
ĠGY Tb
ĠGT JQ
ĠGdeTQ b
ĠSjY bO
ĠHGdK bI
ĠJYW jd
GH Jg
ĠhJ Qi
ĠGdhb hY
ĠGdQH W
Hj Yj
hJ bhd
ĠGdcd i
Ġec hfGJ
ĠSGQ Sd
ĠGdXd Gd
ĠHe Oi
ĠHGd NW
ĠhU Ojb
ĠYGW d
ĠgPG Gdjhe
ĠhH GdGVGaI
ĠjQjO hfg
ĠHGdY QHjI
ĠGH Jd
ĠhGdhW fjI
ĠGdeQJ RbI
ĠaQG Oi
G Ydf
ĠHGdQ UGU
ĠdhS jG
L hfG
Ġf hJ
ĠJdJ bj
ĠhUa g
ĠGdQD hS
Ġdf chf
ĠGM QGQ
ĠGde Gfj
ĠU fj
Ġhe hGUdI
Ġe WjY
hH JQ
ĠSa jQ
Ġddef WbI
ĠGdc hGcH
ĠcgQHG Fj
ĠGdVY ja
ĠGd dJjf
ĠJ gGLe
ĠYGF OG
Ġh aJ
ĠHQ Gf
ĠhGdY hOI
ĠWa dg
ĠfM hj
Ġefg L
Sj h
ĠGdeM GQH
Sf aYd
SDhd jf
ĠGQ fH
ĠSH HJ
ĠGXf gG
ĠGdMe bGA
Ġd hGdOj
ĠjMaX g
ĠGf Sg
ĠeOj Qj
ĠGdef Xe
ĠGdeYJ hg
ĠP GJj
GW a
ĠGdJL gjR
ĠGdQ W
ĠeK GdG
ĠGdZ T
ĠGhgGj h
ĠJJ LGgd
QM c
ĠGdj ghOj
ĠO eGQ
ĠGfW HG
FJ Gf
ĠWeh M
ĠbO QJc
Ġf DcO
f YJ
Hj jf
ĠhGd LfhH
ĠU eeJ
ĠOY gG
ĠGdR heHj
ĠeS Ge
ĠGdQG Md
ĠGJ MQc
hjJ e
ĠS GFd
Ġdd bHV
ĠTGF YI
GfJ bd
ĠGdJL ejd
ĠGe dj
jd hJ
ĠhGdJ bOe
ĠJQ Oj
ĠOGQ jd
LRG ce
ĠGdL jH
SG gJe
JY LHfj
ĠhGdT aGajI
ĠGV YJ
j YJHQ
Ġe i
ĠhG SW
ĠGdGf gj
ĠJac jQc
ĠHGd YG
ĠhGe QjcG
ĠGdh Te
ĠGSW fHhd
J Ta
Ġh QH
f eQ
ĠGdeQ TM
ĠeTGQ cJgG
ĠN djc
ĠOY hg
ĠddL fS
GN JjGQ
ĠhGde fG
ĠGdHGW f
ĠJhUj dI
Ġd Sj
ĠGda Me
ĠGdPc jI
Ġc GdS
Ġh Gec
GT cQ
ĠS HGMI
ĠGdU hQg
ĠGdGa GJ
ĠGdJN Rjf
ĠOhG jJ
ef c
Ġde MGhdI
ĠeJ GYH
ĠHG jOj
ĠbH VI
Ġd hGdOc
ĠYf hGfg
ĠddeD SSGJ
ĠNd hO
Ġaj S
D I
QG Sd
ĠeL GdG
ĠOY hJc
ĠHSH Hg
ĠM bGFb
ĠhU hdG
ĠYd H
ĠGdJ Re
ĠeJ ejR
ĠHGZ dGb
ĠSj MGhd
Lj h
Gde dGRe
ĠJYG hfG
ĠY LHfj
ĠJG KQ
ĠGdeY GQV
ĠdJf Xja
W YJ
ĠhGb Yj
Ġdf aYd
Ġf hjd
hG YjO
ĠGdd Z
Ga GJ
jc Gf
ĠdU GMH
ĠdJf Sjb
Gf UJj
ĠH QMdI
ĠGdJ Qj
ĠbVj Hc
HQ hf
cGf j
ĠbHj MI
Qa G
ĠGN dY
QL h
ĠJ QHM
ĠGj RGHjd
ĠGdeL F
ĠdG MUd
ĠeGF OI
ĠO GdGS
ĠGdOhd GQ
ĠJN QjH
ĠGdeMbb jf
ĠGSJj QGO
ĠHGd djd
dG T
Ġdde MGceI
ĠeeJd FI
ĠeMGV QI
ĠSd hf
ĠSJ Qjf
GJ eGfY
ĠGaS GO
ĠGSJeQ hG
ĠNdj aI
a Td
cQ GQ
ĠjJ fG
ĠHGdf gGjI
ĠddZ OGA
ĠGdMdh I
ĠGQSd hG
ĠHG OGA
ĠGdGK fj
Qja hQ
ĠeYfG gG
ĠGdUM ajI
ĠehL GJ
ĠGdK hQ
ĠGaJbO c
ĠG Xd
JYde J
ĠWj Hg
Ġh dPG
ĠGdbjG Sj
ĠbGH dJgG
ĠGdgG Oj
ĠeG ch
Lf g
ĠW dGb
ĠfL Qj
Ġa hSJQ
ĠOY hGJ
ĠZQ HG
ĠGdY c
ĠSJ SJeQ
ĠHY jfgG
dJ dJ
ĠbVj fG
ĠZj hQ
hO YG
ĠGO Ge
ĠH hY
Ġde UdMI
ĠhGdO fG
QhS jI
ĠYbd jI
ĠGdYGF dg
ĠGJ NdU
Zj Qj
Ġg GP
ĠdM bJ
Ġcjf J
ĠT Gjf
ĠJbd jOj
O H
HGQ G
ĠGdeM ad
bG Vi
ĠdGLd gG
ĠGdeSe hM
ĠhJ YGhf
ĠTNU Gf
ĠJb hjI
ĠY GhR
ĠhGc HQ
ĠjGNP c
ĠS hGf
Ġja hJ
ĠGSJNOe g
ĠehJ gG
ĠGdYej bI
ĠW dG
Ġe jQGfOG
ĠhS Y
ĠHeaQO fG
ĠeJhJ QG
ĠJT hj
hcS Ljf
Ud H
ĠYe OI
GS ad
hR jf
ĠeWQ hO
Ġf ZjQ
ĠGdb hGFe
Ġe cja
Gf KG
Ġbe GeI
ĠGYeGd fG
ĠGdeaG LGI
ĠO hdG
ĠeJaG LF
Ġh QaV
Wj fG
ĠhG TJ
bW GYGJ
dh M
cQ R
ĠjH h
ĠhM W
ĠH cQg
ĠGdO hG
ĠMS GHg
Ġjf Ve
ĠHGdS jGSGJ
Ġdd LO
ĠGSHhY jG
PgH fG
Ld g
aJ fG
ĠGdUZ Qi
ĠL ed
ĠLGf Hg
Ġhf aS
ĠLGfH fG
Gdf LOI
ĠSja Ydg
S YhO
ĠGdS eY
Ġhg hdfOG
ĠOGf jd
fGbT GJ
TQ hH
GdL GfH
Ġdb hGYO
ĠGHJYO hG
ĠSjJ WdH
ĠGdeZd bI
ĠdJ dbj
ĠGQS dJgG
Ġc Fj
ĠGdGS Whd
hJf U
ĠJTQj YjI
Ġb QV
ĠO Hd
Ġdd Yde
ĠGdM f
ĠGYW fi
Ġfg QH
J Mjg
j Gdd
Ġh NWW
ĠJH QjQ
ĠU ZQ
ĠSj MJGL
ĠZjQ fG
HjQ Z
c GQj
ĠGdT MfI
ĠQjJ Tj
LQ e
ĠHeQ hQ
ĠOj ebQGWjI
ĠNeS hf
SGO SG
G hcj
Jj Lg
bU g
ĠGJUd hG
Ġe YOI
ĠJhLjg GJ
ĠeJ MQc
Z a
ĠH jchf
GMJ LJ
hHGde Kd
ĠSJ N
ĠHGdJ O
ĠddU MI
ĠGdSj fGQjh
Ġe ZWi
ĠGdZ jJ
ĠGdYQ bj
ĠeK dce
ĠjQ Gfj
ĠGdd ZR
ĠabO hG
ĠH djc
ĠQ Og
ĠGdeU GH
ĠGde HO
ĠaQ fSjI
a hd
Tj jO
ĠjQ f
ĠbaR J
ĠGQjO ce
ĠbdH i
J bOje
f Mh
ĠJT GFjf
ĠHGdJ aUjd
ĠGdeJ GNQ
ĠZQ Gej
GfO dQ
e UQ
ĠhG bJUGO
Ġj Me
ad eGPG
ĠL GJ
ĠHjY gG
ĠGYJeO g
ĠGdP cj
ĠjMJ LR
ĠhRhL Jg
ĠeSQ hbI
Ġeb QH
ĠJQG ab
MjK eG
Ġa GM
hd heHjG
ĠGNHGQ gG
ĠddGSJ NOGe
ĠGSJYeGd gG
ĠQG a
ĠddJh Ud
ĠGdchf J
ĠGdG hSY
Ġf bGJd
ĠSjd aQ
ĠY Sc
ĠGdM hGed
ĠhG YdGf
ĠNj Gdj
ĠS iA
Ġb GSe
JTGQ dR
ĠW dGA
ĠMSH J
ĠGMJ jGWj
ĠhGdL eGYGJ
ĠM TQGJ
LH Gd
ĠWhGd Gdjhe
Ġege Jj
ĠeM GejI
ĠHhJS hGfG
ĠjJ hGUd
ĠjJ GPi
hc g
ĠGdN hGdj
hdj SJ
ĠhHGd fSHI
Ġdd YOjO
SQ bJ
ĠMS Ge
ĠddZ QaI
ĠGdG OGI
ĠKdGK hf
ĠO Yj
ĠQh Rj
Q Se
ĠGcQg g
ĠGdJYdj ej
eF fGf
fJ fG
Ġdcf fi
ĠaJ GJc
ĠNW Jj
ĠGYGO Jg
Ġeg dI
ĠGdcGQj HjI
OGfj Gd
Sd Q
ĠTcd J
dG hd
ĠhGdJ Mbb
ĠHGfc hc
HG R
ĠGMVQ hG
ĠHG K
ĠGdZGe V
GS YI
ĠJMS fJ
j bGd
ĠGdQ bHI
aS O
ĠeSJjbX G
ĠGdQ cf
ĠGMH HJc
ĠcQ hfG
ĠGdeWQ hMI
ĠJ Qb
chf c
ĠheY g
ĠGddHf Gfj
ĠL jg
hH GdfXQ
O hO
ĠSQj Qc
ĠWGdH Gf
ĠaQ TGI
ĠLgO fG
ĠhR GQj
Ġe cd
ĠT GFY
ĠGdeJ LOOI
ĠJN Ld
gG PG
ĠHGQ GZhGj
Ġeb GdI
ĠcQg J
ĠGde LdGJ
Ġhe MeO
eG Zj
ĠS YOJ
ĠfJ PcQ
Gfc j
R fG
ĠJGNP jf
h TcQG
ĠddGSJ KeGQ
ĠHGd Gj
ĠJb jO
ĠGdGhd e
ĠOGNd gG
ĠRj GQGJ
ĠeY GfGJ
ĠbU jOI
QG aI
ĠGD Pjc
ĠGdY Oe
R ej
ĠGH QjGA
ĠGdGJ jI
hfJ GL
ĠGdH h
GR f
ĠfG VL
ĠU Ga
ĠJbj jeG
Ġj QGYj
ej eg
ĠbQj Hg
ĠgfO hQGS
UQ fG
ĠTY hQG
ĠGdJ Hfj
ĠGdGe JfGY
ĠHJ MSjf
h jecfc
ĠGdf hGJL
ĠdjO jG
ĠV QGFH
ĠfhY g
Ġhc j
Ġjecf j
GT NGU
ĠGjLGH jG
Ġh jecfc
bj W
ĠWQjb i
ĠGdLej dGJ
Ġh TGQc
ĠGdGSJK fGFj
ĠefGRd ge
Ġh QGFj
ĠGZ JU
ĠSj fGQjh
ĠGO QLJ
ĠhGde ZQH
ĠhcGf fG
ĠHGdG Z
MH fj
ĠGL QGgG
ĠJ GOj
jc eG
ĠJb Hjd
ĠjJ GNQ
ĠeJGH YJc
Ġhe eGQSGJ
ĠHGd MQ
ĠHdO gG
h Rj
ĠddG aVd
ĠhM TG
ĠdGj Ge
LO jG
ĠebGH dGJ
ĠHV eGf
hOj he
ĠhQb GJ
ĠU g
R L
GdY QV
ĠhJQ MH
Ġddc dGe
S hI
ĠeSJ NOe
V MI
ĠgO ag
K HjJ
ĠSGQ Md
O hfG
ĠJf Xa
ĠL gG
ĠGNHQ Jce
he GfjG
V f
GH hS
ĠhH SHH
ĠN haG
ĠGdc jejGA
de g
ĠJJHY gG
Q hd
ĠeSJMj dG
ĠbU hQ
ĠHhU I
ĠGMQR fG
ĠGe jfI
ĠOGja jO
ĠYeQ h
ĠfbhO c
ĠHG TG
ĠJL gR
aV dc
GQ hf
ĠWHj YJc
Ġd HQGeL
ĠGdGjQ dfOj
ĠYT jI
ĠN GV
U jI
ĠddGfJ NGHGJ
Ġf hGUd
SGO aY
J hO
ĠY UH
ĠGfG SG
ĠeZ GeQI
ĠSf hj
ĠbV jJc
ĠGdeMGce GJ
GU YO
ĠGdQG Mejf
ĠbH h
ĠGUGH Jg
ĠHGd Ojhf
je h
ĠHcGed gG
Ġd HG
eQ GJ
Ġd Ld
ĠGdf c
ĠQG HY
ĠGdMV GfI
ĠhGe cGfjI
Ġc hHj
ĠhGd HQGRjd
SG SjI
ĠGd dI
Jj cG
ĠGdM T
QO hO
adf PgH
ĠhG LO
ĠGJ Mbb
ĠeM h
ĠGdLQG MjI
ĠGdM KGdI
ĠW GLjcSJGf
ĠJg Jej
ĠGde bHhd
ĠhG gOGa
ĠHGdJ OGHjQ
ĠdH VY
ĠJYJ PQ
GdGK fjf
ĠG G
ĠHfO QjJG
Ġedj GQGJ
ĠGdMV GQI
GfJ h
ĠGdeZ QHjI
ĠT GPG
hV g
ĠHc GaI
ĠeD KQ
ĠTQjc G
Ġg jJ
ĠJe fj
Je dc
Hd R
ĠfG gjc
ĠMR f
ĠGddYjf g
ĠhY OG
ĠGdLS OjI
Ġdde bQQ
ĠGge Gd
J Hbi
ĠOG ajO
ĠHG h
ĠVO ge
ĠGdH SchjJ
ĠJYjjf ge
ĠW HY
GS hS
ĠddGQ gGH
ĠTNU jg
aY i
ĠJSJMb jf
ĠGdHdOj GJ
Gf Ve
d fOjI
ĠG bj
Ġjecf ceG
ĠGdeT Qa
ĠGdefJN HGJ
ĠJ ZW
ĠGdJ bi
ĠSd GdI
ĠGdGK fjI
ĠQGj gG
ĠGdSd ej
hGL jI
L hQI
ĠeJGHYjf c
Qc hH
OY hG
ĠhM UdJ
ĠjJ YbH
J heGS
ĠGdH hcQ
G Kb
ĠHf XQ
Qj QI
ĠaVj MI
Yd GfGJ
ĠJJ QGLY
ĠhLO fGgG
ĠhGdJM djd
Md Gd
ĠPcQ gG
Ġh Vj
ĠS eh
Qj Qj
ĠLOG hd
ĠU GN
ĠGded GQjG
g fO
jGQ aGb
Ġdj hfjd
Gdg GJa
Ġdd HQGeL
ĠdeWGdH fG
ĠHN eS
P YQ
ĠNGFa hf
e Qab
ĠeTGc dc
ĠGSJY GQI
Gd NQhL
ĠeN JH
ĠW GHJ
ĠJMJ VQ
Ġe QjH
Ġc GL
ĠQ hOj
ĠGdfGL MI
U bGJ
ĠGhU dc
Ġdc dG
ĠGcJ SGH
ĠaGJ fj
ĠhH hQ
ĠGffJ MOK
ĠGdJL SS
ĠGYJ PGQ
ĠTQ hb
ĠHK ef
ĠSH fSQ
ĠHL hdI
ĠSG YQa
ĠdW ad
ĠeGQ djf
ĠGfLGR GJ
ĠebH QI
QGJ c
ĠGdJY bjO
Ġad eG
ĠQc H
ĠGdHO fj
Ġh PGJ
eJ Q
Hj KI
ĠeJ hG
Ġehba c
ĠYdeJ fj
hf Qi
ĠjG aJi
Ġde QGLYI
ĠeY GT
ĠW hdg
ĠeM ce
Ġe dh
Ġa GSJ
ĠGSJ bHd
J fajP
JT Gc
ĠhGSJNOGe gG
ĠGdQ hMj
YQ hV
ĠGdHQ cI
Ġj hfL
ĠOGa F
aYd j
ĠJb fjG
ĠeTQ hHGJ
ĠGdQ T
ĠGdY jH
Ġhj he
ĠJOQc jf
ĠGdJYGbO jI
ĠJQjO fG
ĠGdej Kjd
GYPQ jfj
ĠW HG
ĠhGdM jGI
Ġj TQM
ĠhGd HMQ
ĠGdG OeGf
ĠJJ YH
hSj g
ĠYGT b
ĠddJM OjGJ
ĠLhd R
ĠOj JQ
ĠHOY hI
ĠHN OeI
ĠGZ fjGA
d jfj
ĠN GWQ
ĠGdN GdjI
ĠGdajf jd
ĠcJ dc
ĠhXja Jg
hJ bOe
ĠGdJM QT
Ġdde L
ĠGdeL GfjI
ĠLhGf Hg
ĠGf UQa
bQ f
ĠJ VM
SG LdH
ĠGdeD efjf
ĠeU hQ
ĠGdaG Vd
ĠJNdU J
ĠeYW ac
Ġf hGH
ĠHj gG
J RhL
Ġc ga
ĠGdh Oj
MX j
ĠGdf V
ĠddJ bQjQ
ĠGdbO eGA
ĠeO efI
hJ Y
ĠM GFW
ĠGde ehdI
Ġhb M
ĠJf gV
ĠeYGdL JgG
ĠGM SG
Ġeh Fd
ĠGQ NU
ĠGdd hHj
ĠGH Zi
ĠhG KQ
ĠhGd LejY
f WGdH
ĠJa hJ
ĠdjT ed
ĠfTQ gG
Gde S
ĠR ghQ
ĠJedc g
ĠGdRf hL
ĠGdGN dGA
ĠGdf UjMI
ĠddG MJjGLGJ
Ġh Rj
ĠLGg Rjf
ĠGdeR GM
hf jf
ĠGdGS gd
Pj jd
ĠGdeO Yh
ĠGdM LGQI
ĠhG Wdb
ĠGdSGM QGJ
ĠhGdJf Xje
ĠGdcGQ KI
Ġde hbY
GH hJ
Ġjbhd hG
ĠddM hGQ
Ġchf QGO
ĠGYLH J
ĠeT L
ĠGdG VGAI
ZW GA
ĠH Hj
ĠW jQ
ĠdG WaGd
Ġajf SfJ
ĠHTj F
ĠGdGe fI
ĠcQjSJ haQ
ĠGdJ dGd
ĠGdGQ UOI
ĠddeSJ bHd
eG FjI
ĠhQ be
ĠLj Hc
ĠGdTjN hNI
ĠdHd hZ
ĠeMG hdG
ĠGdW hG
hb QGWjI
ĠGfc GQ
ĠHe hbY
ĠGdcf OjI
fT Gb
TQ Y
ĠH KdGKI
ĠGSJ ZQbJ
ĠGdh QGK
ĠGdQG Se
Ġef Na
ĠGdb hGQH
ĠHebO hQj
ĠGde UO
ĠHbj fG
ĠQ bGFb
ĠjM de
ĠdO hQI
ĠJh Nj
ĠdG LO
ĠQZH Jj
ĠGdGf OjI
Ġe ZGOQ
ĠJL QHg
ĠGdH SjW
ĠQj LjfG
ĠGdJ HZ
ĠjN djc
ĠSjGQ JgG
ĠJZGO Qj
ĠGdeSG aQjf
ĠahQ eGf
ĠYf UQj
ĠU ee
ĠV LI
fG H
hG VjY
Ġhe U
ĠdGe QGI
ĠjJ QGLY
Gdb hI
ĠjJ haQ
ĠGNP I
HhQ f
ĠG hfjd
ĠdhdG jI
ĠQ bjH
ĠH je
ĠeG cO
Ojf Gd
ĠL Y
Ġage j
ĠHM GdGJ
Ġeh Ojd
ĠGQj RhfG
gQ Hj
ĠM GQI
MH hf
eG RGdJ
ĠGdH gGeG
ĠcG ajg
ĠNUhU jI
Gd Sj
ĠHG bGeI
ĠYj hH
ĠhJ haQ
ĠjO QL
ĠJQ Hj
ĠGT e
Ġgjc JhQ
X c
ĠGcJ SH
Hdj Z
cg hde
ĠGdeSJNOe jf
O OJ
ĠhJ YGed
ĠGSJe QjJ
ĠHGdGfL djRjI
ĠGdMO jOj
Ġe dGA
hf YJbO
ĠLSO jG
e GfjI
Ġhe dG
ĠbW QI
ecJ hH
P LG
ĠH bY
ĠhGQ jJQjG
ĠeT GgOg
Ġc hQG
ĠGMV QJg
Ġj cQ
ĠGdMG Ud
ĠJcQg fj
ĠGdSM Qj
ĠdGR YGL
ĠGdL hdGf
ĠHL gO
hj bOe
ĠSJ G
ĠhGd NGQL
ĠJgOjO GJ
ĠeG ja
ĠddO QGSI
Jf aS
ĠeMGaX GJ
Gd GNQ
GJ hOjf
ĠhG g
ĠhO aY
ĠhGdGS QI
Ġedc fG
ĠgGQ jShf
ĠJYhO jf
ĠHG bJ
W Qg
ĠGdZGR GJ
cd JQG
ĠhGfJ XQ
ĠhGd GdjGJ
hQ S
Jd GfO
ĠehR GeHjb
GNHQ hfj
ĠGdJYhjV GJ
ĠGdf eGPL
c dce
ĠeM GQ
Ġf QGbH
ĠaYd jI
ĠHM ed
T Gc
ĠGf GHjH
ĠK Oj
Ġe hWf
cd eJ
ĠSd Sdg
ĠHGdGSJ fGO
Ġh MH
ĠhGde U
ĠGJ gGeGJ
hT OO
Ġj Gdg
ĠJDde fj
ĠGdT hW
ĠgPGGd TNU
ĠGeSc hG
ĠGjecf fG
ĠJY GedJ
ĠV QjHI
ĠMd bJ
ĠGda jOjhgGJ
Ġjf TG
ĠeGOj Shf
ĠeQ ZhH
ĠJMed gG
ĠGdSGa dI
Ġe Gef
S jc
ĠeeJ Yg
ĠLO QGf
ĠGdTg jQI
ĠjPgH hG
ĠHGdeSJ Tai
Ġde Og
ĠGdhGbY jI
Ġj GHf
ĠGdMb jQI
h Wj
dJ ce
ĠHG bQ
b YO
ĠGhb YJ
ĠeNd aGJ
ĠJK HjJ
ĠHjJ T
ĠGdVj b
Ġhe M
ĠeSH bI
S fI
YhO jf
ĠJL Ojf
GQJ Q
ĠWHj Hc
bG c
J LYd
GN hc
ĠedY bI
ĠhJ a
ĠJT QjM
ĠGJ jI
Ġh Se
ĠGedc g
ĠGdL ejdg
YG VI
ĠHe djhf
e GQL
hG jGJ
bj Jj
ĠGdehG UaGJ
HG Fj
ĠGcJTa fG
ĠGe JUGU
Ġeb jO
aX I
ĠeaQ WI
ĠGdh K
fG YGJ
ĠjfJ XQc
ĠOGa FI
ĠRedG Fj
ĠhJ YJHQ
ĠJJUQa jf
Ġe RjL
Sd W
ĠGMJ Qb
hG SW
ĠGjO GY
ĠGdGMG WI
j Hc
Ġage g
ĠhM TjI
ĠjG YRjRj
ĠGdT ghQ
ĠGhT cJ
cG KQjf
Ġddg QH
ĠObj bG
ĠGdGb RGe
hO Q
Ġcd GQG
Ġda GFOI
Ġhf hY
ĠGdjhf GfjI
ĠGdede hSI
ĠjNU c
Ġh KeI
hdG OI
ĠddS aQ
Ġcjf L
Ġja Ud
ĠGdV eGfj
ĠGfaUd fG
ĠJfJ gi
J GNP
jQ jf
Gd bGYOI
ĠH djdI
R hO
Ġha QJ
ĠhGH f
Ġcd HG
ĠJS Ge
Sjf Jgj
H dg
ĠGSJ deJ
ĠfS jQ
ĠGddj RQ
ĠY J
ĠGdc fG
ĠGdGg GfI
ĠhGde O
ĠeLfhf g
dG SJ
OYj g
GJ Gf
ĠGdcjejG hjjf
ĠjcJ QK
ĠP FH
ĠGdeU Qaj
ĠOaY g
G chf
ĠGL GHJ
JS YI
ĠGdeJ MQcI
ĠhGQJ aGY
ĠGdOQ GeG
Ġj MGaX
ĠJb Se
ĠhM dbGJ
ĠGdGMJjGW jI
ĠY Jj
ĠfL QH
ĠOY hJg
ĠGYJeO gG
ĠGT GYI
ĠSGL Yd
ĠYhGFd fG
X ajf
hHe hLH
Ġe RGjG
ĠhG YJeO
ĠGdJ hGe
ĠfSJ eJY
GdGJ UGd
GjgG Gd
H Pdc
ĠhG Se
ĠhGdeD JeQGJ
ĠHGde D
ĠdfG Oj
Ġg ha
ĠSe hc
ĠSeMJ e
ĠGQ Jj
Ġf bGHI
ĠGdM QL
ĠhR GQGJ
ĠGdbJ GdjI
ĠdG YWGA
hjJ Vef
ĠGde jd
ĠW QH
ĠeQ hMjI
Wdb hf
j Uj
ĠGdM cje
ĠGdhM TjI
cJ GJ
ĠGdeb UO
ĠY QhS
ĠJZ Qb
T ed
W bjI
ĠQ gGf
Mj R
ĠGdJeQ O
Ġdja Yd
ef h
OQ h
ĠcGe Hd
ĠU HjG
ĠGdGf HhH
ĠdJT ed
ĠGdeY bhd
ĠGSG aQ
ĠYjfj gG
ĠJQjO jfj
hLO Jg
ĠdQ YGjI
ĠGSJQ Nj
ĠN hV
bGe hG
Ġcjf jOj
ĠJe GQjf
ĠHGdO eGA
ĠGe hQc
Ġde Lj
Ġhe eKdj
ĠJH Oj
Ġde NJda
ĠhGdL eYjI
GNHQ JgG
Ġd HGS
ĠSj b
ĠGdefJ LI
ĠJfXje jI
T jS
ĠR heHj
g GJa
GdGZ fjI
Ġde L
ĠGH JYOj
ĠQGFY hf
ĠdN QjLj
Hj GJ
J YjT
ĠHJ GY
YQa Jg
ĠGdeT YI
d hG
ĠHdG jc
ĠdM V
L FG
RG Rj
ĠGdMG SH
Y dGL
ĠY JHI
ĠTGgO Jg
ĠY KeGf
ĠGdGf YGT
ĠHGdJ Ydje
GSe i
Ġdd MH
ĠHY GF
HMK J
ĠHGdef WbI
f Yj
LGg GJ
ĠHGdUO aI
ĠhT Qc
ĠGdU YO
ĠHM Qj
ĠSH jf
ĠGdSjG MjI
ĠWQjb Jj
ĠGdQGa Ojf
bj bj
hb GeJ
ĠebQ QGJ
ĠjeKd hf
ĠhGH h
ĠGQS dg
ĠG QcR
ĠhGd bOQI
ĠdGF bI
ĠGdJQ NjU
ĠGdS dcjI
ĠGda VI
ĠhH cd
ĠQMd hG
ĠGNQG Lg
Ġa djJ
ĠL hjf
gG gj
Uj dG
ĠGMS SJ
g heQ
Gda Qb
ĠGdeR jaI
Ġd NaV
Ġf TJQj
ĠjU YO
ĠGdT chc
hGFd ge
fa Ud
ĠGdMe i
ĠjW QO
Z GQj
ĠGdY Uj
ĠjTYQ fj
Ġdd QbGHI
ĠGU e
ĠGde aYhd
Ġe OGaY
T Qc
ĠjJ cQQ
ĠQG cGf
Ua i
Ġd gh
ĠGN GaJ
Ġdd ed
ĠN GVYI
ĠJc jja
ĠGde eJY
ĠGV aGA
ĠQc RJ
ĠeJ Ye
ĠjR Ye
ĠHjQ c
ĠGdjO hjI
ĠGdY W
LH J
TQ hHGJ
ĠGU GHg
ĠHS YGOI
bW YG
ĠGfW HGY
Ġdd Mbhb
hGd jS
eL OOG
Ġbj UQ
TjN hNI
Gd Tj
Ġh aYGd
ĠGdeD da
ĠGdeTQ MI
HGd fXQ
GQJ jf
ĠYe jGA
Ġed jG
ĠGdYehe jI
ĠGdb dHjI
ĠGdg hd
Gd ce
ĠH QGah
dgPG GdSHH
ĠGdJW HjbGJ
ĠHGQJ jGM
ĠefU Hg
ĠfQ ZH
GM ed
ĠeGQ ZQjJ
ĠGdeSJ KeQjf
ĠhGdY QGb
ĠGdfe WjI
ĠOj ajS
HG jd
ĠGSJ TGQjI
T JQc
ĠhLhO fG
ĠUOjb jf
ĠhT GfgG
ĠGdHc JjQjG
ĠYGf jJ
ĠJYW i
Ġc GM
ĠYGj T
ĠMHjH i
Ġh NP
Ġdde jGg
hQ Jj
ĠhO YG
J GHI
ĠMbhb fG
ĠGcde c
hb dJ
ĠhY HO
ĠGJ Hhd
ĠGe gd
eK dc
ĠjUd hf
ĠHGj dj
D G
Ġdj NJfTJGjf
Zd jf
GgO Fj
Ġf bHd
bj Jc
JT jQ
ĠJ hZh
ĠQbH Jc
Ġj YG
ĠGSJ YedJ
ĠHGdJ MSf
Ġh hf
ĠJJ GKQ
ĠGdebH QI
QGF g
ĠOaG YG
Ġef aP
ĠGda UM
ĠGSJ gd
ĠJT f
ĠGdGb QGQ
ĠHd ZI
ĠGde dgi
ĠKGHJ G
ĠT OO
ĠeGd gG
ĠY GfJ
ĠGJ Qcfj
GZd bj
Sj hf
ĠdJ Yde
Ġjg Re
ĠdGhd Fc
ĠMHj HI
e W
ĠaJ Mg
ĠjY R
hQj jf
Ġdd gQhH
ĠjSJNOe gG
ĠJbjje GJ
Je fjJ
ĠOjf c
ĠS Qc
ĠQG Vj
ĠYj hfj
fj FG
GSJ eQj
Ġb Ua
ĠjD P
ĠGfO Qj
GJ Qhf
ĠJPcQ g
jU YH
ĠGdebGH dGJ
ĠGdf HV
aG jg
ĠhGd Gh
ĠdSJ e
ĠGf WdGb
ĠGdYd HI
ĠR c
ĠTQ Y
ĠGdeb dH
ĠHYjO jf
ĠJTG jS
ĠGd Xf
ge g
GNJ GQ
SJ UHM
ĠjYQa gG
jQ Jj
ĠT je
GL Qj
R Gej
ĠdS O
Hd Oj
ĠR GF
hGJ Q
ĠHJU hjQ
Me hOj
HW F
ĠdGM bI
GO Ndj
Ġd dcfj
ĠhGQ f
ĠS hQI
ĠgfG GdGf
Ġdg Lhe
Ġc GdM
Ġhe SDhdjGJ
ĠL dOj
ĠGdJ Ga
ĠT gj
Ġege JfG
aG N
ĠeO eQ
ĠGf e
ĠYT Gb
GaJ JMJ
ĠGSbW J
ĠSeGY gG
ĠjSJ Sde
ĠddSd WGJ
Nj GQGJ
ĠNG WjA
ĠOG hf
ĠHGde hGO
ĠeSGYO GJ
ĠGdJT QjM
ĠPQG Yg
ĠhGd Sf
GL jd
ĠT aGg
ĠdJ GN
d Me
ĠGdM db
ĠGW YGe
JMOK j
f aI
ĠM dJ
ĠGL jO
GP hf
hf hO
ĠGde Lj
Wd bI
ĠaV hdj
Gd HMK
Ġj QHM
ĠSj ZjQ
HjQ J
ĠSGYO jfj
GL eY
ĠMe dg
ĠGgO Fj
Ġf hM
Ġdd Tc
ĠMhd J
ĠQ Mje
ĠGe dg
Ġb hJj
ĠGdhQGK jI
ĠWhGd Gddjd
ĠNO T
ĠSG Wdb
Ġchd hfjd
ĠGdGhf QhG
ĠGdb jGS
Ġhe hGQO
ĠjbJ dg
ĠefNa VG
QG Sg
GeJ GcO
ĠdG gd
ĠS Mb
ĠHGd TjA
ĠGdG Ua
ĠGdgG Fd
ĠW gQGf
ĠddG YdGe
U dg
ĠSGO Nd
ĠGdS jQc
ĠGSf Gfj
ĠGdGfL djR
ĠhfTQ gG
ĠHGd Ye
ĠG VM
ĠYe i
ĠGdJV Ne
ĠhGd HM
ĠGHj gG
ĠgPGGd WQjb
Ġddc KjQ
ĠGdH WGQjI
GdY TGA
R RI
GW iA
ĠYGF OGJ
JQ Y
GdW GHb
ĠGdU ehO
ĠdGSJ eQGQ
ĠhGde Gdj
ĠH bHhd
ĠjJ bHd
ĠJS QjH
SG geGJ
ĠJV Yj
Gdf XQI
ĠGdK bjd
ĠGdO hS
GF jd
ĠLeGY g
Ġgj L
Gd hMjO
Mb jf
ĠeKd i
ĠdGH bGA
Ġc jQc
hGd M
ĠKef g
ĠUOG bI
Ġa hQjI
ĠN GdJj
ĠGf cQ
ĠHGS ej
ĠJSJ YO
ĠNGF ajf
ĠhGdc hjJ
ĠYe hO
Ġhd gG
ĠGS Yi
ĠecGf fG
ĠjTJ Zd
GfJ Hgj
ĠT hjI
ĠJQjO Gf
ĠGdS W
ĠeQ hGf
ĠGdbe GQ
ĠN Pg
ĠJM GQH
ĠehG RfI
ĠTYH fG
ĠeLGd S
ĠJeG Sc
ĠhGdSd WGJ
ĠT GQI
ĠNGO eI
ĠJMbjb gG
ĠGdbQ hO
ĠQ hYc
ĠLR GFQj
ĠGdeQL YjI
ĠGdQ FGSj
eG GdGeQ
ĠGdYGW aI
ĠGdU GFH
ĠLe GdG
ĠJa Tj
Ġhe MO
hH i
ĠZ QGejI
ĠR HOI
ĠeGd haI
b fj
ĠM i
ĠGdc QH
ĠYGR a
dj he
ĠGdN Gd
GR aI
GF ce
Qj ge
ĠJLYd fG
GT g
J ZjjQ
ĠT Gb
Ġd HdO
ĠgPG GdYGde
aG aI
a GdJ
ĠL ha
Ġdd ejRGfjI
ĠGda Jj
ĠfS Yi
ĠNeS g
Ġh dOjfG
ĠGdY PQGA
ĠGUHY c
ĠGLf MI
Ġf NJ
hQ OI
ĠjM Qe
ĠJfO e
ĠJYdje jI
ĠJ jJ
ĠGdHhd ja
Ġdd YedjGJ
ĠGSJ YOhG
SGf O
ĠjhGLg gG
ĠYfj J
Y fi
Ġh bWY
Ġf bje
Ġdj Hj
ĠeO aY
ĠR O
ĠVO gG
ĠHQjf Gf
ĠL GPHjI
ĠSJbhe jf
GXf gG
Ge SI
ĠGdJ bOje
ĠGdcJ dI
ĠJGc OJ
ĠHjQ Sj
ĠeG GdGeQ
ĠJd Re
GdG hdGO
ĠJUHM jf
NO jQ
Ġc hOj
ĠGTha c
ĠGb aGd
ĠUOb jfj
G Yj
ĠGdY Wd
ĠGdGfgj GQ
ĠT gQI
a QGS
ĠGf SJG
ĠHY jfg
RhL Jg
ĠhjQ i
ĠGdeSJfa OI
ĠJU GO
ĠGdeSJYe dI
Ġd hfg
ĠL hdGJ
ĠJS Gdj
Ġdd fG
ĠH hcS
JMJGL jf
ĠHc aGdI
ĠJJ hGaQ
ĠJJ WdY
Ġdj Rj
Ġh SQYI
ĠJQc V
Ġhe hd
Ġdb QGQGJ
ĠehQj JGfjG
Ġe VQ
ĠGdedG ceI
ĠGdhMjO jf
ĠjNQL hf
SG YGJ
ĠdG cJTGa
ĠGJ XGgQ
Ġh VQhQI
ĠJ QGH
hK hb
ĠehX aI
ĠTb QGA
ĠGdM eGS
ĠGdH fj
jH OG
ĠGdYe hej
Ġe dgi
Ġef fhY
ĠSJ YjT
Ġhc fG
JYQa hf
Ġh UO
ĠeM Hj
ĠGfa UGd
GJQc g
ĠGN Qb
ĠGSJ Me
Ġh HY
ĠGdaJ MI
ĠeSe i
GQ ej
Ġa fhf
ĠGdZ Rh
ĠGYJ HQJ
e Vi
ĠGdJYG jT
Gg g
ĠdG UMGH
ĠhGd Mbhb
Ġdh MX
ĠeM HI
ĠjDef hf
ĠGdhV hM
ĠGdbWGY jI
ĠGdeSJ hjjf
Ġjbhd hfg
ĠeWd bI
ĠHJY Ojd
ĠjY GO
ĠGdGN QI
bj Y
GZ aQ
TY Qc
hH OGJ
hGQ i
ĠhGdS hOGf
X H
ĠQG Ojh
ĠTLG YG
ĠhGdf LGM
Ġg GJg
aj QG
ĠM Re
ĠdT F
Ġde YdheGJ
ĠeGQ GM
ĠGde GajG
GM HI
ĠHW Hj
ĠGdGSJj bGX
ĠGdY j
aV dG
H Pd
ĠhGde bQQ
OJ jf
ĠJ jSQ
JUHM jf
ĠGdaGF J
ĠGNJQ bJ
eG V
ĠHGO QGL
ĠGeGe ce
ĠHGR GdI
ĠGeQ ge
ĠW GdY
ĠGdQhe GfjI
ĠGH djJ
Gg Oj
ĠHGd ejRGfjI
ĠGUdGM gG
ĠGdG beGQ
ĠK Qj
aj cJhQ
fG ed
ĠGbJ QG
ĠR ejdj
ĠGQH Yg
ĠN Ve
ĠHG YWGA
ĠJPgH hG
ĠMa dg
Ġhfj hRjdfOG
dj Jc
ĠVMG jGg
Ġj hQj
ehf J
ĠHJM djd
hG Wf
ĠGdO QbjI
ĠdjJ Sfi
ĠJUO jQ
Gjf eG
hK b
bG FjI
ĠWdH hG
U U
Gde aQhV
ĠGVG LY
GdGZ fjg
aJ I
Jc ahf
hGd OI
ĠGdZ GV
ĠGYJ OfG
ĠGdeU hQ
ĠhGdY dGL
GfJg jJ
ĠGdJc ejdjI
ĠGfVe eJ
ĠGde hfOjGd
ĠeMe jI
Fj g
ĠYe dce
ĠHdG j
ĠGf SJj
hbQ QJ
ĠhGdYG ajI
ĠGSJF LGQ
ĠddU QGY
Ġf SQY
ĠGdeV GO
ĠGdMU U
P Qg
ĠZ hO
Ġf hdGf
a GJjM
ĠhGd dGS
ĠOj GQge
ĠGW QGaG
ĠHGQ YG
ĠJXf fj
ĠH GQS
ĠGdJ Mb
ĠGNJ Gg
ĠJMS jfGJ
R he
ĠZ hKGe
ĠJY GQV
ĠjWdH hf
ĠGh Qj
ĠHM aX
ĠGdc GFf
ĠHMbhb ge
YjO c
RGe f
ĠeDc OI
ĠjR hQ
ĠHe SDhdjGJ
Sd SdI
U Hj
a W
ĠeG YfO
aG VG
ĠGdOYG hi
ĠGdh dGA
ĠGdGSJ QGMI
ĠdGj bG
ĠGdQ hGjI
Ġhe QGcR
ĠeGd jG
Ġcd eJg
W aj
Ġh WGI
Ġa GcKQ
ĠGdf SjGf
Ġdd LdSI
hG NQ
ĠeJRhL jf
S dGM
f Yjf
ĠQ Y
ĠYGO jG
ĠV ejQ
SJ aYd
ĠbVj Hj
R hLg
ĠGdeJa LQI
ĠJbhd i
ĠJMJGL gG
GdGK fGf
UGO QI
ĠhGdcj GfGJ
ĠGdL GR
ĠHM LI
NHQ ge
c aj
ĠGUdGM GJ
ĠGdfG NHjf
ĠGdehG gH
fj aI
ĠhGdO aGY
ĠGdK ZQGJ
ĠJbhd hf
a gfGc
ĠGT HGM
ĠMj Gdg
ĠSGe hG
ĠMbj bJc
ĠMHjH Jc
ĠjGH fj
hG TjQ
ĠeG jS
ĠJT Zjdg
XGg Qjf
ĠGde GTjI
ĠdGfaS fG
ĠGdT QG
ĠZ fGA
ĠGdHhG HGJ
g jf
ĠSh Rj
GQ KQ
ĠGdTQ W
hJ Hjf
Ġdde QcR
ĠGdGMOGK jGJ
ĠGdGfc djRj
ĠdG Mhd
Ġhd OG
ĠGdTg OGA
e bWY
V Z
Ġg HI
ĠM dH
ĠfG SG
ĠQjf hdO
Ġf aJM
ĠGdM cGe
Ġh hLOJ
ĠdG jLH
ĠdG UOGQ
ĠGdM c
ĠbGF eJj
Gd Gj
Ġdd NOeI
ĠGdeS fOI
ĠGdU Gd
ĠeJ Yd
ĠGdK jGH
R Gj
Ġdd QMjd
hg L
hd K
Oj H
ĠeG cf
ĠJ VGjb
ĠeU HGM
S dJ
Ġ PgHj
ĠGdeSQ hbI
Ġa hc
ĠGa QjbjI
ZH jf
ĠH ha
ĠdG UO
ĠSe jQ
ĠeSG aQ
ĠGdU QGMI
ĠHQGeL gG
ĠhGj WGdjG
Ġc HQj
hj hLO
ĠOQO HL
ĠPGcQ Jc
ĠM QLI
MGhd GJ
ĠGeJ jGR
ĠGdef a
Ġdhc GdI
ĠhGSJ QGJjLjGJ
ĠJR hQ
ĠGdYGFO GJ
ĠGdM UI
ĠhGdb QGQGJ
ĠJ hVj
ĠGPc jGA
ĠHY dGbI
Ġh KdGK
ĠJQjO fi
SJ Yed
ĠQG O
ĠSj M
dh Hj
ĠTha h
ĠGd Rd
ĠdG bJ
ĠGdY Re
ĠhJ hLjg
gj ej
Ġjc GO
ĠOQL g
hc dj
ĠGdSJ GFQ
Ud hG
ĠGdMV Qj
ĠL QGe
ĠGdZ hGUI
Ġchf Q
hQL jG
ĠGde PG
ĠQJ HJ
ĠHS dGM
cJ Hj
ĠGde gGLe
ĠeN GOY
ĠNj GdjI
S hA
ĠMb f
GdL fS
ĠGNHQJ fi
ĠejJ Td
ĠhM GdGJ
ĠdfaS gG
G Rj
ĠZQ HGA
ĠGdHQG Rjdj
jf ge
ĠSY GOg
ĠSjJ Qc
ĠLO jQI
gO J
ĠHGdGJ LGQ
ĠeWGdH fG
ĠjJ QGhM
ĠGdeaG gje
ĠGdehg HI
Ġd bWY
ĠSdGe g
ĠHGO NGd
ĠjeGQ Shf
ĠHO hd
ĠGH fGFj
ĠLGd SI
ĠR GQ
ĠGdQ hej
ĠeSG YOj
hS je
ĠdOj ceG
ĠeG jb
ĠGdGaJ bGQ
ĠGdM GOI
HG Mj
ĠW bhS
GdG MJjGLGJ
Ġa hGJjQ
O djd
ĠJS NjQ
ĠGdedG YH
ĠhGdS hjO
d hL
ĠQc HJ
ĠJPc jQ
ĠNda gG
ĠGN hJj
Ġj Ndb
ĠN ajI
gGQ aj
ĠHGN JUGQ
ĠGSeG Fge
ĠGdL GQ
ĠTjd Hj
H QGO
ĠSYQ gG
ĠL QjS
ĠeG Tj
Qa jb
ĠQG hG
ĠJY OGO
ĠGdV ja
ĠTc Qc
ĠJj hH
GL gd
ĠYedG bI
ĠeJf hY
ĠddL GeYI
ĠJTGQ di
ĠOjc SJQ
Uj GfI
ĠGdU Mg
ĠJJ H
eGf SJGf
ĠGdJ GjjO
ĠGdGSJ hOjh
Gd Sjhe
ĠGdS OGO
ĠGJ aQL
Ġf Je
ĠGehGd G
ĠGdY HO
ĠGdH bQI
GfOQ h
ĠhGd Jehjd
ĠGdGf WdGb
ĠGdOG YeI
Ġjdj b
Ġdde Vj
ĠehGQO gG
ĠGf LdS
ĠY LjH
ĠfX jaG
Ġha f
eM Gd
GQL fJjf
ĠHf Mh
ĠjYJ QV
ĠhGd NW
ĠcJ Hj
ĠGdeYQ hV
ĠGf Oe
ĠYGL R
ĠbQjH hf
Ġa UjdI
ĠJL jO
ĠGdhL HI
Ġa WGFQ
ĠeQJ GMG
ĠbVj Jj
ĠGfj b
ĠGdHY jOI
ĠbGO eG
ĠHb UO
ĠGYe GQ
GO i
ĠGe SGc
aj e
ĠGdH g
ĠhGd hKGFb
R GL
S hRGf
QG hjd
ĠHGde fG
ĠddM adI
ĠTg QjG
Ġe gGL
ĠGfJ ej
ĠGYPQ fj
ĠGdM Gb
Ġe cdaI
ĠhG YGO
G SHhY
ĠGfS Gfj
ĠHW f
ĠdGNJ HGQ
ĠGdG YG
Ġh Yde
ĠhGddGS dcjI
j Yde
ĠSjQ c
ĠJ VGa
Ġh hGMO
Ġdj Rdj
P Gdc
ĠGdL H
ĠJbG he
ĠhJ ZjQ
Gd hOGY
ĠJQjO i
hQ bI
ĠO c
ĠjY Ri
ĠGdeJ hG
ĠGdhQ Oj
ĠGdeeG KdI
ĠJb hje
ĠJYde Jg
ĠhGdK bG
ĠGdJa Ujd
ĠZGOQ hG
ĠY GdeG
ĠGdeSH bI
a Jj
ĠGdNU e
ĠeYG bH
ĠeGQJ jf
ĠjYde hG
cd jI
c jQ
Ġg HGA
ĠGY jGO
ĠLSe g
ĠGH gG
ĠjS Qj
hjJ eKd
ĠMH gG
ĠHc GS
ĠHb Se
Ġf VjY
ĠGdZGe VI
YJ i
ĠGSJ KeGQGJ
ĠGSJ QGJjLj
ĠHf R
ĠJ aQ
ĠGdG hJ
Mj dI
Ġd beY
ĠJ hSY
Ġf eJdc
ĠN OY
Ġe QGbHj
Gde Q
MG adI
ĠGdGW GQGJ
Ġdb Se
ĠhGLg RI
ĠGdUd HI
ĠGL hQ
ĠGdW GR
ĠGdeL Gfj
ĠeJ YGO
ĠHM hGdj
ĠGTJQc h
ĠYH hO
e aghe
ĠGda cQg
Ġd GQG
Gd eGA
ĠN fJ
df be
ĠXffJ g
ĠTb b
Ġe gj
Ġhd dJ
ĠGdO eL
a GfjG
ĠGj Rj
jT YQ
ĠGdShG Md
ĠGNQL g
ĠeQg bI
ĠeNJ GQI
ĠehbY gG
h WG
SJ MJGL
ĠGdcjH hH
ĠGcJTa hG
ĠjeJ O
ĠGde gf
ĠVQ QG
bO GQ
J Mhd
GS bW
ĠGdT ehY
ĠGdQ OGA
ĠOY hJj
ĠGdgGO aI
ĠjQc V
ĠL hY
ĠeS Gf
ĠjD NP
W GYGJ
Ġehb YG
Ġddb hGYO
dG MI
Ġa Uhd
ĠTQjc I
ĠGSJ f
ĠGb Y
ĠdGd bGA
ĠeYj GQ
ĠeGQJ jfj
g hG
ĠLhdj jJ
bH dc
ĠGdYGg Qg
Hj gGJ
ĠGdHGQ RI
ĠfhQ K
Ġd UGd
ĠGYd Gej
GdJ YGhf
ĠS jSj
ĠGdHG cQ
ĠJMQc J
LQ YI
ĠGdW dbGJ
J MUd
ĠcQ GeI
ĠaO hg
Ġh Ydjc
ĠYH K
ĠGf Gfj
ĠQ YGI
Ġgh jGJ
ĠGdG HQ
ĠGdLGe Y
ĠHj Gfg
Ġe hH
SGYO jfj
hdj fG
ĠY Ra
ĠGda WQ
ĠeL hgQGJ
ĠGY VGFgG
ĠGQO hZGf
GQ MH
Ġdf bhe
ĠYGQ VI
ĠJRGd jf
ĠT bJg
ĠHGS YGQ
S YQ
Ġe jGOjf
dh MI
Ġhcja jI
ĠHGMO i
ĠeGQj h
Jc eG
Ġdde fGbTI
Ġeg fjI
ĠJ Gdja
Mj j
ĠHWGb Jj
ĠjJ YGQV
ĠeT H
Gd WYGe
ĠJd Hj
G TQ
Ġgh g
ĠGddG LF
ĠLGe Y
ĠGdY XeI
ĠGdM Qha
ĠLfO jG
SG gG
ĠJf Wb
cQj SJ
Ġdc GaI
ĠddJ hGUd
ĠQ eGO
ĠfJ TGQc
Ġd gjFI
NGH QGJ
ĠJJ UhQ
ĠHjQ O
ĠGdQGb UI
ĠbjQ ZjRSJGf
bj gG
ĠHGf UGa
S dje
ĠeG jHOh
ĠhJ QjO
ĠhGd eGA
Ġdef UH
Ġad hQjI
Ġdd VMGjG
GfJ hf
ĠN Je
ĠGdGW Q
Ġdhj R
SW M
bJd fj
Gdd Yjf
ĠQ bGHI
ĠW djb
ĠGdc hHj
ĠjJ dGYH
ĠeSd Mjf
c jd
ĠeY GO
jc GJ
Ġa SJchf
hc hdG
UQ g
ĠGdHQJ bGd
ĠdM ed
ĠU dG
ĠUfG YjI
ĠeJhGL OI
ĠGdeN HQ
ĠajOQ Gdj
ĠhS jJ
UM jaI
ĠSJ ONd
ĠhGde hJ
ĠGdJ ScY
ĠHj VI
ĠJQc hG
ĠhGd NHQGA
ĠSf Jj
Ġh YfOgG
ĠhJ Yde
ĠeJhGL OG
ĠUj Z
Ġc QjeI
ĠhGO Nd
ĠS hfjG
ĠdG bhdg
ĠSJGf dj
Ydj T
ĠJHc jf
ĠGde GR
Ġde eKd
ĠeM dg
ĠGdef Le
ĠGfJX Qi
ĠhQ heGfjG
ĠjSG hQgG
hG HjS
ĠjT OO
ĠdM he
ĠHQjJ hf
ĠhdG MX
JfG jJ
e dg
ĠGdJY UH
ĠJO QjHG
ĠGZ V
ĠJM Q
ĠH fJGFL
ĠGj dGj
djT jG
Sd h
Ġhj N
GdT eS
j XgQ
eGf jf
ĠddGT eFRGR
ĠHQ UO
ĠK eGQ
ĠHe LehYI
ĠjdJ bW
ĠGe SJ
ĠHGdJ YjjfGJ
Ġh QLGd
bQ hf
JeG Sc
ĠHMK fG
ĠJYJbO g
ĠedGHS gG
R YGL
ĠhbGF Y
R bg
ĠhGf Z
Ġjg Oj
ĠGNOe c
W jfj
ĠHe g
ĠGP Gf
Ġc L
ĠGdb Vjg
ĠhGb aI
ĠeO jfg
hd cj
GF dGJ
Ġdb jGS
ja Vd
ĠJLGg c
ĠHe QGbHI
F UGd
ĠL SJQ
Ġj dH
aQ fSG
dh Qj
ĠGdb GQ
ĠGdGQ cGf
Ġh KdGKhf
ĠHe S
ĠJGj jOG
ĠjcJ ed
ĠGdS YI
ĠGdJM Qj
ĠeMJ Gd
GH Oh
MG SHI
Ġjg Ojc
ĠGh GeQj
ĠGJU Gdc
Gdc GHJf
ĠGdG TQWI
ĠdJ GNP
ĠfU GFM
GdT GH
ĠGdbGF d
ĠfhG jG
ĠJMV Qj
LR FI
dd MUhd
ĠjJYQV hf
ĠHGd ZjQI
Ġfe Sc
ĠhGde HGOQGJ
hj YJHQ
ĠU jfjI
ĠfM hc
Ġa GU
ĠHHYV fG
Hj P
ĠGfJ b
ĠHTQ hW
fS Gd
Ġd bJdg
ĠeW dhHI
ĠGQS dJg
cGf gG
ĠGdg Gd
ĠHGd VZW
ĠGc SQ
ĠHGJ J
eSJ hi
GUO bGFj
ĠjO Nf
ĠGYW g
ĠGdG aYi
MU GAGJ
ĠeGQ i
ĠL fI
ĠV hGHW
ĠQSe J
ĠSf YQa
ĠGdcQ GeI
ĠeGQ jfh
Ġhh MOI
ĠGdG jJGe
ĠGdf ed
ĠfQjO c
Nj dj
ĠefGbT JgG
ĠGdR HOI
ĠYfG hjf
hfG ed
ĠYGde c
L GQGJ
ĠGO GQGJ
Wj gG
ĠGdeN ja
ĠGKQ g
ĠG TQWI
ĠHGd QH
ĠGj H
ĠJM cj
Ġj UO
ĠeThT I
ĠhGdJ UOj
ĠGdeaG LF
YhO g
ĠGUO bG
ĠGdGHO jI
ĠGdGf aGP
hj Tcd
ĠddOj GQ
ĠeJ cde
ĠUd HI
Y GHjf
ĠGRYGL c
ĠHj jQ
ĠGYLH Jc
ĠSJ hGUd
ĠgGe hfO
ĠGfO Qjg
Ġj QGab
ĠZ QjS
cQ GJ
ĠhSj W
Gd hdO
ĠGdGS S
ĠH Pj
ĠhGd aQfSjI
ĠJU Zj
P dI
ĠGdGd jGa
ĠdGf Z
Ġb HGFd
ĠhGdU dGI
jG Zh
ĠGdU fY
ĠSf ZGOQ
ĠJU fjY
ĠMU QG
ĠjGd gG
g PGf
d GQj
cj QG
ĠGQSGd gG
Gf jc
ĠJ hcd
ĠO hGe
ĠJYQa Gf
ĠZ hQ
Ġhe YOGJ
ĠGdeb GQfI
ĠGdJbfj GJ
ĠhG SQ
ĠGdGTJ QGA
ĠHGde cJH
Ġed MI
ĠSYhOj g
ĠeSJbH dj
ĠGKj fG
Ġj dbi
ĠddJ ejjR
hje Kd
ĠZ QhH
Ġhf aP
ĠGZ Sd
GdY GFdI
RhL gG
Ġgh dGA
ĠJXf hf
ĠGdM Gdg
ĠGdad hb
ĠGdGecGf jGJ
ĠbO ejg
Ġj WGQO
ĠJa Ud
ĠGdHhdja GQjI
ĠGdY Qa
GfG K
ĠeJW hYj
ĠN ef
ĠjJ ONd
jJ Q
ĠT Hjg
ĠGSJ QGJjL
ĠGdQ hGf
ĠGO H
ĠhGdMeO ddg
Gdcd Ge
Ġdde SjM
ĠGdhQ hO
ĠG Yj
ĠGdeef hMI
Ġj GeQ
Ġeb QHjf
ĠS hGQ
ĠdGj ge
hG i
ĠGdY GOGJ
ĠGgOGa gG
Mj WGJ
ĠZ dj
ĠGH hJ
ĠjUd hG
ĠGdJbOjQ jI
ĠjQc H
ĠhGSJ eQGQ
ĠGda jO
ĠjL Q
ĠHYVfG GdHYV
ĠaQO jI
ĠhJb GQjQ
Gd NjGQ
ĠGdJ LOjO
ĠJQGLY hG
ĠGdNW jQ
G jS
ĠM T
ĠGdT Qcg
Qjc g
ĠeSJ eQG
ĠGR OGOJ
ĠjMO b
ĠGddGS dcj
ĠGdeY Wa
ĠGdMche g
hHj d
ĠUfG Yj
ĠGf GfjI
ĠSj fG
ĠJfGhd g
ĠaG YdI
c hjf
ĠhJ bOjQ
Gg cPG
hfG ej
ĠGdh jScj
ĠGdcJ a
ĠGQc Gf
ĠM cGe
ĠSGNP c
Z dI
ĠZ fjG
ĠGYJbO g
ĠHf hHI
O QLI
ĠR i
ĠLYd JgG
L jSj
ĠJb fY
ĠGK fJGf
Ġhe TGQjY
ĠGJPcQ jf
ĠgO ac
ĠHQTd hfg
ĠH hfR
ĠGdR gQI
Ġec YH
ĠM KGdI
ĠQG MJc
ĠGdZ ehV
ĠeN H
ĠGdGT JHGc
ĠGdeT cdGJ
ĠeYO fjI
ĠddGV WdGY
ĠGdTGF YGJ
ĠaQU G
HQ h
ĠGfJ bGO
ĠGdR bGb
Ġchjf R
ĠGdedh KGJ
he Gd
Rj gI
ĠHGda jQhS
ĠdGYJ eGO
W MI
ĠejdG Og
X GjG
Ġj hfGjJO
jO i
hLO JgG
Gef Mc
ĠGdLGe YjI
ĠGdGaJJGM jI
dj cS
ĠQYG jG
ĠeYXe ge
ĠJYGhf gG
Ġf dGMX
ĠGdSGHb g
ĠdGY Hj
ĠhJ ZjjQ
ĠhGK fGA
ĠGbGH dg
Z dJ
ĠHGdM eGjI
ĠJg GfjfG
ĠGdaJ M
G Pdc
ĠYf UQjI
ĠNj HI
d jQ
ĠO GQJ
GJ UGd
ĠYHO g
e SGYOI
ĠabO Jg
Ġjb gQ
ĠGdg Qe
ĠGdjg eG
Ġef Le
W QH
ĠYf jO
ĠGdeJ Mhd
ĠehYO fG
aGYd GJ
ĠJG KQJ
ĠGde MX
SG Yed
Ġbe Y
ĠddJ ZdH
ĠeJ dg
ĠeSJGA I
Q cfi
ĠhL Og
ĠGdfa hP
ĠGdeQJ aYI
ĠSj VY
ĠHOG Fd
ĠGN Ji
ĠGdG hGFd
ĠdhL Gf
ĠePf HG
ĠGdO GQ
VeGf GJ
F dg
ĠJQ YQ
ĠGfJHGg c
ĠGdKe jfI
c Qje
ĠHL Yd
ĠSc hajdO
ĠddGM cGe
G YdGf
ĠHGd jO
ĠdJ hLjg
ĠJGa gI
ĠehQ aj
jT Hg
Ġdc HGQ
ĠGL jGd
Ġe HGO
ĠGM QU
ĠjQjO fG
ĠHGd dYH
ĠdY GFdI
ĠWad gG
ĠfXja g
ĠGbJUGO jG
GdV GHW
Ġf ced
ĠcGf Z
Ġej ZGf
ĠGde VQH
ĠddJ aGge
ĠGdWH b
j MUd
ĠeMQL G
Ġege Jg
ĠGdJ MSf
ĠN GS
ĠGdR fL
ĠGdehL GJ
ĠSjf Z
Ġhe SGFd
ĠHc i
Ġhfj LjQjG
ĠGdbOjS jf
ĠGda GcS
ĠebY OG
ĠHa cQI
ĠGdSe YI
ĠGdUO b
j PgH
ĠfJ Yde
ĠhGdJ Mbjb
ĠLe YI
ĠGdf TWI
ĠGY Ra
ĠGdT QM
jSJ MSf
ĠYe O
GOj ej
L jQGJ
ĠGdJ hVjM
Ye dc
ĠOj S
ĠGdOG Ff
R eGf
ĠGdb aGRGJ
ĠhGd LRGFQ
ĠHd S
ĠM Se
ĠO QGc
ĠJG cQ
ĠJO Ndj
ĠGdege g
ĠGbJd gG
HO Q
Ġjf Gd
ĠGdGS hA
ĠGj SJ
ĠJJQc g
eJ fj
ĠGPG YI
jd fO
ĠGdeJ NUU
ĠYdjc i
ĠSj Md
ĠhZ OG
ef hQ
ĠHe MGhdI
ĠGdf SHjI
YfG Y
ĠJdbj fG
ĠHQ SGdI
ĠSjJ hLH
ĠGdcJQ hfjG
dj M
ĠGJ Qjf
ĠUhJ fG
ĠYde hG
ĠGdehL I
ĠJN ja
ĠfXGe gG
ĠJGT jQI
Ġeb GdGJ
ĠhJc Gdja
ĠGdS ajfg
ĠGdjef jI
Ġd Mj
ĠefgG L
ĠdGJ hLO
ĠYf Gf
ĠhJ d
eT Gcd
ĠGdege GJ
Ġd hGMO
ĠGh SJf
ĠHJ hbjY
ĠU eje
ĠhJ HOG
ĠGY UGQ
OY jfi
ĠGJ VhQ
ĠdJ LOjO
ĠHjc h
ĠGdQS Gdg
ĠGdS aGM
Ġde MGceI
Gd aJ
ĠfG Oi
ĠGhd hj
ĠjN Ti
ĠGdjg hOjI
ĠgGO Fjf
ĠhJVe jfg
ĠSj L
ĠjSJ OYj
ĠeTGQ cJ
hJ eKd
SGJ jf
ĠHebO hQc
ĠGdM Re
RQ YI
Ġh hda
ĠY S
ĠS OjOI
ĠSf c
hdGJ I
cfhdhL jGJ
jc Q
ĠGdQa jb
ĠVYja g
ĠGdYH A
ĠhSj eG
ĠjYJ Re
ĠGdeL QI
ĠeRO Me
ĠJU ajI
ĠGdM hJ
Ġedj hfG
ĠGdHQde GfjI
ĠG Mbb
Ġh eJi
ĠdJT Zjd
ĠebGHd Jj
dj chf
ĠGdbjG SjI
HW J
Ġej fG
Ġja Td
TW JgG
hd OJ
ĠJg HW
fa LQ
ĠJYO O
GQJ aGY
ĠeJ Qh
ĠHW fj
Ġej Z
ĠdGO f
Ġg jQh
ĠGdL GaI
ĠHGdd hf
Ġd beI
ĠGdQHG YjI
ĠGdJ hGab
ĠGdc aGM
ĠHe fG
Ge Jc
hH gPG
ĠGdGfJ UGQ
Ġd bWI
Ġj NdU
ĠGHJ Gg
Ġg jS
ĠU QG
ĠGSJ GL
Jg O
ĠGdeaQ W
ĠGdMQGQ j
ĠGdU dGg
ĠHGde N
ĠMUd Jj
a cja
Gd HI
ĠHGH c
Ġd GQSGd
ĠOhd g
ĠO dJG
ĠddG hRhf
ĠG beJ
ĠHd YH
ĠGbJ QHfG
ĠGYO Jg
ĠOjJQ hjJ
ĠGdb HI
hGJ fG
ĠffGTO ce
W gGO
ĠJL JeY
ĠQGF MJgG
ĠGJ OQH
dj Jfj
ĠHGdZ KjGf
ĠHGdH QjO
ĠGdeG SGI
ĠTQc Jj
ĠTe hdge
HhQ Z
ĠPGg Hg
ĠJYjf ge
ĠdGJ MOK
Ġejdj SG
ĠGTjG Fj
Ġj cd
Ġhe YdheGJ
aV I
ĠM Qha
ĠGRYL c
ĠhPcQ J
ĠGdeMG V
ĠdS g
QGj Gf
ĠjbhO fG
ĠJZjQ GJ
ĠGdYe dGbI
ĠGdJS hjb
ĠHGde OGQS
ĠGdHQ hJjf
ĠfgG jg
ĠddG UdGM
hcj dGh
ĠJh Kjb
ĠO gGc
ĠJS hA
ĠGdJ jc
ĠGdOH HI
j Hg
aJ QGV
OGF fG
ĠhG hdGO
ĠeGf TSJQ
ĠGdMd hjGJ
ĠjHJ YO
ĠhG UOGQ
ĠHe Gef
ĠGdJaG gGJ
ĠGdG hHQG
ĠHG hdh
ĠOj Rj
ĠVef gG
ĠHL GFRI
ĠGdh SGWI
ĠhS hjSQG
Ġc MO
ĠGS Fd
ĠHQ be
Ġe VGLYI
eSJ YO
Gd RhGL
ĠJ aJQV
Qb hf
ĠddS eGM
ĠddGfJ bGe
U QJ
bG YGJ
Ġdef Rdj
ĠGNJj GQg
ĠhLO Je
HQG jf
ĠaL hI
ĠGdJ MSjfGJ
SG cG
ĠHGdGJ aGb
Y hHGJ
SJ jcjI
ĠfS ejg
ĠM UQ
ĠGTha g
cGQ jf
QH gG
ĠHb UI
ĠS ejJ
hGd f
V hjI
ĠGdf SQ
W c
ĠH hRGQI
ĠJSGYO jfj
Tf h
ĠGdP YQ
ĠadSW jfj
ĠHJ LQHI
ĠSdj eG
P Hj
ĠjSe MhG
ĠGYLH Jfj
eef hY
ĠGdf aG
ĠdW HjH
Gde N
Hj gI
ĠGMJ LR
ĠGdeKb dI
Ġa GW
ĠJfG ej
ĠYhO hG
eh YO
ĠGdMOhO jI
GH jQ
TO c
ĠhLhg ge
Ġc jSj
Ġcd Hc
ĠddJ OGHjQ
ĠGdLe ghQj
hQ H
hJ Tcd
ĠGdZ QGe
eGO GJ
Ġe OYh
ĠTNU jJj
ĠGde hO
Ġddcfj SI
ĠGYW J
ĠGdGeJ YI
ĠH dc
ĠP fHj
ĠGdGMJ eGd
ĠhY HQ
ĠGdeKd LGJ
ĠJQ hb
V jGJ
ĠGf cdJQG
Ġja Vj
ĠcJH Jg
ĠeQc Rj
ĠJNW jJ
ĠGj QjS
ĠGNJ aj
ĠhU fGOjb
ĠGUObGF i
ĠGdY Rd
ĠGdeMJ d
ĠhGdM GLI
ĠeG jJ
Gdb UI
ĠGdhG b
Ġf hHGJ
ĠGdK bH
ĠJGKjQ GJ
ĠGQf hdO
ĠG YGbI
ĠhJY Ojd
ĠhGf aGP
ĠhJT jQ
ĠeQ MI
ĠdT Qa
GdN WI
PcQ g
ĠHg PI
ĠfJ NdU
ĠJYW jc
dG aj
ab hG
ĠeT Yd
ĠeN HQ
ĠGdO YGjI
ĠjO i
ĠHYe Qc
JPcQ hG
GaJM hG
ĠGdHJQ hd
ĠHU Ojb
Ġe VGL
ĠSGYO fG
ĠGcG PjH
ĠHGO F
ĠH aG
ĠGdM eje
ĠGdG Sc
hfj R
ĠdWja g
ĠGR hGL
Ġaj O
Ġf YJHQ
ĠR jGO
ĠHGMV GQ
ĠGdeQG Sd
G jaGf
ĠddJ f
ĠGdcHjQ g
aR GR
ĠJ HYK
ĠJJ dGYH
Ġhe ahVjI
ĠSc hJj
ĠHef M
ĠgGj dj
ĠJLf f
ĠGdeL GQj
ĠVQH c
ĠUGe JG
hGSe MhG
ĠJJ QOO
hGf XQ
Gde c
GJ SJWjY
ĠGdN UGFU
ĠhR fc
GOJ Gf
ĠcJ Hg
ĠGdM eQ
ĠNWGH G
h YdjfG
ĠcQ h
ĠYbO G
ĠLGfH gG
Ġejd R
ĠdGN JjGQ
Ġhb QGQGJ
ĠHGdb VjI
ĠeY GQc
GdY bjO
RG hjI
JgOjO GJ
ĠHhS YgG
ĠGdbU je
ĠGdj hQGfjhe
ĠJQjf jOGO
Ġa dGf
ĠGdL eYg
Yd HI
ĠGOe Gf
ĠGdGKQ jI
ĠGdb WjY
hGJ e
ĠJa dJ
ĠGdGY UGQ
ĠehbY fG
bO S
ĠHGd QO
bj Jg
GdJ Yjjf
QGA g
Ġd hb
ĠhGde WGdHI
g GQJ
ĠGdb ghg
ĠGdeMJ Qajf
ĠGdT Gb
ĠRj GQJg
Y K
WG hdI
H hOG
GHY GO
Gd fGQ
ĠGFJe Gf
ĠGdeXd heI
ĠGdK hH
ĠGdZ R
ĠGdHQfGeL j
ĠGU QGQ
ĠJN jafj
ĠHGQ fR
ĠeH fjI
Ġh Kb
ĠGSQ Yj
Ġe Wj
ĠeTJ Gb
ĠGddj Hj
dG GMO
ĠjL HQ
ĠJ GdjG
ĠGdZ LQ
ĠcG Khd
ĠH fYe
ĠhJ GKjQ
ĠOG jd
ĠGSJ M
ĠNWW fG
ĠGdG ajhf
ĠhGd hUhd
ad GfO
ĠGdGNHGQ jI
ĠPGg Hjf
ĠGdNQ OI
Ġc hS
ĠGSJ YjO
LGQ jI
ĠhGdY Gedjf
ĠddJ Mcje
J RGR
ĠGdGSJ HjGf
ĠddJ Naja
e UW
ĠJf gGQ
ĠGdaj J
ĠL eL
ĠQMd Jj
N V
ĠSG geJ
ĠjJ Hb
ĠQGLY hf
QG Sc
ĠGdeJ fhYI
GbJ QH
ĠGdGH fGA
ĠeG Sj
ĠZ QHj
HGQ jS
Ġeb QaI
ĠeY GbHI
bGHd fj
Ġh aYd
ĠeL O
ĠGHO YJ
OY je
GJYQa hf
Hj L
Sf NQL
TGg OJ
Gdd YHI
ĠGdLO jQ
G Ydi
ĠHU e
O QHjf
ĠGdJ SdM
GH jd
df aYd
Ġhce Gf
G hc
ĠGJaGb fG
ĠSQGM c
ĠJb GQH
Ġf aGjGJ
ĠGSJ MbGbGJ
ĠdY hGFdge
ĠQ ejJ
ĠGej dj
ĠhT ha
hY f
ĠGT Zd
ĠGdg hcj
ĠhGde YJ
ĠhUa gG
ĠHGdM Rf
ĠhGQ Me
Q hO
ĠW db
ĠGYJ bGdg
ĠQFjS g
ĠJ ZjH
ĠJNHQj g
ĠhKj bG
ĠajQhf jcG
hQO hf
ĠLGc S
ĠS YhOjI
ĠHT QcI
Ġhe Vi
MW Gfj
ĠGMV QJgG
Ġhh SGFW
ĠGdeYO jI
ĠjUfY hf
Ġd MS
gG Og
ĠGdH bGdI
ĠGdGSJ cTGa
Ġe QShe
ĠSfJ G
ĠT GY
ĠGK GQg
ĠeT Zd
ĠSG VWQ
ĠJe dG
ĠhGdT QcGA
ĠPGcQ Jj
hQ Oj
aG be
ĠGdJb GdjO
ĠGdY GR
ĠeYb hdG
j Zh
hJ YJHQ
ĠGdeNJ GQ
ĠjNU fj
ĠJ Sdd
ĠGda Gj
GHj V
ĠG RG
ĠhJ GNP
ĠJH b
ĠdG V
ĠZ hd
ĠOjcS hf
ĠHg DdGA
ĠGde hVI
[...]
