{"<s>":0,"<pad>":1,"</s>":2,"<unk>":3,"<mask>":4,"[number]":5,"!":6,"\"":7,"#":8,"$":9,"%":10,"&":11,"'":12,"(":13,")":14,"*":15,"+":16,",":17,"-":18,".":19,"/":20,"0":21,"1":22,"2":23,"3":24,"4":25,"5":26,"6":27,"7":28,"8":29,"9":30,":":31,";":32,"<":33,"=":34,">":35,"?":36,"@":37,"A":38,"B":39,"C":40,"D":41,"E":42,"F":43,"G":44,"H":45,"I":46,"J":47,"K":48,"L":49,"M":50,"N":51,"O":52,"P":53,"Q":54,"R":55,"S":56,"T":57,"U":58,"V":59,"W":60,"X":61,"Y":62,"Z":63,"[":64,"\\":65,"]":66,"^":67,"_":68,"`":69,"a":70,"b":71,"c":72,"d":73,"e":74,"f":75,"g":76,"h":77,"i":78,"j":79,"k":80,"l":81,"m":82,"n":83,"o":84,"p":85,"q":86,"r":87,"s":88,"t":89,"u":90,"v":91,"w":92,"x":93,"y":94,"z":95,"{":96,"|":97,"}":98,"~":99,"¡":100,"¢":101,"£":102,"¤":103,"¥":104,"¦":105,"§":106,"¨":107,"©":108,"ª":109,"«":110,"¬":111,"®":112,"¯":113,"°":114,"±":115,"²":116,"³":117,"´":118,"µ":119,"¶":120,"·":121,"¸":122,"¹":123,"º":124,"»":125,"¼":126,"½":127,"¾":128,"¿":129,"À":130,"Á":131,"Â":132,"Ã":133,"Ä":134,"Å":135,"Æ":136,"Ç":137,"È":138,"É":139,"Ê":140,"Ë":141,"Ì":142,"Í":143,"Î":144,"Ï":145,"Ð":146,"Ñ":147,"Ò":148,"Ó":149,"Ô":150,"Õ":151,"Ö":152,"×":153,"Ø":154,"Ù":155,"Ú":156,"Û":157,"Ü":158,"Ý":159,"Þ":160,"ß":161,"à":162,"á":163,"â":164,"ã":165,"ä":166,"å":167,"æ":168,"ç":169,"è":170,"é":171,"ê":172,"ë":173,"ì":174,"í":175,"î":176,"ï":177,"ð":178,"ñ":179,"ò":180,"ó":181,"ô":182,"õ":183,"ö":184,"÷":185,"ø":186,"ù":187,"ú":188,"û":189,"ü":190,"ý":191,"þ":192,"ÿ":193,"Ā":194,"ā":195,"Ă":196,"ă":197,"Ą":198,"ą":199,"Ć":200,"ć":201,"Ĉ":202,"ĉ":203,"Ċ":204,"ċ":205,"Č":206,"č":207,"Ď":208,"ď":209,"Đ":210,"đ":211,"Ē":212,"ē":213,"Ĕ":214,"ĕ":215,"Ė":216,"ė":217,"Ę":218,"ę":219,"Ě":220,"ě":221,"Ĝ":222,"ĝ":223,"Ğ":224,"ğ":225,"Ġ":226,"ġ":227,"Ģ":228,"ģ":229,"Ĥ":230,"ĥ":231,"Ħ":232,"ħ":233,"Ĩ":234,"ĩ":235,"Ī":236,"ī":237,"Ĭ":238,"ĭ":239,"Į":240,"į":241,"İ":242,"ı":243,"Ĳ":244,"ĳ":245,"Ĵ":246,"ĵ":247,"Ķ":248,"ķ":249,"ĸ":250,"Ĺ":251,"ĺ":252,"Ļ":253,"ļ":254,"Ľ":255,"ľ":256,"Ŀ":257,"ŀ":258,"Ł":259,"ł":260,"Ń":261,"ĠG":262,"ĠGd":263,"čĊ":264,"Ġe":265,"Ġd":266,"Gd":267,"Gf":268,"ĠH":269,"Ġh":270,"ĠJ":271,"Ġa":272,"Ġj":273,"ĠGf":274,"ĠY":275,"fG":276,"ĠGde":277,"GJ":278,"Ġg":279,"jI":280,"GQ":281,"Ġc":282,"jf":283,"Ġef":284,"Ge":285,"Ġaj":286,"PG":287,"gG":288,"dG":289,"ĠS":290,"eG":291,"hf":292,"be":293,"QG":294,"Qj":295,"ĠGdG":296,"mbe":297,"nu":298,"mber":299,"number":300,"hd":301,"ĠYd":302,"ĠM":303,"dc":304,"SJ":305,"bO":306,"Ġ[":307,"jQ":308,"Ġf":309,"Yd":310,"jO":311,"ĠL":312,"ĠGdJ":313,"ĠdG":314,"hG":315,"jG":316,"ĠT":317,"ĠYdi":318,"Ġb":319,"OG":320,"cf":321,"Oj":322,"ĠhGd":323,"fj":324,"ĠeG":325,"dj":326,"ge":327,"ĠGdY":328,"hQ":329,"ĠHGd":330,"Pdc":331,"Ġdd":332,"MO":333,"GH":334,"ĠgPG":335,"ĠYf":336,"he":337,"YO":338,"Qa":339,"ĠGdS":340,"Pg":341,"ĠGdi":342,"GO":343,"ĠeY":344,"GfJ":345,"ĠQ":346,"ĠGdM":347,"Hj":348,"Ld":349,"SG":350,"ĠN":351,"ej":352,"QI":353,"ĠO":354,"GfG":355,"Ye":356,"YJ":357,"ĠgfG":358,"ĠGj":359,"HQ":360,"hb":361,"ĠU":362,"dI":363,"aj":364,"ĠGN":365,"bj":366,"jS":367,"ef":368,"ĠPdc":369,"Jj":370,"ĠGdL":371,"gd":372,"ĠjG":373,"jc":374,"hO":375,"bG":376,"HG":377,"bI":378,"Ġde":379,"fJ":380,"ĠGdGe":381,"je":382,"cd":383,"ĠhG":384,"ĠGda":385,"ja":386,"MJ":387,"ĠGfJ":388,"ĠW":389,"YI":390,"ĠGdb":391,"Qc":392,"QH":393,"dg":394,"ĠGdT":395,"jJ":396,"hL":397,"chf":398,"ĠZ":399,"ĠGdH":400,"bJ":401,"MS":402,"ĠGdO":403,"Ġcd":404,"VG":405,"ce":406,"ĠGdGf":407,"ha":408,"ĠcGf":409,"gPG":410,"Pj":411,"ĠGdf":412,"ĠGdN":413,"jd":414,"Ud":415,"ĠGS":416,"YQa":417,"dbO":418,"ĠTj":419,"cGf":420,"GF":421,"ĠGe":422,"ĠGh":423,"ecf":424,"ĠGfG":425,"de":426,"eI":427,"aG":428,"HI":429,"ĠGSJ":430,"QjO":431,"ed":432,"Hd":433,"ĠGdQ":434,"ĠGdU":435,"cQ":436,"ĠGdeJ":437,"bW":438,"ĠGJ":439,"YG":440,"Ġgh":441,"ĠgPg":442,"eGPG":443,"Sj":444,"ĠYdj":445,"hJ":446,"ĠGfg":447,"Je":448,"hj":449,"GL":450,"Ġdj":451,"Gfg":452,"aYd":453,"ĠGdJj":454,"ĠGdh":455,"jY":456,"OI":457,"Ġjecf":458,"ĠGH":459,"Se":460,"LH":461,"QJ":462,"Gde":463,"Yde":464,"ĠGdj":465,"ĠGdc":466,"dJ":467,"Ġdc":468,"ĠGdW":469,"hY":470,"QL":471,"fI":472,"ĠeJ":473,"TQ":474,"ĠQG":475,"ĠHG":476,"ĠGdPj":477,"fO":478,"MI":479,"GU":480,"hH":481,"MH":482,"MSfG":483,"NU":484,"Qi":485,"ĠbO":486,"ĠJb":487,"HO":488,"Yj":489,"hS":490,"MG":491,"ĠJJ":492,"GQI":493,"XQ":494,"Mj":495,"ĠhJ":496,"ĠSJ":497,"dcf":498,"cJ":499,"eJ":500,"Gfj":501,"ĠgfGc":502,"ĠcfJ":503,"SH":504,"eQ":505,"ĠGdd":506,"ĠR":507,"ĠdOj":508,"GA":509,"ĠjJ":510,"ĠTjA":511,"Gg":512,"ĠSj":513,"aJ":514,"].":515,"dH":516,"hc":517,"MOI":518,"aS":519,"ĠHY":520,"PgH":521,"gj":522,"ĠK":523,"YJbO":524,"MOK":525,"Gc":526,"ĠHT":527,"WI":528,"KQ":529,"ko":530,"nko":531,"unko":532,"wn":533,"unkown":534,"Gdj":535,"eY":536,"Nd":537,"ĠGY":538,"ĠSG":539,"Mf":540,"ĠGa":541,"ĠHGf":542,"Kd":543,"Jc":544,"ĠJY":545,"ĠGb":546,"Ġdf":547,"ĠeL":548,"jOI":549,"UO":550,"aI":551,"SI":552,"GdI":553,"Qjb":554,"],":555,"Sd":556,"ĠJe":557,"ĠV":558,"ĠGdOhd":559,"ĠdJ":560,"ĠabW":561,"jQI":562,"ĠGc":563,"Rj":564,"GN":565,"Tc":566,"ĠYfO":567,"ĠHYO":568,"Ji":569,"ĠGfc":570,"QV":571,"Mb":572,"Ġdcf":573,"hGd":574,"WjY":575,"ĠdjS":576,"ĠLOG":577,"hg":578,"ĠGL":579,"ĠGddg":580,"QO":581,"YH":582,"Jg":583,"GfgG":584,"Yed":585,"Ga":586,"QGA":587,"Ġgj":588,"hV":589,"Gj":590,"ĠGdYGe":591,"bd":592,"ĠGdK":593,"Oe":594,"ĠLej":595,"ĠhL":596,"ĠGT":597,"Vd":598,"ĠHjf":599,"jGJ":600,"ĠJf":601,"Me":602,"ĠHg":603,"SGYO":604,"ĠGPG":605,"ĠGdZ":606,"HY":607,"ĠGjVG":608,"GS":609,"ĠZjQ":610,"QGJ":611,"GY":612,"ĠGdGN":613,"ĠGdGeQ":614,"ĠGdfG":615,"ĠJM":616,"HGQ":617,"db":618,"ĠGMO":619,"fYe":620,"ĠHe":621,"ĠGfgG":622,"ĠdbO":623,"ĠGdeJMOI":624,"ĠGO":625,"ĠcGfJ":626,"ĠbHd":627,"ĠJT":628,"ĠaYd":629,"gh":630,"hR":631,"ĠHYV":632,"ĠGdef":633,"Ġgd":634,"ad":635,"ĠGM":636,"hQI":637,"GPG":638,"HM":639,"Ġjchf":640,"ĠeGPG":641,"Ġdh":642,"ĠGdg":643,"hGJ":644,"Qb":645,"fS":646,"GfjI":647,"GdJ":648,"ĠHO":649,"Ġai":650,"ĠMJi":651,"ĠjLH":652,"ĠOG":653,"QM":654,"QGQ":655,"ĠGdP":656,"gQ":657,"fi":658,"Ġhe":659,"ĠHJ":660,"ĠeT":661,"GOI":662,"GQL":663,"ĠcPdc":664,"VY":665,"KjQ":666,"ĠMS":667,"ĠSjO":668,"ĠP":669,"GM":670,"Rd":671,"ĠHj":672,"GQj":673,"ĠGLd":674,"LfI":675,"ĠYdjc":676,"fjI":677,"FI":678,"ĠSf":679,"jfj":680,"ĠGU":681,"ĠTNU":682,"ĠGdGSJ":683,"YQ":684,"GdG":685,"df":686,"ĠGYQa":687,"Ġdde":688,"Ged":689,"hbJ":690,"ĠjY":691,"Ġdg":692,"ĠJchf":693,"dO":694,"JgG":695,"ĠhGde":696,"ZjQ":697,"ĠJdc":698,"ĠGcKQ":699,"ĠGdeO":700,"ĠGW":701,"HOh":702,"djS":703,"FjS":704,"eg":705,"Vj":706,"Ydi":707,"Xf":708,"ab":709,"ĠeSJ":710,"MJGL":711,"bhd":712,"hjI":713,"aQ":714,"ĠLO":715,"ĠJL":716,"ĠYGe":717,"OY":718,"ĠNd":719,"Jd":720,"gO":721,"GLd":722,"Gdc":723,"ĠGdGQ":724,"ĠGNQ":725,"WG":726,"hU":727,"ĠfaS":728,"ĠddG":729,"hfj":730,"ĠHQ":731,"ĠfG":732,"hGQ":733,"bH":734,"ĠGdGhd":735,"cja":736,"ĠYed":737,"dh":738,"ĠeKd":739,"FG":740,"GdjI":741,"SQ":742,"Zj":743,"ĠJN":744,"ĠddJ":745,"ĠLjO":746,"MX":747,"ĠhdG":748,"ĠGdYed":749,"ĠGdGW":750,"ĠYfOeG":751,"ĠdGf":752,"ĠMO":753,"KI":754,"aY":755,"ĠJQjO":756,"eGY":757,"ĠGdGee":758,"ĠYdjg":759,"ĠGdeY":760,"LdS":761,"ĠeO":762,"ĠGQjO":763,"ĠHN":764,"ĠJaYd":765,"hLO":766,"HJ":767,"ejI":768,"Ġjf":769,"ĠhGdJ":770,"ĠGdeSJ":771,"SJWjY":772,"ĠGdGJ":773,"fGA":774,"jfI":775,"ĠeN":776,"hGf":777,"ĠJYQa":778,"VQ":779,"Wj":780,"GJj":781,"HjQ":782,"TGQ":783,"ĠHTGf":784,"Ġcja":785,"GR":786,"dOj":787,"MGhd":788,"ĠHM":789,"ĠhH":790,"hi":791,"eL":792,"ĠGdhbJ":793,"ĠGNQi":794,"jecf":795,"bOe":796,"ĠGdGL":797,"bjI":798,"Fj":799,"ĠHgG":800,"fMf":801,"ĠHf":802,"ĠSha":803,"hI":804,"ĠHc":805,"Tj":806,"Sc":807,"GeG":808,"QjQ":809,"VGA":810,"Ġhdcf":811,"ĠHGdJ":812,"GP":813,"hba":814,"ĠYe":815,"bQ":816,"ĠOhd":817,"MjM":818,"ĠGQ":819,"ĠeM":820,"Qjc":821,"Kj":822,"GW":823,"gPg":824,"LO":825,"ĠhbJ":826,"UI":827,"hdcf":828,"hdG":829,"ĠMSfG":830,"NO":831,"ĠGdR":832,"GI":833,"NP":834,"ĠMb":835,"che":836,"bjbI":837,"Hg":838,"eh":839,"PcQ":840,"ĠGddj":841,"FjI":842,"ĠQGF":843,"cfJ":844,"ĠaQ":845,"UQ":846,"Gfhf":847,"ĠGdeM":848,"ĠGdNGU":849,"Lj":850,"hQj":851,"OJ":852,"ĠhS":853,"ĠGdjhe":854,"ĠGdGT":855,"ĠHNjQ":856,"ĠOj":857,"ĠeD":858,"ĠJS":859,"Ġhj":860,"ĠeS":861,"ĠQLd":862,"dGe":863,"bhe":864,"ĠNW":865,"aGd":866,"jGA":867,"ĠfMf":868,"ĠGdYGde":869,"ĠceG":870,"jchf":871,"Ġjhe":872,"SGJ":873,"QHeG":874,"ĠMGd":875,"ĠGNHQ":876,"ĠTjFG":877,"RjR":878,"ĠJa":879,"ejY":880,"ĠGdeL":881,"ĠGaVd":882,"ĠecGf":883,"YeGd":884,"Hc":885,"bGF":886,"ĠhGMO":887,"ĠLejY":888,"ĠHGde":889,"ĠGddLfI":890,"Gfc":891,"ĠGdeD":892,"QGF":893,"GSJ":894,"hbY":895,"jg":896,"ĠGdGS":897,"ĠGdjS":898,"Gb":899,"ĠGffj":900,"ĠHeG":901,"Xe":902,"gfG":903,"ĠNdGd":904,"VM":905,"haj":906,"SGf":907,"bjb":908,"hM":909,"ĠMj":910,"QjH":911,"jLH":912,"ĠGdJf":913,"TcQG":914,"SGA":915,"ĠfJ":916,"ĠGK":917,"bGA":918,"ĠeQI":919,"ĠGSJWjY":920,"GYJbO":921,"Uhd":922,"bi":923,"ĠMbG":924,"ĠGYJbO":925,"OO":926,"Wd":927,"Gej":928,"ĠGjf":929,"QcI":930,"ĠJU":931,"ĠaJ":932,"GT":933,"gGH":934,"ĠGYJ":935,"QGI":936,"hX":937,"UGd":938,"hfG":939,"GQGJ":940,"ĠGYde":941,"SjO":942,"deGPG":943,"ĠJO":944,"ĠefP":945,"Ydhe":946,"aX":947,"dGA":948,"Ydj":949,"Gjf":950,"ĠGMH":951,"HW":952,"ĠUMjM":953,"HGd":954,"ĠJQ":955,"ĠGdHj":956,"bGH":957,"ĠGdYGeI":958,"Ua":959,"SjI":960,"ceG":961,"YjO":962,"QGa":963,"ĠjL":964,"GeI":965,"fGeL":966,"ĠGdeT":967,"SHH":968,"Ġjecfc":969,"ĠGdeS":970,"eQM":971,"ĠGdefG":972,"ĠGjgG":973,"ĠGdGa":974,"ĠGZ":975,"QaI":976,"dGb":977,"WdH":978,"ĠefG":979,"ajP":980,"ĠGHOG":981,"GeQ":982,"JeGY":983,"cJH":984,"hdI":985,"ĠGfj":986,"ĠfX":987,"ĠGdHQ":988,"Sha":989,"ĠQH":990,"ĠjT":991,"GQjO":992,"QjbI":993,"MeO":994,"ĠHd":995,"gjG":996,"ĠdSJ":997,"Ġhb":998,"QjI":999,"Fd":1000,"ĠGdfGS":1001,"eGf":1002,"ĠJYde":1003,"ĠjM":1004,"dGM":1005,"ĠMOK":1006,"ĠajgG":1007,"Ġajg":1008,"ĠGdGfJ":1009,"Lg":1010,"ĠdgG":1011,"ĠJSJ":1012,"Ydb":1013,"jR":1014,"GV":1015,"Qg":1016,"ĠhGf":1017,"SGYOI":1018,"eGQ":1019,"YdheGJ":1020,"UdJ":1021,"YfO":1022,"eQMHG":1023,"hOI":1024,"jGI":1025,"ĠGdhG":1026,"MSH":1027,"jH":1028,"djd":1029,"heG":1030,"Yjf":1031,"bOje":1032,"Ġjcf":1033,"ĠGg":1034,"ĠdOjc":1035,"QGb":1036,"ĠQL":1037,"Xje":1038,"Ġeg":1039,"OjO":1040,"ĠGdHdO":1041,"cdG":1042,"ĠjSJ":1043,"ĠjO":1044,"GHI":1045,"ĠGdSj":1046,"ĠSH":1047,"Ġhf":1048,"YGJ":1049,"Oi":1050,"ĠYdjgG":1051,"ĠMjGJ":1052,"ĠGhd":1053,"ĠOGF":1054,"GdGf":1055,"ĠX":1056,"ĠGdQLd":1057,"ĠGdJM":1058,"ĠHgPG":1059,"cde":1060,"ĠJH":1061,"GQH":1062,"cQI":1063,"ĠTc":1064,"GLI":1065,"QGV":1066,"QGc":1067,"ĠGdgj":1068,"ĠhM":1069,"OGA":1070,"ĠGdQFjS":1071,"ĠTF":1072,"OGO":1073,"ai":1074,"jGOI":1075,"Sf":1076,"GQc":1077,"LI":1078,"GdH":1079,"WQ":1080,"bY":1081,"ĠUOj":1082,"GfI":1083,"eGd":1084,"Re":1085,"ĠMhd":1086,"ZG":1087,"eKd":1088,"ĠHPdc":1089,"Gdi":1090,"ĠGdOhdj":1091,"bJd":1092,"bHd":1093,"UGO":1094,"NGU":1095,"ĠGdcKjQ":1096,"hA":1097,"ĠSe":1098,"ĠdjSJ":1099,"LR":1100,"ĠGNJ":1101,"HGM":1102,"ĠhGdO":1103,"ĠjhLO":1104,"hQjI":1105,"eS":1106,"ĠHTcd":1107,"gfGc":1108,"ĠeYc":1109,"ajI":1110,"ĠeYj":1111,"ĠGdQG":1112,"QGe":1113,"Ġhc":1114,"ĠGaYd":1115,"Ġjecffj":1116,"ĠGP":1117,"ĠGdMche":1118,"ĠjN":1119,"ĠHS":1120,"ĠGdGfSGf":1121,"ĠfYe":1122,"hjd":1123,"YhO":1124,"ĠKe":1125,"LQ":1126,"Gddg":1127,"ĠbdJ":1128,"fSHI":1129,"ĠGdhW":1130,"ĠGdOhdjI":1131,"TGA":1132,"ĠGdGO":1133,"ĠGdSjO":1134,"MSf":1135,"ĠhR":1136,"ĠjS":1137,"XeI":1138,"HZj":1139,"Lf":1140,"ĠehG":1141,"RjO":1142,"ĠhGMOI":1143,"cS":1144,"ĠGdV":1145,"QGL":1146,"Ghg":1147,"Ġhef":1148,"ĠGdOG":1149,"hdj":1150,"ĠGdGbJ":1151,"TQhY":1152,"ĠGHj":1153,"ĠSjOj":1154,"OQ":1155,"NOe":1156,"ĠGMJ":1157,"YjI":1158,"ĠbGd":1159,"YGhf":1160,"ĠOhdGQ":1161,"Gh":1162,"ĠHU":1163,"Yg":1164,"ĠGdhM":1165,"ĠGdTj":1166,"ĠQHeG":1167,"ĠGffG":1168,"ĠGUO":1169,"eO":1170,"ĠPGJ":1171,"ĠSjchf":1172,"ĠRhL":1173,"dGf":1174,"ĠJMJ":1175,"ajf":1176,"hW":1177,"ĠPG":1178,"ĠWQjb":1179,"Ġha":1180,"ĠJQc":1181,"Qe":1182,"eGA":1183,"TcdI":1184,"bGJ":1185,"GfH":1186,"ĠGdTQ":1187,"ĠGdJb":1188,"YfOeG":1189,"ĠGdaQ":1190,"ĠdfG":1191,"ĠjMOK":1192,"ĠGSe":1193,"GdGJ":1194,"ag":1195,"ĠNGU":1196,"Ġhaj":1197,"ĠjHOh":1198,"Ġbe":1199,"Yf":1200,"ĠJc":1201,"ĠQa":1202,"SGFd":1203,"ĠeK":1204,"ĠYdjfG":1205,"RI":1206,"Ġeh":1207,"RGd":1208,"ĠOGFeG":1209,"ĠeU":1210,"QGO":1211,"dPG":1212,"JY":1213,"ĠGNP":1214,"ĠMjK":1215,"ĠdeGPG":1216,"ĠQj":1217,"Mh":1218,"HGO":1219,"jaI":1220,"hLg":1221,"ĠbW":1222,"ĠGdPjf":1223,"bU":1224,"GcjO":1225,"GQS":1226,"TQI":1227,"Qjf":1228,"ĠMbhb":1229,"cj":1230,"ĠOY":1231,"Zd":1232,"KjQG":1233,"Ġefg":1234,"ĠdOjfG":1235,"ĠQGjJ":1236,"ĠOhf":1237,"ĠdY":1238,"QS":1239,"Gdd":1240,"GfGJ":1241,"ĠGeQ":1242,"fGf":1243,"ĠGbhd":1244,"fGJ":1245,"ĠKdG":1246,"NOGe":1247,"cPG":1248,"ĠGdGM":1249,"HGJ":1250,"WbI":1251,"GcO":1252,"ceI":1253,"ĠGdGY":1254,"ĠGdbGfhf":1255,"YjT":1256,"GSe":1257,"ĠaV":1258,"eYjI":1259,"jOG":1260,"ĠajeG":1261,"dGJ":1262,"fhf":1263,"Ġefc":1264,"QcR":1265,"ĠJbhd":1266,"ĠGSa":1267,"jL":1268,"Ġbdj":1269,"hGA":1270,"GQJ":1271,"SW":1272,"Gdg":1273,"ĠhGfG":1274,"ĠGdGef":1275,"ĠjYfj":1276,"ĠhVY":1277,"ĠTcQG":1278,"HjH":1279,"ĠHW":1280,"GHb":1281,"ĠGdeN":1282,"Le":1283,"ĠaGf":1284,"Ġce":1285,"Ġfa":1286,"ĠGdaJ":1287,"ĠGdHM":1288,"GOj":1289,"Ġec":1290,"ĠefgG":1291,"Og":1292,"fjf":1293,"ĠGdHdOGf":1294,"ĠJW":1295,"HOG":1296,"ĠHGe":1297,"ĠGfge":1298,"HGH":1299,"Gda":1300,"GfXQ":1301,"ĠhGfJ":1302,"abW":1303,"GMH":1304,"Ġedj":1305,"ĠGdGb":1306,"ĠWdH":1307,"ĠGPgH":1308,"aGbjI":1309,"ĠGchf":1310,"ĠgjG":1311,"efi":1312,"QjHG":1313,"ĠGdecGf":1314,"ĠYOO":1315,"ĠGdab":1316,"ĠGdbj":1317,"RY":1318,"ĠjQjO":1319,"ĠJeGeG":1320,"jOj":1321,"ZjQI":1322,"ĠQFjS":1323,"hjJ":1324,"ĠLR":1325,"ĠGdjg":1326,"hOj":1327,"ĠQD":1328,"ĠGdKGfj":1329,"ĠGdSdGe":1330,"djGJ":1331,"ĠGYW":1332,"ĠedG":1333,"fOb":1334,"Ġhd":1335,"HjQI":1336,"JfG":1337,"ĠabO":1338,"JeQ":1339,"ĠGdbQGQ":1340,"ĠGdSjG":1341,"QGg":1342,"Ze":1343,"ĠYfg":1344,"LejY":1345,"ĠeGJ":1346,"ĠcKjQG":1347,"MJi":1348,"ĠOhQ":1349,"Nj":1350,"GdM":1351,"hjf":1352,"Ġej":1353,"ĠHMb":1354,"ĠfS":1355,"LG":1356,"ĠQGFY":1357,"ĠGej":1358,"LGQ":1359,"ĠcJ":1360,"GHY":1361,"ĠGdehG":1362,"ĠHGdfSHI":1363,"ĠGdNGUI":1364,"ĠGddjdI":1365,"ĠGQO":1366,"ĠeQ":1367,"ac":1368,"HdZ":1369,"dGO":1370,"RhL":1371,"ĠeLdS":1372,"ĠjYQa":1373,"ĠaY":1374,"bOQ":1375,"ZGjI":1376,"GHGJ":1377,"fY":1378,"HGA":1379,"ĠGdTNU":1380,"ĠGdfa":1381,"Ġefj":1382,"ĠaMSH":1383,"SdMI":1384,"WGQ":1385,"ĠdgPG":1386,"ĠcHjQ":1387,"YdbI":1388,"ĠbGO":1389,"ĠJcf":1390,"ĠGdjc":1391,"ZH":1392,"gGjI":1393,"ĠdM":1394,"ĠhT":1395,"HYV":1396,"JQc":1397,"ĠHOG":1398,"MXI":1399,"Ghd":1400,"bGd":1401,"ĠbQGQ":1402,"ĠbJd":1403,"ĠGdLR":1404,"PQ":1405,"ĠdGJ":1406,"WH":1407,"DdGA":1408,"Gcd":1409,"hGQO":1410,"ejd":1411,"Dhd":1412,"ĠeeJ":1413,"WHY":1414,"ĠhLg":1415,"ĠbdjdG":1416,"GdPj":1417,"MGO":1418,"ĠJSJWjY":1419,"ĠNGQL":1420,"XGe":1421,"ĠGddG":1422,"ĠYGF":1423,"ĠGdGehQ":1424,"Gfge":1425,"JeY":1426,"Ġhgh":1427,"GfjG":1428,"eGjI":1429,"VjI":1430,"fH":1431,"ĠjJe":1432,"HMK":1433,"Ġcj":1434,"ĠTQ":1435,"OOG":1436,"ĠeeG":1437,"ĠGbJ":1438,"hbO":1439,"Ġjbhd":1440,"ĠGdGWaGd":1441,"da":1442,"ĠHSHH":1443,"ĠdW":1444,"GgO":1445,"ĠHGfg":1446,"ĠhQ":1447,"ĠYOe":1448,"ĠaYdJ":1449,"cI":1450,"RGe":1451,"jQGf":1452,"GHj":1453,"SGS":1454,"ĠddZGjI":1455,"NQ":1456,"ĠHGQ":1457,"ĠGdeLdS":1458,"ĠVO":1459,"ĠHOhf":1460,"geG":1461,"ĠGdMbjbI":1462,"ĠHb":1463,"ehYI":1464,"GPf":1465,"RG":1466,"ĠLjOG":1467,"ĠeNJd":1468,"GNHQ":1469,"ĠMjf":1470,"hSj":1471,"ĠJYJbO":1472,"ĠLjOI":1473,"hVhY":1474,"ĠGdLfS":1475,"ĠbGe":1476,"geI":1477,"Mje":1478,"GVj":1479,"jT":1480,"Ta":1481,"hHj":1482,"ĠjJYdb":1483,"ĠGcHQ":1484,"ĠYdG":1485,"ĠeMeO":1486,"ĠLOjO":1487,"ĠGdMb":1488,"HYO":1489,"ĠGdeQGI":1490,"ĠjfHZj":1491,"Ġjc":1492,"ĠHGS":1493,"TWI":1494,"ĠHGfc":1495,"ĠGdGWQGa":1496,"Ke":1497,"ĠcdG":1498,"ĠGdcd":1499,"ĠGdeYdheGJ":1500,"ĠMd":1501,"aGb":1502,"Ġge":1503,"Md":1504,"ĠGcJ":1505,"ĠhGddg":1506,"ĠGQJ":1507,"ĠGR":1508,"jfg":1509,"ĠTY":1510,"ĠGHf":1511,"ĠGdGNQi":1512,"ĠGdJY":1513,"Mbb":1514,"ĠGdLeYjI":1515,"ĠGdeJYdbI":1516,"fGhd":1517,"ghO":1518,"ĠGeGe":1519,"WY":1520,"ĠSfhGJ":1521,"ĠeLQO":1522,"ĠLejYG":1523,"ĠjQ":1524,"hT":1525,"ĠhLhO":1526,"ĠhGdG":1527,"YOI":1528,"NHQ":1529,"ĠGdefRd":1530,"GdY":1531,"MbG":1532,"ĠJfajP":1533,"ĠdOjg":1534,"cQg":1535,"ĠJd":1536,"jHOh":1537,"ĠGdLO":1538,"ĠGdeU":1539,"jb":1540,"hK":1541,"ZW":1542,"ĠGdGTjGA":1543,"PH":1544,"ĠGdMjGI":1545,"bWY":1546,"GQjN":1547,"ĠHGdG":1548,"Ġje":1549,"ĠSd":1550,"ĠgcPG":1551,"ĠGdeGOI":1552,"Ġeb":1553,"ĠdPG":1554,"ĠHjJ":1555,"ĠPgH":1556,"ĠGdLejY":1557,"GedI":1558,"ĠdPdc":1559,"XQj":1560,"hef":1561,"ĠQbe":1562,"ĠGdPgGH":1563,"aJQV":1564,"Hjd":1565,"Ġbd":1566,"ĠGfXQ":1567,"hjQ":1568,"cG":1569,"ĠGdWQjb":1570,"ĠSjG":1571,"ĠGQL":1572,"ĠGdSd":1573,"HS":1574,"XgQ":1575,"ĠhU":1576,"jGg":1577,"GHJ":1578,"ĠYedjI":1579,"aV":1580,"ĠQS":1581,"ĠGdGLJeGY":1582,"TQjf":1583,"ZGO":1584,"ĠjaYd":1585,"QHjI":1586,"GdO":1587,"hGfG":1588,"ĠddM":1589,"ĠJhG":1590,"QGAGJ":1591,"hQG":1592,"ĠeYg":1593,"Ġfj":1594,"ĠGdJU":1595,"bhO":1596,"ĠdOi":1597,"ĠjecffG":1598,"ĠjU":1599,"ĠeTQhY":1600,"SdGe":1601,"ĠGdGhdi":1602,"ĠGdGejf":1603,"OeGJ":1604,"ĠHQfGeL":1605,"GJa":1606,"ĠeYG":1607,"ĠeQJ":1608,"ĠGdGYeGd":1609,"ĠGdGMJ":1610,"ĠMGdI":1611,"dSJ":1612,"ĠcG":1613,"gJe":1614,"ĠMbj":1615,"ĠeLOOG":1616,"ĠGdeGd":1617,"ĠGdGQV":1618,"Ve":1619,"ĠJbhe":1620,"ĠGdfaW":1621,"hLhO":1622,"eghQjI":1623,"QjeI":1624,"gf":1625,"Ġdce":1626,"ĠHMGLI":1627,"ĠGdhMjO":1628,"ĠacQI":1629,"hdhL":1630,"GHYI":1631,"MjI":1632,"ĠfhY":1633,"GYI":1634,"ĠaVdc":1635,"NQL":1636,"ĠfaSc":1637,"Oa":1638,"QGH":1639,"ĠGdLf":1640,"hHQ":1641,"ZI":1642,"ĠdeG":1643,"ĠGdQL":1644,"ĠcfG":1645,"MOjO":1646,"fOhb":1647,"ĠeLGd":1648,"ĠcHjQI":1649,"Ydje":1650,"Wb":1651,"XeGJ":1652,"ĠdGjc":1653,"ĠGdhWfjI":1654,"GYQa":1655,"djf":1656,"ĠefJ":1657,"ĠeTcdI":1658,"ĠJbQjQ":1659,"hQc":1660,"ĠHfG":1661,"QLd":1662,"Shf":1663,"ĠSfI":1664,"fa":1665,"ĠHcd":1666,"ĠLf":1667,"OGHjQ":1668,"Ġdcj":1669,"ĠOGNd":1670,"ĠSeYJ":1671,"ĠGdGH":1672,"QN":1673,"cGfJ":1674,"ĠGdGYJ":1675,"hHI":1676,"Hjf":1677,"ĠHL":1678,"ĠJGN":1679,"ĠGdeSGYOI":1680,"Jfj":1681,"bT":1682,"GQG":1683,"Ġja":1684,"Ġedjhf":1685,"ĠGdNGQL":1686,"ĠGdaQjb":1687,"jecfc":1688,"ĠSQ":1689,"ĠdGj":1690,"ĠSJchf":1691,"ĠhY":1692,"ĠGdGU":1693,"GJg":1694,"ĠSY":1695,"GjgG":1696,"ĠLj":1697,"ĠSYjO":1698,"GeL":1699,"hGL":1700,"ĠbGF":1701,"ĠbJ":1702,"ĠGdYe":1703,"Mg":1704,"UdI":1705,"ĠGdMUhd":1706,"ĠGcf":1707,"GYde":1708,"Ġdge":1709,"jJc":1710,"ĠGdJL":1711,"QLI":1712,"ĠdT":1713,"TG":1714,"hLH":1715,"iA":1716,"GQjI":1717,"ĠGdabQI":1718,"ĠGdGK":1719,"ĠGdhdG":1720,"ĠjYed":1721,"HGf":1722,"ĠKGfjI":1723,"ĠeSGYO":1724,"ĠGdTQWI":1725,"LGJ":1726,"OjK":1727,"ĠJYed":1728,"JQ":1729,"ĠeQM":1730,"ĠjfJ":1731,"ĠJMH":1732,"MUd":1733,"ĠGdGd":1734,"aGA":1735,"ĠHGdaYd":1736,"ĠdS":1737,"ĠJJMOK":1738,"ĠfaSg":1739,"bGHd":1740,"ĠGdGSG":1741,"Ġgf":1742,"WGd":1743,"ĠJD":1744,"gi":1745,"ĠGXf":1746,"di":1747,"GdS":1748,"ĠHgPg":1749,"ĠGdLMje":1750,"ĠGbd":1751,"ĠGdhR":1752,"cJhQ":1753,"QHI":1754,"Nhd":1755,"bQQ":1756,"ĠjD":1757,"ĠHGecGf":1758,"ĠfMh":1759,"adI":1760,"QjJ":1761,"ĠGdfGQ":1762,"ĠGdedG":1763,"VGaI":1764,"ĠYTQ":1765,"ĠGdTjA":1766,"ĠGQi":1767,"ĠGYeGd":1768,"ĠfL":1769,"ĠHGSJ":1770,"ba":1771,"ĠGdHY":1772,"ĠGdOhdI":1773,"ĠGge":1774,"ĠhcGf":1775,"ĠgDdGA":1776,"ĠJPgH":1777,"MQc":1778,"ĠGdKGd":1779,"ĠGdeGF":1780,"ĠGdbW":1781,"ĠJbOje":1782,"GYfj":1783,"ĠGV":1784,"ĠUOjb":1785,"ĠGdbO":1786,"ĠGSJNOGe":1787,"Ġed":1788,"hVY":1789,"ĠGdSf":1790,"HjI":1791,"Gdej":1792,"ĠGdHGH":1793,"LY":1794,"ĠGdQj":1795,"djI":1796,"HGQc":1797,"ĠGdbGF":1798,"ĠejJ":1799,"Ojf":1800,"GdL":1801,"ĠHdG":1802,"Ġhgj":1803,"ĠGNj":1804,"ĠGdeMJ":1805,"YGOI":1806,"ĠNj":1807,"GFQ":1808,"ĠbU":1809,"ĠGdOj":1810,"ĠLOjOI":1811,"ĠhbO":1812,"ĠLYd":1813,"ĠfU":1814,"ĠbQ":1815,"Ġdef":1816,"Gejf":1817,"ĠGdGSH":1818,"ĠGdedc":1819,"ĠGWGQ":1820,"fGS":1821,"ĠGdQLGd":1822,"VI":1823,"JeG":1824,"WGJ":1825,"ĠeV":1826,"Ydjc":1827,"HH":1828,"ĠJSe":1829,"YHI":1830,"ĠGdHTQ":1831,"fR":1832,"ĠgPGGd":1833,"ĠYO":1834,"ĠGdGaVd":1835,"ĠHdO":1836,"GaMI":1837,"ĠGdhGbY":1838,"ĠgG":1839,"ĠGdfXQ":1840,"OGa":1841,"ĠWhj":1842,"..":1843,"ĠMUdJ":1844,"hfg":1845,"Ġjbhe":1846,"Ojb":1847,"ĠGdeTGQ":1848,"YGe":1849,"ĠdO":1850,"ĠGdGbdj":1851,"Gef":1852,"ĠGdNW":1853,"FGJ":1854,"ĠGdSjGQI":1855,"GHbI":1856,"ĠcGfhf":1857,"PI":1858,"ĠGQOJ":1859,"ĠGdbjGe":1860,"QjG":1861,"ĠHfaS":1862,"GSa":1863,"JU":1864,"YRjR":1865,"ĠJNHQ":1866,"ĠaQjb":1867,"heI":1868,"Ġefge":1869,"ĠGdLd":1870,"ĠSHH":1871,"UOb":1872,"ĠeHG":1873,"ĠGdeg":1874,"ĠGdGbJUGO":1875,"hQGJ":1876,"ĠGdGZ":1877,"ĠGhdG":1878,"ĠdLfI":1879,"QHj":1880,"ĠJfJ":1881,"fGg":1882,"cO":1883,"GQg":1884,"ĠGdbGO":1885,"GXf":1886,"ĠhGSJ":1887,"hZ":1888,"hHG":1889,"ĠhYdi":1890,"hGH":1891,"TJ":1892,"ĠGdGYVGA":1893,"ĠLhf":1894,"edc":1895,"ĠeR":1896,"ejf":1897,"Fc":1898,"ĠJMJGL":1899,"ĠWhGd":1900,"jJgG":1901,"QGW":1902,"ĠGTYQ":1903,"ĠGdSGYI":1904,"ĠhX":1905,"ĠHSQ":1906,"ĠYGO":1907,"ĠGjGe":1908,"MQ":1909,"aGY":1910,"Mjf":1911,"eGO":1912,"ĠGdGj":1913,"bdJ":1914,"ĠGdbG":1915,"ĠYQa":1916,"ĠecJH":1917,"ĠcGQ":1918,"ĠGdGbd":1919,"LYd":1920,"QjbjG":1921,"ĠYHQ":1922,"ĠHGj":1923,"ĠGdJfejI":1924,"YJHQ":1925,"hQO":1926,"GNQ":1927,"Pc":1928,"ĠUhJ":1929,"ĠhGdY":1930,"ĠhGdS":1931,"aJM":1932,"hGF":1933,"bGFb":1934,"ĠWHj":1935,"ĠGi":1936,"cGe":1937,"ĠhLO":1938,"ĠLejd":1939,"ĠGdMe":1940,"ĠMR":1941,"fc":1942,"ĠjMH":1943,"ĠJYRjR":1944,"MU":1945,"ĠLRA":1946,"ĠHZ":1947,"TGf":1948,"bGW":1949,"ĠYRjR":1950,"hJj":1951,"ĠGdGJUGd":1952,"bjje":1953,"ĠGdGJMGO":1954,"Dhf":1955,"ĠGdjgG":1956,"ĠbeJ":1957,"GejI":1958,"ĠGdJYGhf":1959,"Ġea":1960,"jJg":1961,"Jdc":1962,"ĠGdeOjfI":1963,"ĠJha":1964,"ĠaYdg":1965,"ĠGdeGFI":1966,"OeI":1967,"WdY":1968,"ĠHGdc":1969,"ĠMjGJj":1970,"ĠGdGfeG":1971,"abI":1972,"ĠheG":1973,"VMc":1974,"ĠGdPi":1975,"ĠQGj":1976,"SJGf":1977,"ĠGeG":1978,"ĠZQaI":1979,"ZjjQ":1980,"ĠeJGcO":1981,"ĠhZjQ":1982,"ĠKdGKI":1983,"Gdf":1984,"hgPG":1985,"ĠJG":1986,"ĠHfGA":1987,"ĠeQj":1988,"ghQ":1989,"QSI":1990,"hdO":1991,"GQO":1992,"ĠddY":1993,"ĠhSde":1994,"ĠhO":1995,"Wdb":1996,"ĠLOhd":1997,"ĠGYd":1998,"ĠfT":1999,"GJgG":2000,"ĠGYO":2001,"ĠGdHQfGeL":2002,"Yjjf":2003,"ĠGdafOb":2004,"ĠJMbjb":2005,"ReI":2006,"TjA":2007,"ĠGef":2008,"gdG":2009,"ĠGdGTNGU":2010,"ĠddJh":2011,"ĠYbO":2012,"NJ":2013,"Ndj":2014,"ĠYfc":2015,"ĠMe":2016,"ĠGdJO":2017,"ĠHGdM":2018,"DGd":2019,"ĠGdea":2020,"ĠGdfSGA":2021,"ĠGQH":2022,"ĠNGUI":2023,"ĠfXGe":2024,"ĠWQjbI":2025,"Yc":2026,"Kb":2027,"ĠddO":2028,"aJQI":2029,"GFL":2030,"Ġage":2031,"ĠGdeQ":2032,"ĠGSH":2033,"ĠGdYO":2034,"ĠGdefJ":2035,"ĠGdSHH":2036,"ĠjSJWjY":2037,"ĠhV":2038,"Ġddg":2039,"Jjf":2040,"ĠGdeSG":2041,"ĠGdNjQ":2042,"hGYO":2043,"ĠGMHc":2044,"ĠYfj":2045,"ĠdH":2046,"Ġddf":2047,"Yi":2048,"ĠGdMO":2049,"ĠMche":2050,"ĠeLehYI":2051,"hej":2052,"hgG":2053,"hSJ":2054,"jfjI":2055,"ĠjH":2056,"hYI":2057,"ĠhGJ":2058,"Wa":2059,"KdG":2060,"ĠfgGjI":2061,"ĠJMOK":2062,"ĠcGfhG":2063,"ĠGdfh":2064,"YfI":2065,"ĠGMJGL":2066,"ĠhGdGL":2067,"ĠSQj":2068,"KGd":2069,"ĠbH":2070,"ĠGdMcheI":2071,"ĠhGdf":2072,"QGMI":2073,"ĠObjbI":2074,"ĠddS":2075,"LjO":2076,"ĠaYdG":2077,"GHg":2078,"hYG":2079,"Ġhde":2080,"ĠdjdI":2081,"ĠaJQI":2082,"QcGJ":2083,"jeI":2084,"ĠYQV":2085,"fajP":2086,"ĠYfgG":2087,"ĠGjL":2088,"NdU":2089,"Mbhb":2090,"ĠHGdf":2091,"WGb":2092,"ĠGdGNQ":2093,"ĠGdGSdMI":2094,"Ġdcd":2095,"ĠfaSj":2096,"Gdb":2097,"ĠGaQjbjG":2098,"ĠSGYI":2099,"YQGV":2100,"ĠJbOe":2101,"QY":2102,"ĠGOGQI":2103,"ĠeGQ":2104,"ĠGjI":2105,"ĠbGfhf":2106,"ĠGdJT":2107,"ĠSjJ":2108,"hXajf":2109,"ĠMUd":2110,"age":2111,"GYW":2112,"ĠJQi":2113,"ĠdGfg":2114,"Sg":2115,"Ġchf":2116,"ec":2117,"ĠUO":2118,"ĠGgJe":2119,"NUhU":2120,"UOQ":2121,"GfO":2122,"ĠSh":2123,"ĠbdH":2124,"XffJ":2125,"ĠGPf":2126,"Gddge":2127,"ĠGKfGA":2128,"ĠGSeY":2129,"ĠJQjOjf":2130,"ĠKdGK":2131,"ĠGdeRjO":2132,"GFb":2133,"ĠGdeW":2134,"ĠfPgH":2135,"ĠLejdI":2136,"ĠGdWad":2137,"ĠGUHM":2138,"ĠdQ":2139,"hGdGf":2140,"ĠGdJMOK":2141,"ĠGdMbj":2142,"ĠcQj":2143,"Jge":2144,"ĠYH":2145,"Ġjd":2146,"ĠjYde":2147,"ĠGdehJ":2148,"ĠGdJbQjQ":2149,"Vef":2150,"gH":2151,"WGf":2152,"hGUd":2153,"HMJ":2154,"GQjQ":2155,"ĠeQG":2156,"ĠVQ":2157,"Ġjb":2158,"hfI":2159,"ĠaJGI":2160,"ĠGdKGfjI":2161,"ĠGJj":2162,"fejI":2163,"ĠGdYd":2164,"ĠYHO":2165,"ĠGdeGVj":2166,"GfJXQ":2167,"ĠGdOGNd":2168,"ĠGage":2169,"ĠhYO":2170,"Ojc":2171,"ĠGTJ":2172,"ĠGdeLJeY":2173,"ĠGacQ":2174,"NGP":2175,"ĠaQUI":2176,"JjGJ":2177,"Ġhjf":2178,"SSGJ":2179,"jjf":2180,"ĠGdLOjO":2181,"XGQ":2182,"ĠeGj":2183,"bOeI":2184,"QJc":2185,"Ġedc":2186,"ĠGdLOjOI":2187,"ĠGdUZjQI":2188,"ĠQM":2189,"GQY":2190,"ĠGdGc":2191,"ĠGdeGdjI":2192,"QGJjL":2193,"QGM":2194,"ĠLGc":2195,"ĠGdGeQjc":2196,"ĠGdGfS":2197,"ĠGdhdGjGJ":2198,"ĠeMJ":2199,"GJc":2200,"ĠeQg":2201,"ĠGdYGdej":2202,"Ġahb":2203,"ĠGdeYfj":2204,"ĠGdehGQO":2205,"ĠGdeYfjI":2206,"ĠjLQj":2207,"ĠMGhd":2208,"ĠGdGYd":2209,"ĠddGe":2210,"ĠGdbe":2211,"ĠGdbQ":2212,"djR":2213,"GdjS":2214,"ĠGdfXGe":2215,"ĠGdeYG":2216,"dhd":2217,"Ġbhd":2218,"ZQ":2219,"dOjfG":2220,"ĠGdeMceI":2221,"MSjf":2222,"hGfJ":2223,"SeHQ":2224,"Qab":2225,"ĠGLJeGY":2226,"ĠUZjQ":2227,"ĠHGdb":2228,"Ljd":2229,"NW":2230,"QhL":2231,"ĠGdWQjbI":2232,"ĠJHOh":2233,"ĠGSaI":2234,"ĠQGFYI":2235,"ĠLGfH":2236,"TNU":2237,"NH":2238,"ĠhPdc":2239,"ĠHYjOG":2240,"ĠeYdheGJ":2241,"GVjI":2242,"Uj":2243,"Ojd":2244,"ejR":2245,"bGe":2246,"ĠhW":2247,"MK":2248,"GFa":2249,"HGdWHY":2250,"ĠGdWHj":2251,"ĠeJi":2252,"ĠGdYXje":2253,"ĠcGd":2254,"ĠGdefWbI":2255,"ĠJbd":2256,"VHW":2257,"ĠGdWQa":2258,"hUd":2259,"ĠGdGJaGbjI":2260,"efRd":2261,"Rf":2262,"ĠJhba":2263,"Ġjge":2264,"ĠJXf":2265,"ĠGdYQGb":2266,"LF":2267,"ĠhabG":2268,"ĠfaYd":2269,"ĠhGdM":2270,"ĠUZjQI":2271,"jecffj":2272,"ĠhMO":2273,"ĠeDN":2274,"ĠJTQjf":2275,"gGR":2276,"ĠGhO":2277,"ĠGdYGdejI":2278,"hjGJ":2279,"ĠGfJXQ":2280,"ĠGdeQI":2281,"YGQ":2282,"Qja":2283,"ĠZOG":2284,"ĠeHGTQI":2285,"ĠGdGbJUGOjI":2286,"HGW":2287,"ĠdGMbG":2288,"NOQGJ":2289,"cQJ":2290,"fGFjI":2291,"ĠHGH":2292,"gL":2293,"QGSI":2294,"Mhd":2295,"ĠJTYQ":2296,"JYQa":2297,"ĠTjF":2298,"LGg":2299,"GJYde":2300,"abO":2301,"ĠeGjc":2302,"Ġddb":2303,"dJc":2304,"Td":2305,"Ġcf":2306,"ĠHGdJGcjO":2307,"SejI":2308,"ĠGdeDQN":2309,"ĠQaGb":2310,"ĠGNHGQ":2311,"ĠGdehVhY":2312,"ĠjSe":2313,"dGa":2314,"ĠMSH":2315,"ĠHGdS":2316,"ĠGdGSGSjI":2317,"ĠQGjc":2318,"ĠVY":2319,"eb":2320,"ĠSjGQI":2321,"ĠdgPg":2322,"ĠGdHjJ":2323,"ĠGdUdI":2324,"ĠQLGd":2325,"GfS":2326,"ĠGdOhQI":2327,"ĠOjSeHQ":2328,"af":2329,"gI":2330,"ĠGdKdG":2331,"ĠGded":2332,"dje":2333,"GSeY":2334,"ĠJage":2335,"Xd":2336,"ĠcQ":2337,"ĠHGJ":2338,"bP":2339,"ĠeQMHG":2340,"Sjchf":2341,"ĠeMO":2342,"GZ":2343,"hGddg":2344,"hGdj":2345,"ĠGMGhd":2346,"ĠjQGe":2347,"ĠHhG":2348,"dcfj":2349,"ĠjLYd":2350,"ĠYdGbI":2351,"ĠGdMchejI":2352,"LGR":2353,"Ġeecf":2354,"HjJ":2355,"eHQ":2356,"UQa":2357,"ĠeSG":2358,"ĠGMOG":2359,"fJjf":2360,"ĠGdMH":2361,"Ġad":2362,"ĠhLOJ":2363,"dOjc":2364,"UHM":2365,"ĠHSQYI":2366,"ĠhGM":2367,"ĠGdMj":2368,"ĠHehLH":2369,"NGQL":2370,"hGO":2371,"hOG":2372,"ĠYRjRJj":2373,"hLjg":2374,"ĠhgPG":2375,"ĠeYgG":2376,"GJd":2377,"ĠGbhe":2378,"Sjb":2379,"ĠGNHQc":2380,"ĠRj":2381,"ĠJhb":2382,"ĠYOI":2383,"UGU":2384,"ĠGdaJQI":2385,"ĠJZ":2386,"egdG":2387,"ĠdWja":2388,"GdGeQ":2389,"ĠGYGOI":2390,"ejjR":2391,"ĠGdbVG":2392,"ĠGdGNjQI":2393,"SJQ":2394,"ĠJQG":2395,"ĠGdGSHhY":2396,"ĠdOjgG":2397,"eSI":2398,"Fe":2399,"OjI":2400,"JT":2401,"hde":2402,"ĠYedjGJ":2403,"ĠYeQ":2404,"ĠjfG":2405,"ĠHQG":2406,"Ġdb":2407,"ĠGVG":2408,"ĠYXje":2409,"ĠLeghQjI":2410,"Mjd":2411,"ĠGQLhc":2412,"MGaX":2413,"ĠeYO":2414,"ĠGNQL":2415,"UhU":2416,"Gffj":2417,"ĠeeJGR":2418,"ĠGdQS":2419,"ĠhGS":2420,"ĠddL":2421,"ĠefWbI":2422,"ĠehbY":2423,"YW":2424,"dGHO":2425,"ĠGeQGI":2426,"ĠGdbOje":2427,"hN":2428,"ĠGdWG":2429,"UGOj":2430,"ĠYdjge":2431,"ĠcKjQ":2432,"ĠGSJeQ":2433,"ĠgfGdc":2434,"ĠTQcI":2435,"QGY":2436,"ĠGdMQH":2437,"ĠGdcJ":2438,"ĠSGe":2439,"ĠGJMOK":2440,"Ohf":2441,"ĠGdYOjO":2442,"GaI":2443,"dGZ":2444,"Ljf":2445,"bJQM":2446,"YGA":2447,"fjg":2448,"GK":2449,"ĠObGFb":2450,"ĠGdUZjQ":2451,"RM":2452,"ĠGdSjOI":2453,"Ġege":2454,"YQV":2455,"Ġjcaj":2456,"efP":2457,"ĠefXeI":2458,"bHGd":2459,"ĠGdNGe":2460,"QGbHI":2461,"HYI":2462,"ĠeQcR":2463,"MjW":2464,"ĠddT":2465,"ĠhRGQI":2466,"ĠGdad":2467,"ĠGdOe":2468,"ĠMGdc":2469,"ĠYde":2470,"cjf":2471,"ĠGff":2472,"ĠGdeH":2473,"ĠJOY":2474,"ĠGdaJGI":2475,"ĠGdSdGM":2476,"UM":2477,"ĠdeOI":2478,"ĠGdHTQjI":2479,"QjW":2480,"GQi":2481,"ĠYGde":2482,"GFQI":2483,"ĠhUd":2484,"ĠeYfG":2485,"hGP":2486,"SHI":2487,"ĠYb":2488,"ĠdGfc":2489,"ĠRjGOI":2490,"ĠGdhWfj":2491,"Sa":2492,"QHJ":2493,"HGOF":2494,"bWI":2495,"ĠJGJj":2496,"hcGf":2497,"eJY":2498,"Ti":2499,"ĠGQG":2500,"ĠHjQ":2501,"ĠGeQjc":2502,"ĠcGa":2503,"ĠfYQa":2504,"ĠHGffj":2505,"QR":2506,"ĠeGd":2507,"ĠOYe":2508,"ĠGdTY":2509,"JjLI":2510,"ĠbGH":2511,"ĠMjGI":2512,"ĠGdGQgGH":2513,"bJc":2514,"ĠGYVGA":2515,"ĠefRd":2516,"hSW":2517,"ĠeNJda":2518,"ĠLd":2519,"ĠJYQajf":2520,"HQG":2521,"ĠGdeTJ":2522,"ĠGdeSDhd":2523,"ĠGdeZ":2524,"Ġdi":2525,"ĠJV":2526,"ĠWhjdI":2527,"ĠGdeOQSI":2528,"ĠGUOb":2529,"bOjQ":2530,"ĠJPcQ":2531,"ĠGdZQaI":2532,"ĠGdGhQ":2533,"ĠdGSJ":2534,"JeGYj":2535,"ĠGdSGHbI":2536,"hQjG":2537,"UH":2538,"ĠHjfeG":2539,"GFdI":2540,"YdjfG":2541,"ZGOQ":2542,"ĠSGJ":2543,"RdJ":2544,"ĠJbQjHG":2545,"ĠbfG":2546,"TO":2547,"ĠGdUHGM":2548,"GeYI":2549,"ĠGdfGejI":2550,"SGe":2551,"ĠTgQ":2552,"ĠHOGJ":2553,"ĠGhQ":2554,"hdi":2555,"ĠGdOYe":2556,"ĠehX":2557,"ĠJGNP":2558,"Pd":2559,"ĠLGg":2560,"JYGd":2561,"ĠYdjce":2562,"MjGfG":2563,"GQLhc":2564,"ĠeaJ":2565,"Lhe":2566,"GPgH":2567,"ĠGSGS":2568,"ĠGdNOeGJ":2569,"ĠGHh":2570,"MGf":2571,"ĠjMJGL":2572,"LQI":2573,"ĠGTjGA":2574,"cGQ":2575,"ĠhGdT":2576,"fjG":2577,"ĠYjO":2578,"ced":2579,"ĠjGQH":2580,"ĠWad":2581,"ĠGUHMJ":2582,"ĠTNUG":2583,"ĠGdJYdje":2584,"ĠhGH":2585,"ĠbOe":2586,"ĠGdQFjSjI":2587,"ĠGTc":2588,"ĠTiA":2589,"ĠZQjH":2590,"Ġgg":2591,"ĠQLGA":2592,"ĠGdej":2593,"haQ":2594,"ajO":2595,"ĠhGdGf":2596,"QjM":2597,"ĠGfJe":2598,"ĠeDJeQ":2599,"ĠbQjHG":2600,"hUjGJ":2601,"HGg":2602,"ĠGLQGA":2603,"KjbI":2604,"ĠGdX":2605,"HjY":2606,"ĠJMGhd":2607,"ĠeLfhf":2608,"HGdJ":2609,"ĠGYed":2610,"GdSjO":2611,"JYde":2612,"QLY":2613,"ĠHGdWHY":2614,"ĠeW":2615,"ĠHGdVHW":2616,"dce":2617,"ĠNWG":2618,"ehY":2619,"HQj":2620,"ĠQDjI":2621,"cGJ":2622,"ĠUd":2623,"ĠehL":2624,"dGMX":2625,"YJeO":2626,"hjhQc":2627,"ĠYV":2628,"ĠUM":2629,"ĠGdGOGQI":2630,"hQg":2631,"YGjI":2632,"eje":2633,"gGJ":2634,"hQL":2635,"jfG":2636,"Sjf":2637,"eK":2638,"ĠeZ":2639,"GJefi":2640,"ĠGSHhY":2641,"aVd":2642,"hchd":2643,"ĠGdMGdI":2644,"ĠWH":2645,"ĠhGdOj":2646,"ScQ":2647,"ĠGTgQ":2648,"ĠNjQ":2649,"ĠjOY":2650,"ĠGdSLf":2651,"hGe":2652,"ĠeH":2653,"Ġhcd":2654,"Ġcdg":2655,"ĠecJ":2656,"Meb":2657,"hdf":2658,"ĠhdjS":2659,"ĠdMXI":2660,"dGY":2661,"ĠSjQ":2662,"ĠNWI":2663,"ĠGNJj":2664,"Mbjb":2665,"ĠGQS":2666,"Hjb":2667,"QGS":2668,"ĠGdeecf":2669,"ĠGdecJH":2670,"ĠUOjbj":2671,"ĠGdGbJUGOj":2672,"ĠGdJi":2673,"QGFY":2674,"ĠSYjOI":2675,"WQI":2676,"QjGJ":2677,"hGY":2678,"ĠGfTGA":2679,"ĠeOi":2680,"GQOI":2681,"ĠhdO":2682,"ĠefR":2683,"ĠPgHJ":2684,"ĠGgejI":2685,"ĠMSf":2686,"MjK":2687,"ĠGdYhOI":2688,"deG":2689,"LGI":2690,"ĠfUa":2691,"ĠGdSa":2692,"ĠdGLd":2693,"ĠGdYf":2694,"ĠGdYQHjI":2695,"hGLg":2696,"HdO":2697,"jGLGJ":2698,"ĠSjf":2699,"Qjbj":2700,"MVQ":2701,"ĠGdaj":2702,"Qjd":2703,"djdI":2704,"HQfGeL":2705,"ĠGjLGO":2706,"hGfjf":2707,"cfhdhL":2708,"jSj":2709,"ĠJZjQ":2710,"Gdja":2711,"ĠGdeGA":2712,"ĠeYQaI":2713,"ĠWj":2714,"GJQjO":2715,"ĠGjG":2716,"ĠGdYGed":2717,"ĠeOjfI":2718,"ĠeSJhi":2719,"ĠjheG":2720,"ĠcGe":2721,"eGJ":2722,"RjRj":2723,"Tai":2724,"GdT":2725,"bjJ":2726,"dGfg":2727,"ĠGdGg":2728,"GOjI":2729,"YGed":2730,"ĠSjFI":2731,"fGFj":2732,"UGdM":2733,"ĠGdYedjI":2734,"ĠGddge":2735,"ĠfSJWjY":2736,"QhS":2737,"ĠGdJS":2738,"ĠHGSe":2739,"ĠJhLO":2740,"ĠHGfgG":2741,"ĠeJGc":2742,"bg":2743,"ĠMjGJc":2744,"bje":2745,"Ġgi":2746,"Qha":2747,"ĠGdeGVjI":2748,"ĠHGdZ":2749,"Ġjhfj":2750,"ĠGdGbdjejI":2751,"SGF":2752,"JG":2753,"ĠhGdJj":2754,"ĠTGA":2755,"GdZ":2756,"ĠGdYH":2757,"Med":2758,"ĠJaYdg":2759,"Vi":2760,"ĠGddjd":2761,"YGO":2762,"ĠGdJGdjI":2763,"ĠGdSQ":2764,"ĠGdchf":2765,"GgOI":2766,"eJi":2767,"Hbi":2768,"ĠGdGWdGb":2769,"GdeG":2770,"ĠGOQj":2771,"ch":2772,"Hf":2773,"QjHI":2774,"ĠdOjge":2775,"ĠYGeG":2776,"ĠSjeG":2777,"ĠhcPdc":2778,"ĠLGA":2779,"jcG":2780,"ĠGJefi":2781,"ĠGSG":2782,"gGQ":2783,"ĠGdMGd":2784,"Ġdcfg":2785,"XQha":2786,"SGH":2787,"ĠGdhc":2788,"QGWjI":2789,"ĠJLYd":2790,"ĠdL":2791,"ĠhGdb":2792,"ĠeSGdI":2793,"GdQ":2794,"GYJ":2795,"ĠcK":2796,"ĠYfOj":2797,"ĠHGddg":2798,"ĠGdhUhd":2799,"PgHj":2800,"GgQI":2801,"ĠhGdL":2802,"ĠMdh":2803,"Qhf":2804,"hQJ":2805,"ĠGfJg":2806,"ĠWhjd":2807,"ĠfWGb":2808,"Jb":2809,"edcI":2810,"ĠSc":2811,"ĠGdehbY":2812,"ĠGdWYGe":2813,"ĠGdeDJeQ":2814,"ĠGJNGP":2815,"ĠJfGhd":2816,"ĠGdbGFeI":2817,"ĠGdha":2818,"ĠGHJ":2819,"ĠHUhQI":2820,"Ġfe":2821,"Fg":2822,"ĠGMV":2823,"ĠHSj":2824,"ĠGdLQjeI":2825,"ĠGdefXeGJ":2826,"ĠGdJaG":2827,"ĠGJUd":2828,"ĠGdfhe":2829,"hfc":2830,"fGc":2831,"ĠGdgGJa":2832,"ĠGdHfO":2833,"ĠGdehXajf":2834,"ĠGdefXeI":2835,"gGe":2836,"ĠHhS":2837,"djSJ":2838,"jRGfjI":2839,"ĠUGM":2840,"ah":2841,"FdI":2842,"ĠfjhjhQc":2843,"ajg":2844,"GdJRGe":2845,"MGH":2846,"Jhba":2847,"ĠGdSGHb":2848,"ĠHGdO":2849,"dPdc":2850,"ĠMGdjG":2851,"gGO":2852,"MGhdI":2853,"jGO":2854,"WGbI":2855,"ĠdaJQI":2856,"ĠMV":2857,"Si":2858,"GMJGL":2859,"ĠcdeI":2860,"ĠGWaGd":2861,"ĠTcd":2862,"ĠbGdJ":2863,"gOa":2864,"HcI":2865,"Qh":2866,"Ġdjf":2867,"ĠaG":2868,"eGQSI":2869,"ĠjYO":2870,"YOGO":2871,"Ġjdj":2872,"FJ":2873,"ĠGSeg":2874,"jbX":2875,"ĠhGdef":2876,"acjQ":2877,"ĠhGdOc":2878,"GOQ":2879,"ĠJMed":2880,"TQWI":2881,"ĠGdhb":2882,"ĠWa":2883,"ĠJfG":2884,"ĠHH":2885,"ĠeSGYOI":2886,"eGdPj":2887,"ĠJbdb":2888,"ĠGMVQ":2889,"GOK":2890,"ĠYfG":2891,"OYfj":2892,"UHGM":2893,"Ġejd":2894,"ĠbhI":2895,"ĠGSd":2896,"ĠQSGdI":2897,"QGFe":2898,"ĠGMOge":2899,"ĠGdebQQ":2900,"ĠGdfhhjI":2901,"ĠJYfj":2902,"ĠGdeNOQGJ":2903,"ĠHNUhU":2904,"hJhchd":2905,"ĠSJj":2906,"ĠGdefGSH":2907,"ĠjPgH":2908,"ĠGec":2909,"ĠGbUO":2910,"ĠfXQ":2911,"ĠGdeR":2912,"ebQGWjI":2913,"ĠUGMH":2914,"ĠHWQjbI":2915,"Ujd":2916,"Ydc":2917,"LGL":2918,"ĠGJab":2919,"ĠjMUd":2920,"GffG":2921,"QaY":2922,"LM":2923,"ĠGdNQhL":2924,"ĠSJaYd":2925,"ĠGdLRA":2926,"ĠGdGNQjf":2927,"ĠebGHd":2928,"ĠJYdejf":2929,"ĠYU":2930,"QGFjd":2931,"ĠGdeOfj":2932,"Gec":2933,"GMI":2934,"ĠJMOjO":2935,"ĠGJaGbjI":2936,"FH":2937,"GgdG":2938,"ĠbJdJ":2939,"ĠGdhVY":2940,"Ojh":2941,"ĠGdZQa":2942,"ĠbG":2943,"ĠhGdU":2944,"ĠJchfj":2945,"ĠShi":2946,"aSj":2947,"ĠGdGLJeGYjI":2948,"ĠHGdGe":2949,"ĠJj":2950,"ĠMX":2951,"ĠGdHG":2952,"ĠGdeMdjI":2953,"ĠPGgH":2954,"OGNd":2955,"ĠbjO":2956,"ĠGdKGdKI":2957,"ĠhSj":2958,"ĠeeKd":2959,"GjI":2960,"NeS":2961,"ĠGdQH":2962,"ĠeUQ":2963,"SO":2964,"Oh":2965,"dgPG":2966,"bGP":2967,"ĠjMGhd":2968,"ĠGdeaJQV":2969,"ĠHGdY":2970,"ĠJGQjN":2971,"ĠSGYO":2972,"ĠjRGd":2973,"GSJWjY":2974,"ĠheY":2975,"ĠGdHYV":2976,"ĠgGJ":2977,"ĠSGH":2978,"ĠjGJj":2979,"ĠLGf":2980,"bTI":2981,"ĠhHYO":2982,"dGL":2983,"GaVd":2984,"ĠGdJfajP":2985,"ĠMbjbj":2986,"ĠNeS":2987,"ĠLh":2988,"ĠGdKGdK":2989,"Pjf":2990,"ĠGdTYH":2991,"JHG":2992,"ĠcGed":2993,"ĠbGFeI":2994,"GdW":2995,"gGA":2996,"ĠGeS":2997,"ĠhGO":2998,"LHfj":2999,"hGj":3000,"ĠNOeGJ":3001,"QGJjLjI":3002,"OGF":3003,"MOO":3004,"aGJ":3005,"ĠJg":3006,"ĠGdeh":3007,"ĠMeGjI":3008,"GJYQa":3009,"ĠaN":3010,"ehf":3011,"ĠJYO":3012,"ĠddYed":3013,"ĠZQa":3014,"hJQ":3015,"JQjO":3016,"ĠGdSfI":3017,"hGI":3018,"ĠGdNH":3019,"ĠjMJ":3020,"ĠeSJYO":3021,"ĠPcQ":3022,"ĠYTQI":3023,"PQI":3024,"ĠcdgG":3025,"ĠGjJgG":3026,"YhOj":3027,"ĠgGQ":3028,"ĠGdJOGHjQ":3029,"ĠGdGeQjcjI":3030,"hjV":3031,"ĠGdHbGA":3032,"QGLY":3033,"ĠGdMd":3034,"ĠdYGe":3035,"ĠGdUM":3036,"GdLI":3037,"ĠVef":3038,"Zh":3039,"Ġchd":3040,"fg":3041,"ĠGdGh":3042,"ĠSGf":3043,"ĠGdHjGfGJ":3044,"ĠGdbWGY":3045,"ĠGdSGO":3046,"ĠJMUd":3047,"QjS":3048,"ĠGddYjf":3049,"ĠGdhMjOI":3050,"ĠdGL":3051,"ĠJacQ":3052,"ĠaQU":3053,"ĠHge":3054,"hjg":3055,"ĠMRjQGf":3056,"QMd":3057,"ahf":3058,"ĠSGYGJ":3059,"LhR":3060,"ĠGdGNJ":3061,"ĠfSJ":3062,"aP":3063,"ĠGdJGdj":3064,"ĠGfJgi":3065,"ĠYeG":3066,"ĠGdGfeGFjI":3067,"ĠYTGf":3068,"ĠhjJ":3069,"Zjd":3070,"dGH":3071,"ĠGdHOG":3072,"ĠGdeTcdI":3073,"Ġdda":3074,"ĠfQjO":3075,"ĠehYO":3076,"ĠecGaMI":3077,"YhOjI":3078,"hGab":3079,"QfJ":3080,"ĠHYed":3081,"ĠSHjd":3082,"Ġddc":3083,"ĠGcd":3084,"ĠGdadSW":3085,"ĠGdVQ":3086,"ĠMH":3087,"ĠSjA":3088,"ĠMGdGJ":3089,"ĠWG":3090,"ĠJfXQ":3091,"ĠGdHMQ":3092,"ĠeNW":3093,"ĠJeJ":3094,"ĠdMbhb":3095,"Ġdcfj":3096,"ĠjGQ":3097,"aGX":3098,"ĠLghO":3099,"fOSI":3100,"Mc":3101,"ĠGdeMG":3102,"ĠGdeSJhi":3103,"QGR":3104,"ĠhGQ":3105,"ĠJRGd":3106,"ĠGdcHjQ":3107,"ĠGdTe":3108,"ĠeGf":3109,"ĠYQaJ":3110,"ĠGdScGf":3111,"ĠdGffj":3112,"HjG":3113,"OYfG":3114,"hbGJ":3115,"Ġjhfjg":3116,"ĠGdehGO":3117,"Xja":3118,"GWQ":3119,"ĠLje":3120,"ĠGaJ":3121,"ĠGdGjGe":3122,"Tcd":3123,"GFOI":3124,"ĠHhd":3125,"ĠeNJdaI":3126,"ĠGdbVjI":3127,"ĠJYdj":3128,"hgh":3129,"PGA":3130,"gJeGe":3131,"Jf":3132,"ĠefY":3133,"ZGf":3134,"ĠGdUa":3135,"ĠYjf":3136,"jecffG":3137,"ĠGdTQb":3138,"jA":3139,"ĠMaX":3140,"ĠSja":3141,"NGUI":3142,"hHGJ":3143,"ĠUa":3144,"jGQ":3145,"TI":3146,"ĠGdeb":3147,"ĠehLhO":3148,"ĠNGF":3149,"ĠHfj":3150,"ĠeGQS":3151,"HV":3152,"bc":3153,"ĠdU":3154,"GfXQj":3155,"QGd":3156,"ĠGdejGg":3157,"hjO":3158,"ĠGdYfa":3159,"OGeI":3160,"SjOj":3161,"ĠjGNP":3162,"ĠjLO":3163,"ĠGYfj":3164,"PjI":3165,"ĠeSDhd":3166,"ĠhVYJ":3167,"Ġhjd":3168,"ĠbQjH":3169,"ĠJhajQ":3170,"ĠhTc":3171,"ĠGdeQcR":3172,"ĠRGd":3173,"ĠGdeSGFd":3174,"ĠMcheI":3175,"ĠGdGfTWI":3176,"ĠJNQL":3177,"djhf":3178,"ĠGdeSJbHd":3179,"GNQL":3180,"cfG":3181,"ĠMHjH":3182,"GNP":3183,"Ġfha":3184,"hSha":3185,"ĠHGdGeQ":3186,"Ggd":3187,"Ojg":3188,"ĠebO":3189,"ĠfhYG":3190,"SWI":3191,"RYL":3192,"ĠGdjG":3193,"ZaQ":3194,"ĠdYH":3195,"ĠGdhGQOI":3196,"cGaMI":3197,"ĠfJMOK":3198,"ĠGfT":3199,"GfJe":3200,"LdI":3201,"QGbH":3202,"JeHQ":3203,"ĠGdbGOeI":3204,"ĠGdGeGfI":3205,"hHYO":3206,"ĠGdGQL":3207,"Ġjecfg":3208,"VQH":3209,"ĠbVjI":3210,"ĠNQL":3211,"ĠGYOGO":3212,"ĠGdLGfH":3213,"gg":3214,"ĠeTGcd":3215,"ĠGdege":3216,"ĠSHJeHQ":3217,"ĠGdLghO":3218,"ĠGdfhY":3219,"ĠdQD":3220,"Ġfbd":3221,"ghI":3222,"jOjh":3223,"ĠPc":3224,"edI":3225,"ĠGfJj":3226,"ĠUfOhb":3227,"ĠjSGYO":3228,"ĠSLd":3229,"ĠMHj":3230,"ĠGdbU":3231,"hdjg":3232,"jejG":3233,"ĠGed":3234,"ĠjbOe":3235,"ĠJhO":3236,"GWF":3237,"ĠJaG":3238,"ĠJYhO":3239,"KGFb":3240,"Ġfchf":3241,"ĠSfJ":3242,"ĠeSGYOJc":3243,"aR":3244,"ĠhGdGSJ":3245,"fJGFL":3246,"jhf":3247,"ĠGdfX":3248,"ĠhMSH":3249,"YOc":3250,"ĠddLfI":3251,"ĠGfa":3252,"ĠddGee":3253,"hMI":3254,"ĠjYjT":3255,"ĠGdGLQGAGJ":3256,"Wf":3257,"ĠMGLI":3258,"GOd":3259,"ĠJYGd":3260,"Ġfjc":3261,"ĠHa":3262,"djH":3263,"ĠGdGNjQ":3264,"eGYI":3265,"Wg":3266,"ĠfaSgG":3267,"ĠJOGHjQ":3268,"ĠQGS":3269,"Qjg":3270,"ĠWd":3271,"ĠGJPcQ":3272,"bjf":3273,"ĠehJ":3274,"ĠbUI":3275,"FeI":3276,"ĠJUHM":3277,"SJchf":3278,"ĠbSe":3279,"ĠGdeTQhY":3280,"NI":3281,"ĠJSGYO":3282,"djRjI":3283,"ĠGdGfSGfjI":3284,"ĠGUObGA":3285,"jU":3286,"dd":3287,"hHjI":3288,"ĠGdGUd":3289,"ĠOhdI":3290,"NUU":3291,"ĠGdJLGQI":3292,"ĠGNHQJc":3293,"ĠGdeYJ":3294,"Ġefce":3295,"ĠGdUfOhb":3296,"ĠJZjjQ":3297,"ĠSjGQ":3298,"ĠHQj":3299,"ĠUhQI":3300,"Tf":3301,"ĠSN":3302,"ĠGQjOc":3303,"ĠeMG":3304,"ĠjJMOK":3305,"ĠQc":3306,"WhQ":3307,"ĠGdbGfhfjI":3308,"ĠGdJMbjb":3309,"ĠGdYb":3310,"ĠWdHJ":3311,"ĠGWdGb":3312,"ĠeHQ":3313,"ĠddefRd":3314,"ĠGdjhf":3315,"PcQI":3316,"ĠGffi":3317,"ĠGJQc":3318,"ĠNda":3319,"Sde":3320,"ĠGdaQYjI":3321,"KGJ":3322,"ĠHGfj":3323,"ĠdZ":3324,"NaV":3325,"heGPG":3326,"GQjOc":3327,"ĠJTGQ":3328,"VGY":3329,"ĠjYhO":3330,"aGa":3331,"ĠebG":3332,"ĠUMj":3333,"ĠNQj":3334,"MGJ":3335,"ĠJWdH":3336,"ĠHGc":3337,"ĠJQJ":3338,"ĠGdeTQ":3339,"MGjG":3340,"Ġbdb":3341,"Lhf":3342,"ejdI":3343,"ĠGdMbjbj":3344,"ĠSGchf":3345,"ĠJaYdjf":3346,"Yfj":3347,"ĠhGdGJ":3348,"ĠGdGde":3349,"ĠGdOGNdjI":3350,"MHg":3351,"ĠfMJGL":3352,"KhQ":3353,"ĠGdQSejI":3354,"ĠHjd":3355,"VH":3356,"ĠJYQV":3357,"ĠMQ":3358,"HGdJGcjO":3359,"aGjI":3360,"ĠJHbi":3361,"ĠeDNQG":3362,"ĠJehR":3363,"ĠGdLjO":3364,"ĠGdejRGfjI":3365,"SJj":3366,"VjY":3367,"ĠSHM":3368,"ĠZGV":3369,"ĠOQG":3370,"dHjI":3371,"ĠGdONhd":3372,"ĠYedG":3373,"GTYQ":3374,"XGg":3375,"ĠHGda":3376,"ĠeMb":3377,"ĠHYe":3378,"ĠeKdc":3379,"ĠfbU":3380,"ĠGdOjebQGWjI":3381,"ĠSjOJj":3382,"ĠhUdJ":3383,"ĠYGFdI":3384,"SGQ":3385,"ĠefX":3386,"ĠjUd":3387,"GdJj":3388,"ScQjI":3389,"ĠdGe":3390,"YQaI":3391,"HGQGI":3392,"ĠGdUfG":3393,"ĠGdGSJK":3394,"HdOGf":3395,"jOGf":3396,"ĠGfTWI":3397,"ĠGdHMK":3398,"ĠeRjO":3399,"ĠdjT":3400,"ĠegeG":3401,"ĠQGFYG":3402,"ĠOe":3403,"ĠcJGH":3404,"ĠjZ":3405,"ĠSjOI":3406,"GhO":3407,"ĠRdJ":3408,"hGdO":3409,"MGA":3410,"bQGQ":3411,"Ġbj":3412,"QMdI":3413,"ĠfhaeHQ":3414,"ĠGcJhHQ":3415,"LGf":3416,"ĠGeJ":3417,"Yhf":3418,"GQa":3419,"ĠGKQ":3420,"ĠGdefGWb":3421,"PGQ":3422,"ĠGdSjGSjI":3423,"jQhS":3424,"ĠfXQI":3425,"faS":3426,"dJg":3427,"LdH":3428,"ĠhRjQ":3429,"OGK":3430,"ĠGdebOeI":3431,"ĠGJjJ":3432,"ĠLjf":3433,"LGH":3434,"We":3435,"ĠNeSI":3436,"fGO":3437,"ĠGdJc":3438,"ĠLG":3439,"GddYfI":3440,"ĠGSW":3441,"UJ":3442,"ĠGdYde":3443,"bJg":3444,"ĠGfaS":3445,"ĠeQGJ":3446,"hLgI":3447,"ĠaGQ":3448,"Ġjhdjg":3449,"ĠGdUMI":3450,"ĠhGVM":3451,"ĠGHQjd":3452,"ĠOaY":3453,"ĠhGdJfejI":3454,"ĠLGF":3455,"ĠGdJejjR":3456,"ĠGLQGAGJ":3457,"Rb":3458,"ĠGdMOjK":3459,"ĠSdGe":3460,"ĠGdQM":3461,"Ġff":3462,"hjG":3463,"ĠSGaYd":3464,"ĠSeGY":3465,"ĠjSJMb":3466,"ĠhGe":3467,"GdU":3468,"ĠGdGR":3469,"ĠeYXe":3470,"PQG":3471,"KG":3472,"Ġcjf":3473,"ĠGdeDbJ":3474,"ĠGdfgGjI":3475,"ĠJbUO":3476,"Gfhfj":3477,"KdGK":3478,"ĠGJabfG":3479,"ĠGLO":3480,"dbi":3481,"bdb":3482,"ĠbOQ":3483,"ĠHhGSWI":3484,"ĠGeQjcG":3485,"dcfg":3486,"ĠGdfgG":3487,"ĠGJNP":3488,"ĠhZ":3489,"ĠhGda":3490,"ĠSGQ":3491,"Ġehf":3492,"ĠHQGeL":3493,"ĠGdhGVM":3494,"SeYJ":3495,"SGO":3496,"GeGJ":3497,"ĠSjOfG":3498,"Rjf":3499,"ĠHef":3500,"MV":3501,"ĠGQV":3502,"QJg":3503,"ĠGdeaJ":3504,"WGdH":3505,"ĠGJaGb":3506,"ĠhGV":3507,"ĠGMUd":3508,"ĠMbjbI":3509,"ĠGShG":3510,"ĠGddGReI":3511,"ĠGdMX":3512,"ĠGSec":3513,"ĠGdaJjGJ":3514,"Hh":3515,"HOhf":3516,"hajb":3517,"dGffj":3518,"LjY":3519,"ĠHGdL":3520,"ĠJQZH":3521,"ĠdGYH":3522,"GfJj":3523,"ĠGdHd":3524,"hcj":3525,"ĠYRjRj":3526,"ĠdYHI":3527,"ĠGfce":3528,"ĠeYge":3529,"ĠSJJ":3530,"ĠGdJOQjH":3531,"ĠJUd":3532,"ĠGdabQ":3533,"ĠdGfj":3534,"ĠGeQG":3535,"ĠGdbhI":3536,"HGQGJ":3537,"ĠGdeQab":3538,"dGbGJ":3539,"ĠGdSYhOjI":3540,"ĠYfOc":3541,"ĠGdWHjH":3542,"djg":3543,"ĠGJUGd":3544,"UMjM":3545,"ĠHHYV":3546,"ĠGdWGbI":3547,"ĠddGSJ":3548,"ĠegfO":3549,"ĠegeI":3550,"ĠGecGf":3551,"ONd":3552,"WGA":3553,"ĠGdOQG":3554,"ĠGdGfJQfJ":3555,"ĠadG":3556,"ĠHV":3557,"PgGH":3558,"ĠaQGfc":3559,"ĠGdHGQ":3560,"ĠdGHO":3561,"ĠeGjh":3562,"ĠNWQ":3563,"ĠeQV":3564,"ĠHhU":3565,"ĠGdGehGd":3566,"ĠeaG":3567,"jQGJ":3568,"ĠQhM":3569,"Lh":3570,"Hhd":3571,"dGbI":3572,"ĠGUd":3573,"ZGQ":3574,"Gfi":3575,"ĠSde":3576,"GdGe":3577,"NdJ":3578,"ĠGdUOO":3579,"ĠGYdi":3580,"ZQb":3581,"ĠPh":3582,"ĠHYjO":3583,"ĠGjdhd":3584,"ĠGdgOa":3585,"ĠJedc":3586,"ĠGWdH":3587,"ĠYej":3588,"ĠhGMOG":3589,"ĠUYH":3590,"ĠhN":3591,"ĠJVY":3592,"GSaI":3593,"ĠJcde":3594,"GHjY":3595,"LGM":3596,"ĠGdRhGL":3597,"jQg":3598,"ĠGdLdSI":3599,"ĠGNHQfj":3600,"ĠeJGcOI":3601,"ĠGdMOhO":3602,"ĠGdSfhGJ":3603,"ĠGWdb":3604,"ĠdGfgG":3605,"Ġda":3606,"ĠjYJbO":3607,"ĠNOeI":3608,"MXhX":3609,"ĠUY":3610,"ĠaJi":3611,"ĠLgGR":3612,"Qje":3613,"jGS":3614,"ĠGMOi":3615,"ĠGQHYI":3616,"abGJ":3617,"ĠSdGM":3618,"ĠGdfR":3619,"GdQLd":3620,"dcfc":3621,"ĠGejf":3622,"ĠfHj":3623,"GMO":3624,"Pf":3625,"ĠGQGO":3626,"Njd":3627,"ĠGdGgOGa":3628,"aja":3629,"ĠGdHOGjI":3630,"TGa":3631,"ĠHTjA":3632,"bjGe":3633,"bjbg":3634,"ĠGdYTGA":3635,"ĠbOeJ":3636,"SdI":3637,"ĠeTJ":3638,"ĠGdQZe":3639,"QJj":3640,"ĠYW":3641,"ĠGdeJUdI":3642,"QhH":3643,"GYJbOJ":3644,"ĠjehJ":3645,"ĠeTJQc":3646,"ĠGTNGU":3647,"dGg":3648,"fSG":3649,"SGchf":3650,"QLGd":3651,"ĠhGdK":3652,"ĠGdaG":3653,"ĠHfaSc":3654,"ĠHGdT":3655,"ĠGdGV":3656,"ĠHGdNGQL":3657,"QT":3658,"ĠGdeJYdb":3659,"jGd":3660,"ĠGdGhQhHj":3661,"ĠGdJacjQ":3662,"ĠGdec":3663,"GfY":3664,"ĠGdSJ":3665,"ĠHGYJ":3666,"ĠVQH":3667,"ĠYdeG":3668,"ĠebGH":3669,"ĠGehQ":3670,"ĠfJGFL":3671,"bGO":3672,"ĠfJjLI":3673,"ĠHhQ":3674,"ĠcGS":3675,"ĠeTcd":3676,"ĠHcKjQ":3677,"Ġajf":3678,"ĠOhQJgG":3679,"ĠOjf":3680,"ĠGQGc":3681,"OYj":3682,"ĠGdGSJbHGd":3683,"hcd":3684,"ĠchQ":3685,"ĠhfMf":3686,"ĠMU":3687,"HjQG":3688,"ĠehVhY":3689,"ĠdjJ":3690,"djJ":3691,"ĠLhQL":3692,"ĠGdeTGcd":3693,"ĠJR":3694,"NOeGJ":3695,"OjGJ":3696,"dGfc":3697,"ĠhbJG":3698,"GQOJ":3699,"ĠGHMK":3700,"hGfGJ":3701,"Ġdcffj":3702,"LjH":3703,"ĠGNjQG":3704,"hGMO":3705,"ĠjUHM":3706,"ĠbVG":3707,"ĠGdcdGe":3708,"ĠHh":3709,"ĠGdGfeGFj":3710,"ĠhQGA":3711,"dcffj":3712,"ĠGHfj":3713,"YfG":3714,"ĠGdebQ":3715,"hfgG":3716,"GHd":3717,"ĠJQj":3718,"ĠGdJbOe":3719,"ĠaYdJg":3720,"ĠTHGH":3721,"WaGd":3722,"ĠJJe":3723,"aGdI":3724,"ĠHdOGf":3725,"ĠGdUYH":3726,"ĠJMSjf":3727,"ĠjbJd":3728,"ĠGdUYjO":3729,"FfG":3730,"QQ":3731,"ĠhJT":3732,"ĠGdJGHYI":3733,"ĠfjS":3734,"ĠdfaS":3735,"aghe":3736,"ĠGdefT":3737,"cfhdhLjG":3738,"ĠeTZ":3739,"ĠcQI":3740,"ĠJYjT":3741,"eQI":3742,"GQV":3743,"ĠHTOI":3744,"ĠcKjQI":3745,"ĠGdTHGH":3746,"GLQ":3747,"Ġagh":3748,"aYI":3749,"ĠQO":3750,"Ġjg":3751,"ĠGdeTGQcI":3752,"ĠGdfeh":3753,"ĠQLdG":3754,"ĠddU":3755,"ĠHGdW":3756,"ĠGdWdH":3757,"gejI":3758,"ĠONd":3759,"ĠJLO":3760,"ĠjJUd":3761,"ĠMGdG":3762,"Gdjhe":3763,"ĠGdeYO":3764,"KHJ":3765,"HGdZ":3766,"YJc":3767,"eGQSGJ":3768,"ĠLfhH":3769,"gRI":3770,"ĠGdeTJQcI":3771,"Gaj":3772,"YOO":3773,"Hjg":3774,"ĠGdJRGe":3775,"ĠGNPJ":3776,"TQGJ":3777,"ĠhJe":3778,"eQGQ":3779,"hVjI":3780,"ĠGddbGA":3781,"QLGA":3782,"ĠGYhO":3783,"ĠGdYQG":3784,"ĠMSGH":3785,"ĠLQjeI":3786,"PjH":3787,"Ġfbhe":3788,"ĠGdSjGSGJ":3789,"ĠGdeV":3790,"Jce":3791,"ĠGYdGf":3792,"jQc":3793,"ĠGdTQcI":3794,"ĠUhQ":3795,"ĠbGeJ":3796,"ĠXffJ":3797,"ĠGSej":3798,"ĠHGffG":3799,"ĠGdNGeSI":3800,"ĠeKjQ":3801,"Ne":3802,"ĠGdeSJOGeI":3803,"ĠJNHQfj":3804,"ĠQe":3805,"ĠGdhKjbI":3806,"ĠHjffG":3807,"ĠhSJ":3808,"GYWfj":3809,"ĠGdSYhOj":3810,"ĠGdbdH":3811,"ĠMGf":3812,"GYGJ":3813,"jhe":3814,"YJg":3815,"ĠageJ":3816,"fSjI":3817,"NUUI":3818,"HjV":3819,"Mce":3820,"ajPj":3821,"aGR":3822,"YOOI":3823,"ĠdHYV":3824,"ĠcgPG":3825,"ĠGfS":3826,"ĠYT":3827,"LFjf":3828,"HGS":3829,"ĠGdJGQjN":3830,"QGAI":3831,"Ġadf":3832,"ĠGdaVGA":3833,"ĠgGO":3834,"ĠGQSd":3835,"ĠGdKdGK":3836,"jjQ":3837,"UGF":3838,"ĠGdSeGA":3839,"ĠMGhdJ":3840,"ĠJSJNOe":3841,"ĠJJPcQ":3842,"ĠMhGdj":3843,"ĠGdTeS":3844,"fja":3845,"ĠGdhQ":3846,"ĠGdJQc":3847,"ĠGdMGdGJ":3848,"ĠXg":3849,"ĠhXjaI":3850,"ĠbdHj":3851,"ĠGdGdcJ":3852,"ĠGdeeKd":3853,"ĠhGdGLJeGY":3854,"Ġajc":3855,"ĠGSJWY":3856,"ĠLQ":3857,"hfZ":3858,"ĠHJdc":3859,"ĠGdGcKQ":3860,"ĠSJI":3861,"jJj":3862,"aGf":3863,"ĠhHQ":3864,"ĠGKGQ":3865,"ĠOdjd":3866,"ĠGdbVGA":3867,"ĠUGO":3868,"ĠGdMce":3869,"ĠHOdG":3870,"ĠGddYfI":3871,"ĠTYQ":3872,"ĠheJ":3873,"Geg":3874,"ĠeTGQ":3875,"ĠGdHYKI":3876,"ĠeTQ":3877,"hGM":3878,"jQjI":3879,"jOQ":3880,"ĠGdHQGeL":3881,"ĠGdeedcI":3882,"ĠHGN":3883,"HGY":3884,"ĠGSQY":3885,"ĠGdGSdGe":3886,"ĠSjOi":3887,"ĠUGQ":3888,"QjY":3889,"ĠGdhX":3890,"ĠGdLe":3891,"GOKI":3892,"ĠJhU":3893,"ĠHdOj":3894,"ĠPj":3895,"ĠeYQha":3896,"QLeI":3897,"ĠeGQc":3898,"GJi":3899,"hGPG":3900,"ĠGPGQ":3901,"ĠGdOaGY":3902,"ĠSjMOK":3903,"ĠGgd":3904,"ĠGMjGfG":3905,"GNHQfj":3906,"dGd":3907,"GGfJ":3908,"ĠGdGfJXGQ":3909,"UhQ":3910,"ĠGHfJ":3911,"ĠGKfGf":3912,"dJj":3913,"ĠjQJ":3914,"ĠGdSjGQGJ":3915,"GYQ":3916,"QGj":3917,"GcKQ":3918,"ĠGdMGdj":3919,"jcj":3920,"dGc":3921,"ĠNO":3922,"GhdG":3923,"ĠGdeSGdI":3924,"ĠJHOG":3925,"ĠSjY":3926,"QaV":3927,"LQj":3928,"hdg":3929,"ĠbGOe":3930,"ĠhGdPj":3931,"ĠJYJ":3932,"ĠdGN":3933,"ĠhGb":3934,"ĠeWd":3935,"ĠejdGO":3936,"ĠGdcf":3937,"ĠGdbOjeI":3938,"QZe":3939,"ĠjNHQ":3940,"TaJ":3941,"ĠGdJN":3942,"ĠTQjc":3943,"hYfO":3944,"ĠfSjJ":3945,"eGFI":3946,"ĠhMOI":3947,"ĠGdgfO":3948,"hGLO":3949,"ĠGMS":3950,"ĠGdehSj":3951,"ĠGdeQJ":3952,"UGOQ":3953,"ĠGdaJi":3954,"ĠGdcQ":3955,"ĠGdNd":3956,"ĠfjSGf":3957,"ĠeLehY":3958,"ĠNP":3959,"WjW":3960,"jGW":3961,"GMfI":3962,"JH":3963,"GMHc":3964,"ĠKGfj":3965,"ĠhJf":3966,"ĠJUOb":3967,"ĠhZjQgG":3968,"Ra":3969,"JHOh":3970,"RQ":3971,"ĠGdMeO":3972,"eJdc":3973,"jOR":3974,"GgPG":3975,"ĠGdMG":3976,"Udj":3977,"ĠjfGjQ":3978,"jhLO":3979,"SGYOc":3980,"ĠeGjcd":3981,"ĠGdbOe":3982,"ĠJHMK":3983,"ĠGdGUdjI":3984,"adJ":3985,"hajQ":3986,"ĠGdJW":3987,"ĠGdJGS":3988,"ĠfLO":3989,"NHQc":3990,"LGhR":3991,"dGI":3992,"ĠdecGaMI":3993,"ĠjaJQV":3994,"ĠGdaQUI":3995,"GHW":3996,"ĠSHMGf":3997,"ĠeSH":3998,"ĠGVGajI":3999,"SSI":4000,"ĠGdJLGQ":4001,"ĠaVdG":4002,"ĠJgO":4003,"ĠGdajOjh":4004,"ĠGdShO":4005,"jcd":4006,"ĠeMXhX":4007,"SdSd":4008,"ĠGdcjejG":4009,"ĠGdGdJRGe":4010,"VMjI":4011,"ĠGdeaG":4012,"ĠhGj":4013,"ĠdcfgG":4014,"ĠJbjje":4015,"cQQ":4016,"ĠefJUa":4017,"bjH":4018,"ĠGdJfajPj":4019,"ĠGdeDSSGJ":4020,"ĠGdUMjI":4021,"JM":4022,"ĠQaV":4023,"ĠGSJYQGV":4024,"ĠJfXje":4025,"ĠGdNWI":4026,"bGJd":4027,"ĠaGfg":4028,"QJgG":4029,"ĠJONd":4030,"ĠGYJbOJ":4031,"ĠGdYGFdI":4032,"ĠHOGjI":4033,"ĠHYVfG":4034,"ĠGSQGFjd":4035,"ĠJTjQ":4036,"ĠYGOI":4037,"NOeI":4038,"ĠGdMcheGJ":4039,"ĠSDGd":4040,"ĠGjGQ":4041,"ĠShGA":4042,"ĠeGQj":4043,"ĠfSHI":4044,"ĠGdebWY":4045,"ĠeJf":4046,"ĠGdjfG":4047,"ĠGdMbhb":4048,"ĠhGL":4049,"ĠGJYde":4050,"ĠHce":4051,"GQb":4052,"ĠGdQGHYI":4053,"ĠefGSH":4054,"acQ":4055,"DJeQ":4056,"ZGd":4057,"gQI":4058,"eGL":4059,"ĠaGfG":4060,"ĠGdbJ":4061,"ĠabOJ":4062,"ĠhGdH":4063,"hRjY":4064,"ĠGUdGM":4065,"ĠWQa":4066,"ĠJbGQjQ":4067,"fGgG":4068,"SjM":4069,"OS":4070,"ĠGjO":4071,"JS":4072,"MhG":4073,"SGPgH":4074,"ĠGdNOeI":4075,"hfS":4076,"Ff":4077,"fHj":4078,"ĠGD":4079,"aGP":4080,"ĠhGdGLJeGYjI":4081,"ĠhGdi":4082,"ĠSje":4083,"ĠUfY":4084,"ĠGQJc":4085,"ĠUHGM":4086,"ĠHfO":4087,"LGHI":4088,"OejQ":4089,"ĠfYde":4090,"ĠGdJYGed":4091,"fGSHI":4092,"hdjf":4093,"ĠOQLI":4094,"ĠVeGf":4095,"ĠGMSf":4096,"HWI":4097,"ĠGSGHjY":4098,"GjG":4099,"QHg":4100,"ĠfRY":4101,"ĠLGj":4102,"ĠXgQ":4103,"ghdI":4104,"OGY":4105,"YGI":4106,"HGb":4107,"ĠGdLfGFjI":4108,"ĠJMQc":4109,"ĠHGdcGed":4110,"Ġhg":4111,"ĠfGOj":4112,"ĠGcQg":4113,"ĠGdJbGQjQ":4114,"Ġbdjd":4115,"NGHGJ":4116,"ĠHjGfGJ":4117,"ĠddZ":4118,"ĠjW":4119,"ĠcHjQG":4120,"Ġdjd":4121,"ĠGLdc":4122,"bGFc":4123,"ĠGedc":4124,"ĠGdNGQLjI":4125,"ĠGdaUd":4126,"ĠGdeOjQ":4127,"eGGdPj":4128,"bQjQ":4129,"ĠGfbP":4130,"NQhL":4131,"cfj":4132,"Pi":4133,"ĠRhLJj":4134,"ĠGdQGF":4135,"ĠGdbGOe":4136,"ĠGdeQV":4137,"ĠGdMeGe":4138,"ĠGdGYdGe":4139,"cdeGJ":4140,"ĠJJQc":4141,"UQjI":4142,"ĠYdeJ":4143,"ĠGjQ":4144,"ĠJGcjO":4145,"ĠGdTGQY":4146,"VjJ":4147,"Ġjedc":4148,"ĠLdH":4149,"ĠGdeMJed":4150,"ĠGYe":4151,"ĠGdLjT":4152,"ĠhGdefXeGJ":4153,"ĠGdOjf":4154,"ĠHGecGfc":4155,"ĠGhg":4156,"ĠHYOgG":4157,"ĠGONd":4158,"GecGf":4159,"VeGf":4160,"YOe":4161,"ĠeTGQc":4162,"ĠhSW":4163,"bGFj":4164,"HeG":4165,"ĠGdQFjSj":4166,"UGa":4167,"JJ":4168,"ĠfR":4169,"ĠhGN":4170,"HOjf":4171,"ĠJWHjb":4172,"ĠGdYQV":4173,"GbUO":4174,"ĠZd":4175,"hQjf":4176,"ĠgOa":4177,"ĠGdGbdjej":4178,"ĠhHjf":4179,"ĠOGfj":4180,"ĠLRj":4181,"ĠGdbJd":4182,"ĠjWdH":4183,"ĠGdSjWQI":4184,"ĠSGPgH":4185,"efj":4186,"ĠddW":4187,"ĠMjGd":4188,"ĠGdSGM":4189,"ĠQZe":4190,"ĠGdUhJ":4191,"ĠfQi":4192,"hjfHZj":4193,"cJTa":4194,"ĠhGK":4195,"ĠOcJhQ":4196,"ĠGdTQcGJ":4197,"ĠJecf":4198,"ĠGdcHjQI":4199,"ĠGdeTJQc":4200,"SGWI":4201,"GSJeQ":4202,"ĠhGdGe":4203,"dbGJ":4204,"MXGJ":4205,"hcS":4206,"GMJ":4207,"ĠGdGKfjf":4208,"GOJ":4209,"ĠGjbG":4210,"ĠGYJeGO":4211,"ĠhGdc":4212,"hfGJ":4213,"ĠTQWI":4214,"ĠeGdPj":4215,"ĠOheG":4216,"ĠGdGNHGQ":4217,"ĠGdWGFQI":4218,"NjU":4219,"ĠGfMGA":4220,"SWS":4221,"RR":4222,"ĠehGUdI":4223,"ĠQhS":4224,"ĠGdeLGd":4225,"ĠddGJ":4226,"ĠGhQhHG":4227,"ĠMadI":4228,"hge":4229,"YGd":4230,"ĠJYW":4231,"ĠHZjI":4232,"ĠHfaSj":4233,"Ġdcfc":4234,"ĠgO":4235,"ĠhSha":4236,"ĠcP":4237,"ĠGdegeI":4238,"QGjJ":4239,"ĠGdSdWI":4240,"hVI":4241,"ĠMeG":4242,"ĠGdcJGH":4243,"ĠMjfeG":4244,"ĠJQO":4245,"jfjG":4246,"ĠGdGJaGb":4247,"ĠSHb":4248,"bJgG":4249,"ĠYGeI":4250,"hcH":4251,"ĠOGQ":4252,"jM":4253,"ĠjQjOhf":4254,"ĠGdbOQGJ":4255,"TYQ":4256,"ĠjYJHQ":4257,"hGc":4258,"cSjc":4259,"ĠMjG":4260,"ĠGLeY":4261,"ĠbjeI":4262,"hbGd":4263,"ĠhGdNeS":4264,"PL":4265,"aJGI":4266,"ĠYOJ":4267,"ĠbhjI":4268,"ĠQSe":4269,"ĠGZSWS":4270,"ĠGdYGdejf":4271,"ĠGSJW":4272,"ĠGdSGOSI":4273,"WHN":4274,"ĠGdQjGV":4275,"ĠGdbhGJ":4276,"LJ":4277,"ĠcGedI":4278,"hfMf":4279,"ĠJJcde":4280,"ĠWhd":4281,"ĠMbjbjI":4282,"Ġhdf":4283,"WW":4284,"ĠgGe":4285,"ĠGdJLGQjI":4286,"WGdHI":4287,"ĠGdNHQGA":4288,"ejg":4289,"ĠPGc":4290,"ĠGddMXI":4291,"ĠcJH":4292,"ĠGdYeQ":4293,"ĠGdSdWGJ":4294,"ĠLGgR":4295,"QjV":4296,"ĠGdUMjM":4297,"ĠddH":4298,"VhQ":4299,"ĠfgG":4300,"hYjI":4301,"ĠHGO":4302,"dbg":4303,"ĠaGJ":4304,"ĠQGSc":4305,"jbhd":4306,"ĠGdHO":4307,"GdGVGaI":4308,"ĠeHQhc":4309,"ĠGdeQc":4310,"ĠhdGjI":4311,"ĠjTYQ":4312,"ĠGdYU":4313,"Jda":4314,"ĠhjS":4315,"ĠMde":4316,"ĠSGfJ":4317,"ĠJcd":4318,"ĠddMUhd":4319,"ĠGdGSGSj":4320,"GNJ":4321,"ĠJLGg":4322,"NdGd":4323,"ĠGKfjf":4324,"OQjH":4325,"ĠNWW":4326,"ĠYedj":4327,"hGQF":4328,"hdGO":4329,"ĠGdYScQjI":4330,"JQj":4331,"ĠRef":4332,"habG":4333,"ĠTGQ":4334,"ĠGdghGA":4335,"ĠffJ":4336,"ĠGdYedjGJ":4337,"TGQc":4338,"ĠGdfMh":4339,"ĠNjGQ":4340,"ĠfM":4341,"WGdeG":4342,"Nda":4343,"bHhd":4344,"ĠePg":4345,"ĠddN":4346,"HOhG":4347,"UGQ":4348,"ĠJhe":4349,"ĠJbOjQ":4350,"aQO":4351,"ĠWjH":4352,"ĠZV":4353,"ĠGTcGd":4354,"ĠGRGA":4355,"ĠJbJd":4356,"ĠeMH":4357,"ĠjSJNOe":4358,"ĠeMd":4359,"hce":4360,"ĠQGM":4361,"ĠeSQ":4362,"Ġfb":4363,"MjGf":4364,"heY":4365,"Ġehba":4366,"jaG":4367,"ĠGdUhQI":4368,"ĠbWY":4369,"Ġcjd":4370,"ĠGddYHI":4371,"ĠGdMGLI":4372,"aQI":4373,"ĠSGd":4374,"hYdi":4375,"ĠGdNWG":4376,"ĠGdMS":4377,"QLGJ":4378,"ĠGdbUI":4379,"bjg":4380,"ĠGdQGHY":4381,"ĠfbWI":4382,"ĠcGJ":4383,"ĠGdeMdj":4384,"ĠGdOcJhQ":4385,"ĠGdeSJTai":4386,"ĠGdOGNdj":4387,"hgj":4388,"LGQI":4389,"ĠGdeSGhGI":4390,"QbU":4391,"YOG":4392,"GHJf":4393,"Xj":4394,"ĠGdbdjd":4395,"ĠacQ":4396,"HGOd":4397,"hdjS":4398,"ĠGdQa":4399,"ĠgjFI":4400,"bGYO":4401,"GHh":4402,"YJj":4403,"ĠJdYH":4404,"hfO":4405,"ĠfTQ":4406,"ĠGUMGH":4407,"ĠGdbhd":4408,"ĠGaQGO":4409,"SGQI":4410,"ĠHdZ":4411,"SY":4412,"ĠddGf":4413,"ĠGdSDGd":4414,"GdLejY":4415,"ĠdhMO":4416,"ĠGdefGYI":4417,"Jhb":4418,"djT":4419,"ĠMad":4420,"ĠGdbjGOI":4421,"ĠdLejY":4422,"ĠGdbVGjG":4423,"ĠjbJ":4424,"ĠUf":4425,"ĠeQjV":4426,"ĠGMcGe":4427,"ĠHVYI":4428,"HQi":4429,"ĠGSjG":4430,"ĠGdJd":4431,"GdjG":4432,"ĠfY":4433,"ĠhGdeJ":4434,"eLQO":4435,"GdN":4436,"GefI":4437,"ĠMQH":4438,"ĠcPG":4439,"ĠZQ":4440,"ĠeOjQ":4441,"TGQjI":4442,"ĠJMO":4443,"GHJYO":4444,"ĠeGc":4445,"ĠHGdGS":4446,"ĠhLgc":4447,"agG":4448,"jce":4449,"ĠJJYdb":4450,"ĠGdHdGO":4451,"MJc":4452,"ĠGdGYdi":4453,"GaYd":4454,"ĠGdTgQ":4455,"ĠhGdGLJeGYj":4456,"MjGJj":4457,"ĠafOb":4458,"ĠLRjdG":4459,"HGOQI":4460,"JQG":4461,"ĠGdJbfjI":4462,"YJgG":4463,"ZGOQI":4464,"ĠGdbfG":4465,"ĠGdSQjQ":4466,"ĠSeMJ":4467,"dYH":4468,"ĠGdGQGVj":4469,"ĠOYfG":4470,"LJeY":4471,"ĠGWd":4472,"ĠdGO":4473,"ĠMOhO":4474,"ĠcjajI":4475,"ĠGYQag":4476,"efJ":4477,"YGL":4478,"ĠGdeTGQjY":4479,"ĠJTed":4480,"ĠGdehL":4481,"Wjg":4482,"ĠGdeNJ":4483,"ĠhGa":4484,"ĠKeI":4485,"jfi":4486,"WdGb":4487,"HGc":4488,"ĠGdHjFI":4489,"ĠJbJ":4490,"dcj":4491,"ĠebQ":4492,"ĠeMOOI":4493,"WM":4494,"ĠGecGfjI":4495,"HjGf":4496,"ĠJeQ":4497,"ĠJYG":4498,"ĠdGZ":4499,"ĠhHGQc":4500,"jOjI":4501,"Gag":4502,"ĠGdfJGFL":4503,"ĠGdHdGZ":4504,"ĠGdUhQ":4505,"ĠGdTYQ":4506,"LgI":4507,"ĠJUQa":4508,"ĠbGYOI":4509,"ĠVQhQI":4510,"djc":4511,"ĠjfJgj":4512,"ĠUdi":4513,"ĠacQJ":4514,"eJg":4515,"JPcQ":4516,"jQG":4517,"ĠGdHMQjI":4518,"ĠShA":4519,"ĠGhdFc":4520,"Ġajde":4521,"ĠWHjH":4522,"ĠNH":4523,"ĠGdQbe":4524,"ĠeeGQSI":4525,"ĠedGHS":4526,"ĠGdJa":4527,"ĠGfJgG":4528,"ĠTYH":4529,"heGf":4530,"WHb":4531,"hdGJ":4532,"ĠbQQJ":4533,"ĠGfLd":4534,"ĠGSJNOe":4535,"Yh":4536,"ĠGddYH":4537,"ĠHMbhb":4538,"ĠaJM":4539,"ĠeMGhdI":4540,"aGI":4541,"bJfG":4542,"ĠaGd":4543,"ĠGdJhLjg":4544,"ĠMce":4545,"WdGY":4546,"ĠGdeLehYI":4547,"ĠdhS":4548,"ScQj":4549,"ĠGfhGY":4550,"ĠGdHW":4551,"ĠhUMHg":4552,"ĠbhGJ":4553,"ĠjVY":4554,"ĠGdGLJeGYj":4555,"ĠGdSfJjf":4556,"ĠJSeY":4557,"KfGA":4558,"ĠjTcd":4559,"ĠdSfG":4560,"ĠJJMQc":4561,"eSJ":4562,"ĠGdTYhQ":4563,"LHc":4564,"ĠGSad":4565,"ĠLFJ":4566,"ĠWhjdG":4567,"jSI":4568,"ĠjdYH":4569,"ĠHGfJ":4570,"SJhQ":4571,"hGb":4572,"HQGjQ":4573,"jGH":4574,"ĠJXgQ":4575,"Ġbhj":4576,"ĠJaS":4577,"Ġaf":4578,"ĠhbGd":4579,"ĠGdSajfI":4580,"QGLYI":4581,"YOJ":4582,"hJT":4583,"SQY":4584,"ĠGdQSGdI":4585,"ĠgGj":4586,"ĠjNQL":4587,"QGMg":4588,"ĠGQHY":4589,"ĠGdeaQ":4590,"ĠJehJ":4591,"ĠGdMGdjI":4592,"ĠYGOj":4593,"UOj":4594,"ĠSa":4595,"GdeI":4596,"ĠeSGA":4597,"ĠefM":4598,"ĠGdeQG":4599,"ĠShjG":4600,"hGR":4601,"QjbjI":4602,"ĠGdMQ":4603,"GJge":4604,"ĠMOhK":4605,"ĠGJi":4606,"QGcR":4607,"ĠGQGg":4608,"ĠdfPgH":4609,"GQfI":4610,"ĠaHQGjQ":4611,"VGF":4612,"ĠGdfhhj":4613,"ZWjI":4614,"ĠGdGMjGf":4615,"ĠGdbeI":4616,"ĠGaYdg":4617,"VeGe":4618,"ĠTQc":4619,"ĠhJYRjR":4620,"eT":4621,"GHjI":4622,"ĠeYfi":4623,"ĠGdNj":4624,"JGf":4625,"ĠGdYgO":4626,"Ġeaghe":4627,"hVi":4628,"MUdJ":4629,"HGMG":4630,"HQJ":4631,"ĠGdLfSj":4632,"ĠGYJeO":4633,"ĠGdbQf":4634,"ĠXd":4635,"hGFd":4636,"HOY":4637,"KdGKI":4638,"RGA":4639,"ĠGdeK":4640,"bGWYI":4641,"GdfGS":4642,"YOGe":4643,"ĠGMeO":4644,"ĠHGdYed":4645,"aPI":4646,"ĠbWYI":4647,"cQj":4648,"ĠSYjOG":4649,"Ggf":4650,"ĠGLYd":4651,"ĠQDjJc":4652,"XGgQ":4653,"ĠGdcGed":4654,"ĠGdbQGQGJ":4655,"Ġdhc":4656,"ĠMGL":4657,"ĠhGdGef":4658,"eGc":4659,"ĠHYKI":4660,"ĠQGjJg":4661,"ĠGdeMO":4662,"dfOG":4663,"ĠjYW":4664,"bdI":4665,"eGZ":4666,"ĠGdMeGjI":4667,"ĠJSGd":4668,"hGfH":4669,"ĠGdfHj":4670,"ĠGdeSde":4671,"ĠGdGgJeGe":4672,"ĠGdWH":4673,"ĠHGdU":4674,"ĠGdebH":4675,"ĠbOje":4676,"ĠehXaj":4677,"aGbGJ":4678,"ĠGYJHGQ":4679,"Sje":4680,"Ġhge":4681,"ejJ":4682,"ĠLeY":4683,"LRA":4684,"ĠcGaI":4685,"Ġhdcfg":4686,"Ġgjd":4687,"ĠTGgO":4688,"ĠUGdM":4689,"ĠGdce":4690,"ĠhSG":4691,"ĠYOG":4692,"ĠjHMK":4693,"ĠdN":4694,"ĠegdG":4695,"ĠHGdH":4696,"ĠdGS":4697,"ĠHWd":4698,"ĠjOaY":4699,"ĠYedg":4700,"ĠddQ":4701,"ĠeYjfI":4702,"ĠJGj":4703,"ĠHhH":4704,"ĠhXja":4705,"eghQ":4706,"ĠjXgQ":4707,"ĠGfi":4708,"ĠJhaQ":4709,"ĠGdebO":4710,"ĠTGf":4711,"ĠGdTjN":4712,"ĠGMeb":4713,"ĠjfJXQ":4714,"ĠaYdgG":4715,"ĠHMK":4716,"ĠJOQjH":4717,"ĠGdbdb":4718,"ĠJGKjQ":4719,"ĠGdSde":4720,"ĠGfO":4721,"ĠfO":4722,"ĠehQ":4723,"ĠGdGQLM":4724,"gDdGA":4725,"hJc":4726,"ĠJYJbOjf":4727,"ĠGdGShO":4728,"ĠJQcJ":4729,"ĠGdUjf":4730,"ĠGSJe":4731,"ĠGVY":4732,"ĠGddY":4733,"ĠGdYfG":4734,"ĠGdYKhQ":4735,"Ġejf":4736,"ĠGddGLFjf":4737,"ĠGdGfa":4738,"ĠhGY":4739,"ĠjDOj":4740,"ĠdGMX":4741,"ĠGOQc":4742,"ĠHGdN":4743,"ĠGdfbd":4744,"ĠTHcI":4745,"ZdGd":4746,"hdh":4747,"gGj":4748,"ĠOQ":4749,"JTGQ":4750,"ĠjR":4751,"ĠHGecGfj":4752,"ĠMjGJg":4753,"ZO":4754,"TGQcI":4755,"ĠVhA":4756,"HGOQGJ":4757,"ĠGdGHjV":4758,"QGYI":4759,"ĠGdRef":4760,"ĠHjO":4761,"ĠMed":4762,"hHjf":4763,"ĠjONd":4764,"bhOI":4765,"hVM":4766,"ĠeVMc":4767,"ĠJJUd":4768,"dGU":4769,"VGa":4770,"JeQGJ":4771,"ĠJje":4772,"ĠhYOe":4773,"ĠGdbhGfjf":4774,"ĠGehGd":4775,"ĠGdHdOI":4776,"Jjg":4777,"Nf":4778,"GfhjI":4779,"ĠGJUdJ":4780,"GWaGd":4781,"ĠJfJXQ":4782,"ĠGbSe":4783,"hgPg":4784,"Ġjbd":4785,"Ġjha":4786,"ĠeOI":4787,"ĠJgJe":4788,"ĠRhLJc":4789,"ĠGdadSWjfj":4790,"ĠjeKd":4791,"ĠUfG":4792,"ĠGYdGg":4793,"GQGc":4794,"jGHI":4795,"ĠGdeHGOF":4796,"ĠgdG":4797,"ĠQHj":4798,"JL":4799,"ĠJbQj":4800,"ĠeTGQjY":4801,"ĠJTcd":4802,"ĠHjJQ":4803,"ĠGdGjOR":4804,"ĠLQi":4805,"UdMI":4806,"ĠGdMQe":4807,"JQGc":4808,"ĠHGL":4809,"ĠJaYdj":4810,"ĠGHbi":4811,"ĠdJYRjR":4812,"ĠGdJYdj":4813,"ĠGQc":4814,"ĠGdhRQGA":4815,"hYfOeG":4816,"ĠjgJe":4817,"ĠGdXQha":4818,"ĠaGfJ":4819,"UGH":4820,"ĠGdcgQ":4821,"ĠGdTNUjI":4822,"ĠGdQGejI":4823,"ĠSfaYd":4824,"ĠGgOGa":4825,"ĠOYfj":4826,"ĠONhd":4827,"ĠGdOY":4828,"Ġehd":4829,"ĠJh":4830,"ĠGdGSJTGQjI":4831,"ĠdGMO":4832,"ĠhGdeD":4833,"gR":4834,"SJjf":4835,"jcS":4836,"JjT":4837,"ĠLfG":4838,"ĠahQG":4839,"ĠGJhbY":4840,"ĠSjF":4841,"GAGJ":4842,"ĠGdGSe":4843,"eGS":4844,"ĠRGdJ":4845,"ĠGdGSFdI":4846,"ĠGdGYJHGQ":4847,"Kjd":4848,"GdQFjS":4849,"SDhd":4850,"ĠefXheI":4851,"ĠGdeOfjI":4852,"SjGQI":4853,"GdecGf":4854,"KGb":4855,"ĠGdYV":4856,"Qhj":4857,"ĠGbGeI":4858,"ĠGdSdGeI":4859,"cKQ":4860,"ĠcGajI":4861,"ĠjOj":4862,"dOjg":4863,"chc":4864,"ĠJSJMb":4865,"ĠGdGLJeGYGJ":4866,"bGajI":4867,"YgG":4868,"ĠGdLRGFQ":4869,"ahG":4870,"ĠeTGQcI":4871,"ĠjSeM":4872,"gcPG":4873,"ĠHbj":4874,"ĠeUOQ":4875,"jShf":4876,"ĠdJMbjb":4877,"ĠdUGdM":4878,"ĠGdLfhH":4879,"ĠebWY":4880,"ĠGjg":4881,"hGfj":4882,"ĠJYJHQ":4883,"ĠGbQH":4884,"GHf":4885,"ĠhUhd":4886,"ĠYedJ":4887,"ĠUHGMG":4888,"ĠJhLjg":4889,"ĠGdhSW":4890,"OGaY":4891,"OjbI":4892,"ĠNQjLj":4893,"ĠMG":4894,"ĠGdTDhf":4895,"ĠdfO":4896,"Ġhdj":4897,"TF":4898,"ĠTg":4899,"ĠGdbHV":4900,"ĠbdJg":4901,"ĠGdeSDhdjI":4902,"TQM":4903,"ĠJbO":4904,"ĠGdGOGQjI":4905,"ĠjfXQ":4906,"jGR":4907,"ĠHGdd":4908,"ĠGHfJj":4909,"TQj":4910,"GRI":4911,",,":4912,"ĠGdOhQ":4913,"ĠGfSGf":4914,"ĠGSGdc":4915,"ĠGdeSdMI":4916,"ĠGdeQMdI":4917,"ĠHLO":4918,"TY":4919,"ĠbGJd":4920,"ĠHGdGVGaI":4921,"Ġjbhdhf":4922,"ĠGdYdjG":4923,"GJe":4924,"HGecGf":4925,"ĠjJYjf":4926,"eM":4927,"jSjQ":4928,"ĠGdGMeQ":4929,"eGOI":4930,"ĠYHGQI":4931,"ĠGdYjT":4932,"ĠGdGHJ":4933,"fOG":4934,"ĠHGSJNOGe":4935,"Ui":4936,"ĠGdYQH":4937,"SHb":4938,"ĠGNJjGQ":4939,"GfXQhG":4940,"egeG":4941,"ĠUMjMG":4942,"ĠMOjK":4943,"ĠKef":4944,"ĠGbOe":4945,"HgG":4946,"GeJ":4947,"ĠaQfSG":4948,"ĠGSegG":4949,"ĠLfhf":4950,"hGed":4951,"ĠhQO":4952,"Hdi":4953,"ĠGdSjGSj":4954,"ĠGdGeJ":4955,"fHdI":4956,"ĠSGO":4957,"ĠJNJ":4958,"ĠJehjd":4959,"ĠhGfg":4960,"ĠNGFa":4961,"ĠgGJa":4962,"jJe":4963,"Gdjg":4964,"Ġhdh":4965,"hjS":4966,"ĠeJRhL":4967,"ĠddeSGYOI":4968,"Yje":4969,"ĠGdZjQ":4970,"ĠTGH":4971,"hSG":4972,"ĠGMJQGe":4973,"ĠWYGe":4974,"ĠGdbOQI":4975,"GSeYj":4976,"ĠGdWHjYjI":4977,"ĠJWhjQ":4978,"ĠjOYi":4979,"ĠPGg":4980,"hVGJ":4981,"ĠMQcI":4982,"ĠQMdI":4983,"efM":4984,"ĠGfJgJ":4985,"ĠdJfajP":4986,"GMS":4987,"ĠfH":4988,"GejQG":4989,"ĠjchfhG":4990,"Rdj":4991,"ĠGdeHdZ":4992,"ĠehLhOI":4993,"ĠeGjQ":4994,"ĠOhQI":4995,"ĠSGHbG":4996,"ĠNdj":4997,"GFO":4998,"ĠGdTeGd":4999,"ĠGdcdeI":5000,"ĠhMOg":5001,"fL":5002,"ĠGdYdGL":5003,"ĠcdGe":5004,"SGFQ":5005,"ĠTYhQ":5006,"dJgG":5007,"ajJ":5008,"ĠGdYGH":5009,"ĠGdbghI":5010,"bJQ":5011,"ĠGdeKGd":5012,"ĠGdeMjW":5013,"ĠSD":5014,"ĠhjQ":5015,"ĠGdMjf":5016,"ĠgPI":5017,"dGYH":5018,"ĠGdKGefI":5019,"eeJ":5020,"Ġjecffi":5021,"ĠeMe":5022,"ĠGdOhQj":5023,"ĠHGdGT":5024,"UQj":5025,"bHV":5026,"ĠSfG":5027,"ĠGHQ":5028,"MGaXI":5029,"SQJ":5030,"Tb":5031,"KeI":5032,"ĠdWjaI":5033,"ĠGfbGP":5034,"ĠGdYOGdI":5035,"ĠjMaX":5036,"ĠGdhKGFb":5037,"ĠGdLfSjI":5038,"ĠHjY":5039,"ĠHbOQ":5040,"JMOK":5041,"hdJ":5042,"ĠGdUMj":5043,"ĠddGHO":5044,"ĠNGW":5045,"ĠYhO":5046,"dfG":5047,"ĠSJYed":5048,"ĠjQi":5049,"gGHj":5050,"YJfj":5051,"TH":5052,"eGM":5053,"ĠGdfaS":5054,"ĠScGf":5055,"ĠSMH":5056,"ĠjOjc":5057,"ĠGdbGFO":5058,"jcjI":5059,"HjfeG":5060,"ĠbfGI":5061,"ĠSjd":5062,"ĠMHjHJj":5063,"Ydf":5064,"dGfj":5065,"ĠjecfgG":5066,"ĠeQc":5067,"Xg":5068,"ĠGjOj":5069,"ĠeQMdI":5070,"ĠGdeYbhOI":5071,"ĠMW":5072,"TGW":5073,"ĠeLGdGJ":5074,"hdjI":5075,"NGd":5076,"ĠYj":5077,"aGOI":5078,"ĠYedc":5079,"GdJGdj":5080,"ĠLS":5081,"ĠhGKb":5082,"GJfG":5083,"ĠajOjh":5084,"ĠGdejdGO":5085,"ĠTOjO":5086,"ajV":5087,"fMJGL":5088,"ĠeVi":5089,"ĠLRAG":5090,"ajG":5091,"jdQ":5092,"OYhfG":5093,"ĠLGeYI":5094,"ĠTG":5095,"ĠGdTGed":5096,"ĠWHjYj":5097,"QGYGJ":5098,"ĠGdGaQjbjI":5099,"ĠGdTYhH":5100,"ĠJhGUd":5101,"ĠGdJTQj":5102,"QHhf":5103,"Hcj":5104,"ĠhJY":5105,"bjGJ":5106,"ĠhYf":5107,"jaQ":5108,"ĠefW":5109,"ĠGdcQI":5110,"ĠHfJ":5111,"ĠQGFMI":5112,"ĠGdWQb":5113,"ĠJYjjf":5114,"ĠHGdGf":5115,"GdHG":5116,"ĠGQj":5117,"beJ":5118,"WjH":5119,"Ġhh":5120,"ĠfRd":5121,"hgd":5122,"ĠJOaY":5123,"Ġcdj":5124,"OGFeG":5125,"ĠGdbhGYO":5126,"ĠJYdje":5127,"ĠeYJ":5128,"jQhf":5129,"Gfjf":5130,"ĠGdYbO":5131,"ĠJeKd":5132,"ĠGdGaQjbj":5133,"QGcI":5134,"ĠGdSGHYI":5135,"ĠGUGH":5136,"JeYGJ":5137,"ĠhbYJ":5138,"ĠedGjjf":5139,"ĠdJe":5140,"ĠUOjbc":5141,"ĠTNUjI":5142,"ĠMdbI":5143,"QHfG":5144,"ĠGOe":5145,"ĠjHbi":5146,"ĠGbOQ":5147,"Rjhf":5148,"LQO":5149,"ĠLe":5150,"ĠhGdd":5151,"fhY":5152,"ĠGfSI":5153,"ĠeJGNQ":5154,"deS":5155,"jOg":5156,"ĠJGcd":5157,"hGbY":5158,"eJc":5159,"ĠHGdeGFI":5160,"SGAd":5161,"ĠHGdOGNd":5162,"ĠGdGMJjGLGJ":5163,"ĠGdGJLGQ":5164,"ĠGdehSjbi":5165,"Hb":5166,"ĠjNU":5167,"gOI":5168,"ĠSjFG":5169,"Rh":5170,"ĠGdfU":5171,"ĠGdLfSjf":5172,"GdcKjQ":5173,"ĠjHOG":5174,"ĠfGS":5175,"ĠSjGb":5176,"jfgG":5177,"fSj":5178,"ĠGhdGO":5179,"ĠjMed":5180,"ĠYOjOI":5181,"ĠSbW":5182,"ĠJJhba":5183,"ĠHLGfH":5184,"dS":5185,"QGJjLjGJ":5186,"ĠGdZO":5187,"ĠecGfc":5188,"ĠdhjS":5189,"ĠGdVhA":5190,"ĠTe":5191,"SGhj":5192,"ĠeYGdLI":5193,"ĠTHGW":5194,"ĠGbhi":5195,"ĠJTGQdj":5196,"GMVQ":5197,"gOGJ":5198,"ĠGdLQGFe":5199,"ĠGdTQj":5200,"ĠbhGYO":5201,"YRjRJj":5202,"ĠLjQ":5203,"ĠGMVQJ":5204,"ĠYjfj":5205,"SJNOe":5206,"ĠJQjOg":5207,"ĠGdLSe":5208,"ĠGdMdbI":5209,"ĠGdedGHS":5210,"GYO":5211,"bhdg":5212,"RjGOI":5213,"ĠeMbI":5214,"ĠGdeNJd":5215,"ĠGdgjFI":5216,"abQI":5217,"LdGJ":5218,"ĠJaVd":5219,"GFj":5220,"ĠJMOKJ":5221,"ĠbVj":5222,"QGT":5223,"ĠGSGd":5224,"ĠGdGYdGf":5225,"Ġagj":5226,"jffj":5227,"JjGQ":5228,"ĠdYed":5229,"gfGdc":5230,"ĠGdGSJYQGV":5231,"HjFI":5232,"ĠeGdj":5233,"SJhf":5234,"ĠGSJYeGd":5235,"aGV":5236,"ĠGdefGSHI":5237,"ĠGdLeGY":5238,"ĠHjc":5239,"ĠJSLjd":5240,"ĠddLejY":5241,"ĠGdGMOGK":5242,"FjG":5243,"ĠTYQJ":5244,"gdGd":5245,"ĠGdGJLGg":5246,"RH":5247,"ĠhGdQ":5248,"ĠGfJgj":5249,"ĠGdGSQI":5250,"GhR":5251,"ĠhJJ":5252,"ĠcGH":5253,"Of":5254,"ĠhJfajP":5255,"Scjf":5256,"ĠeNJ":5257,"ĠehGQO":5258,"ĠJhGab":5259,"ĠdGH":5260,"eHQhc":5261,"ĠZHj":5262,"ĠJhGLg":5263,"ĠGddYjfI":5264,"ĠGdeHG":5265,"ĠGbhdg":5266,"ĠGdGMeb":5267,"fjc":5268,"ĠLGO":5269,"ĠJJHY":5270,"ĠdVeGf":5271,"ĠGOGA":5272,"ĠGSdMI":5273,"ĠGdOeGA":5274,"hJh":5275,"ĠGdYOd":5276,"ĠjGQLd":5277,"SGd":5278,"GaJ":5279,"RGjO":5280,"ĠjSYOc":5281,"Gfh":5282,"ĠOQGSI":5283,"GdMeO":5284,"bGHI":5285,"KfGFj":5286,"Ġeef":5287,"ĠHGdGSJ":5288,"ĠGdYGU":5289,"ĠGdeMJQe":5290,"Ġee":5291,"ĠMLe":5292,"ĠeGJJ":5293,"ĠdeSGYO":5294,"ĠhGdGO":5295,"gjH":5296,"hGde":5297,"ĠGdbGJd":5298,"QGFj":5299,"ĠfYed":5300,"ĠQhR":5301,"PfH":5302,"Jhf":5303,"ĠHGQjS":5304,"GFQGJ":5305,"GfcdjRjI":5306,"ZGfSJGf":5307,"ĠGdefGN":5308,"ĠHOhQ":5309,"ĠGdHQhJhchd":5310,"ĠGdchfZh":5311,"KGf":5312,"QfG":5313,"ĠGdeaVd":5314,"ĠefGWb":5315,"ĠJcGdja":5316,"ĠGdbSe":5317,"ĠGdMSGHGJ":5318,"ĠYVh":5319,"cheI":5320,"ĠONdJ":5321,"ĠGVGaI":5322,"ĠeSJMjd":5323,"ĠGdOGFe":5324,"ĠJabO":5325,"MHc":5326,"ĠjQMe":5327,"ĠGLeYjf":5328,"ĠHaYd":5329,"ĠGdfbhO":5330,"UOjb":5331,"ĠTQj":5332,"dbj":5333,"gGOI":5334,"ĠTDhf":5335,"efG":5336,"ĠeQJjf":5337,"Xde":5338,"GhQGJ":5339,"GJQc":5340,"ĠGdbJGd":5341,"ĠGSJeY":5342,"YedjGJ":5343,"ĠHUaI":5344,"ĠGdShb":5345,"ĠGdYQHj":5346,"ĠdJdc":5347,"hfjG":5348,"ĠGdeGf":5349,"ĠGdJeh":5350,"ĠGQZH":5351,"ajd":5352,"ĠYGdjI":5353,"ĠbOQGJ":5354,"ZGe":5355,"ĠLfS":5356,"ĠeHdZ":5357,"SdM":5358,"ĠGdTQbjI":5359,"ĠGfJGL":5360,"ĠefT":5361,"ĠddOhd":5362,"ĠhGdSjG":5363,"Gdgj":5364,"dcfgG":5365,"ĠgfOSI":5366,"Ġfeh":5367,"ĠdTNU":5368,"ĠGdeGdj":5369,"ĠMHjHj":5370,"ĠGeGcf":5371,"ĠJNU":5372,"ĠeMceI":5373,"ĠaMU":5374,"ĠGjGg":5375,"ĠOhdjI":5376,"ĠGfJTGQ":5377,"ĠGdGejQ":5378,"ĠMjfgG":5379,"ĠeHc":5380,"ĠcdfG":5381,"ĠbWGY":5382,"ĠeKdj":5383,"ĠbOeG":5384,"ĠGdQhSj":5385,"ĠGdbGfhfj":5386,"Lje":5387,"hejf":5388,"YOj":5389,"ĠYQ":5390,"ĠeGdc":5391,"QjfG":5392,"ĠGdNGQLj":5393,"hdbO":5394,"ĠJTc":5395,"ĠGdebG":5396,"ĠdGM":5397,"eQV":5398,"ĠdeY":5399,"ĠGdGVG":5400,"ĠGHfc":5401,"ĠhGdGQ":5402,"ĠGdhMOI":5403,"ĠeGRGd":5404,"ĠGLdS":5405,"ĠGdYGOjI":5406,"ĠGJcde":5407,"ĠefRdj":5408,"ĠYdGL":5409,"ĠjV":5410,"ĠGfLGR":5411,"Ġbje":5412,"ĠdMe":5413,"ĠeOQSI":5414,"ĠJHG":5415,"ĠhOG":5416,"ĠGdJQcjR":5417,"ĠJbdbj":5418,"ĠJbY":5419,"ĠGSJQGJjLjI":5420,"ĠjJcde":5421,"ghV":5422,"Sh":5423,"GJYJbO":5424,"Ġeda":5425,"ĠGdeWd":5426,"ĠGNJHGQ":5427,"ĠHOA":5428,"ĠNGFaI":5429,"ĠGdGUdj":5430,"ĠhGMJ":5431,"ĠGdJGSYI":5432,"ĠfehG":5433,"ĠHTQ":5434,"ĠGgJeGe":5435,"ĠYfOg":5436,"ĠGdjO":5437,"TGgO":5438,"ĠGTha":5439,"ĠGdQYGjI":5440,"MeOg":5441,"SjOI":5442,"ĠQSejI":5443,"MJg":5444,"ĠJbHd":5445,"ĠdfOf":5446,"ĠOGf":5447,"HMb":5448,"ĠHMdhd":5449,"MceI":5450,"ĠGdePc":5451,"Ġab":5452,"fb":5453,"ĠGdJbjje":5454,"OYjfj":5455,"ĠGdbGVj":5456,"ĠeYQa":5457,"SJeQ":5458,"ĠHbjI":5459,"ĠGdhRjQ":5460,"Zi":5461,"bJUGO":5462,"ĠGdWhGQF":5463,"ĠeeK":5464,"ĠGdRhL":5465,"ĠGdJehjd":5466,"ĠGdNda":5467,"ĠeYi":5468,"ĠGdKbI":5469,"ĠfhQ":5470,"ĠGeSc":5471,"ĠGTGQI":5472,"ĠeGcS":5473,"KdI":5474,"ĠYbd":5475,"ĠhGPG":5476,"ĠGdeYQ":5477,"DjI":5478,"JjM":5479,"cje":5480,"hSI":5481,"GJUd":5482,"ĠGdTeGdjI":5483,"ĠGdJbd":5484,"ĠGdeHfi":5485,"ĠJJNP":5486,"ĠMGOK":5487,"ĠJcfhdhL":5488,"ĠHSjW":5489,"ĠddLeYjI":5490,"Qce":5491,"GJYdejf":5492,"hJjhH":5493,"ĠGQjOg":5494,"ĠGdGSJQGJjLjI":5495,"ĠGdKdGKI":5496,"ĠGdQGS":5497,"ĠGdGaWGQ":5498,"YdGf":5499,"ĠWQO":5500,"hUhd":5501,"ĠMGa":5502,"DcO":5503,"ĠjQO":5504,"ĠaQj":5505,"OGj":5506,"ĠOhdGQGJ":5507,"ĠhGdGb":5508,"hP":5509,"MXi":5510,"OGI":5511,"ĠGdTF":5512,"ĠjRjO":5513,"bWGY":5514,"ĠGdGTGQI":5515,"SfJ":5516,"ĠGdajOQ":5517,"ĠJhUjGJ":5518,"ĠGdecJ":5519,"ĠRe":5520,"ĠhGdOJc":5521,"ĠJYH":5522,"ĠeQGbHI":5523,"ĠGdhZO":5524,"hLOJ":5525,"ĠMJj":5526,"GfJXQj":5527,"ĠGdWGHb":5528,"GSej":5529,"ĠfN":5530,"bGaI":5531,"ĠGLdj":5532,"Ġcde":5533,"bOI":5534,"ĠGdhcGdGJ":5535,"ĠGdOQGSI":5536,"ĠaQbI":5537,"ĠGdLRjQI":5538,"ĠGdbGYOI":5539,"Yjg":5540,"ĠYR":5541,"ĠLjT":5542,"hffj":5543,"ĠGYjT":5544,"SfhGJ":5545,"ĠHeaQO":5546,"NQI":5547,"ĠGdLeghQjI":5548,"ĠGdhRGQI":5549,"fJGL":5550,"GbSe":5551,"GOg":5552,"ĠGOfi":5553,"ĠHP":5554,"JYGdj":5555,"ĠjNJ":5556,"ĠeWdbG":5557,"HGMK":5558,"ĠjOc":5559,"ĠNQLJ":5560,"ZGJ":5561,"ĠGdGfL":5562,"ĠGdGdg":5563,"ĠSNja":5564,"ĠZQjHI":5565,"ĠQZ":5566,"LjA":5567,"ĠjTed":5568,"ĠGbJd":5569,"ĠeSHbG":5570,"abhO":5571,"Gjg":5572,"ĠeKjQI":5573,"UGdGJ":5574,"djejI":5575,"ejc":5576,"ĠGdecSjc":5577,"ĠjGJ":5578,"ĠGdcaGjI":5579,"ĠGdcdeGJ":5580,"ĠhNGUI":5581,"ĠGdPc":5582,"ĠSYQ":5583,"ĠfNQL":5584,"ĠhJM":5585,"ĠHGdGfcdjRjI":5586,"ĠchQjG":5587,"HQGW":5588,"ĠGNHQJfj":5589,"hQW":5590,"ĠGdehLhO":5591,"ĠYGFdJj":5592,"YGa":5593,"ĠSjGOI":5594,"MGe":5595,"ĠcfJe":5596,"ĠSQjYG":5597,"ĠdaYd":5598,"OjQ":5599,"ĠjLhR":5600,"ĠGdNGeS":5601,"KdL":5602,"ĠJSeM":5603,"RjGQI":5604,"ĠJQJj":5605,"hbI":5606,"ĠGQjc":5607,"WhjQ":5608,"ĠGdHGQMI":5609,"ĠeKdG":5610,"ĠTjc":5611,"ĠhGdNeSjf":5612,"ĠGdbVGFjI":5613,"ĠGdGefjI":5614,"ĠTQGA":5615,"ĠefGSHI":5616,"ĠSjS":5617,"ĠbOQI":5618,"ĠSJPgH":5619,"ĠgOjI":5620,"GJPcQ":5621,"ĠhGT":5622,"ĠGdUQGY":5623,"ĠdfaSc":5624,"ĠGdcdH":5625,"ĠUOb":5626,"ĠOhQj":5627,"ĠOa":5628,"ĠHGdJYGhf":5629,"ĠHMjK":5630,"MGQ":5631,"ĠehS":5632,"SeY":5633,"ĠGdPgH":5634,"ĠGSJZaQ":5635,"ĠahQ":5636,"ĠGdjI":5637,"ajc":5638,"ĠQh":5639,"ĠhLgj":5640,"ĠGdJbfj":5641,"jJjf":5642,"hQh":5643,"ĠRhLj":5644,"ĠQjc":5645,"bdH":5646,"ĠHLejY":5647,"gjQ":5648,"hdfOG":5649,"ĠeSJYOI":5650,"ĠGdMjhGfGJ":5651,"bOGe":5652,"Ġhdcfj":5653,"ĠSGHb":5654,"ĠGMJeGd":5655,"ĠdefY":5656,"efY":5657,"ĠGdadSWjfjI":5658,"SHMGf":5659,"ĠGdSe":5660,"hUj":5661,"ĠjJWdH":5662,"bjd":5663,"ĠjLYdc":5664,"ĠGJYQa":5665,"GOe":5666,"ĠHhVY":5667,"ĠjYJ":5668,"ejS":5669,"ĠdJf":5670,"ĠGdbeQ":5671,"Ydjg":5672,"ĠGdMbjbjI":5673,"ĠGfXQj":5674,"adf":5675,"ĠGdOGF":5676,"ĠegfOS":5677,"hfi":5678,"GdHfO":5679,"jQjO":5680,"ĠaGj":5681,"ĠSQb":5682,"hGQK":5683,"ĠHbhI":5684,"ĠGdeQGbHI":5685,"ĠGdeSdejf":5686,"ĠcdeG":5687,"ĠHhLhO":5688,"ĠbVGjG":5689,"ĠWGFQI":5690,"ĠGdGcHQ":5691,"hJg":5692,"ĠGbJUGO":5693,"ĠMbjb":5694,"ĠJfJgj":5695,"dGS":5696,"VGf":5697,"aGAI":5698,"GMjGfG":5699,"ĠHi":5700,"GdYGH":5701,"ĠbdjdI":5702,"ddg":5703,"Jh":5704,"LGc":5705,"ĠedGH":5706,"ajQ":5707,"ĠGLed":5708,"hec":5709,"GdSdGe":5710,"Gcf":5711,"Gjecfc":5712,"ĠhGdZ":5713,"ĠRhLJg":5714,"ĠjYQahf":5715,"ĠdTDhf":5716,"ĠjJQc":5717,"ĠGdSaQ":5718,"ĠGdLejd":5719,"Gdjhf":5720,"ĠQjO":5721,"ĠGecf":5722,"ĠWQjbj":5723,"aSI":5724,"ĠGdJMce":5725,"GWdb":5726,"OjfI":5727,"ĠGdeGfjG":5728,"ĠbQH":5729,"ĠGdajde":5730,"ĠcdH":5731,"ĠeYOd":5732,"ĠGNQjf":5733,"ĠhGMOg":5734,"ĠbQGQGJ":5735,"YJjf":5736,"ajaI":5737,"ĠjGH":5738,"hSjY":5739,"LjQ":5740,"ĠGdSQYI":5741,"OhA":5742,"ĠTaJ":5743,"ĠJLQj":5744,"Scj":5745,"ĠUdI":5746,"ĠdMeGjI":5747,"ĠbGFO":5748,"Njf":5749,"ĠjWdb":5750,"ĠGdLejdI":5751,"hdcfj":5752,"SGc":5753,"ĠHgOa":5754,"ĠjPcQ":5755,"ĠJdGMX":5756,"ĠGdVZW":5757,"ĠGdYGgQI":5758,"ĠNHQ":5759,"dR":5760,"ĠhSjdI":5761,"ĠGjecf":5762,"GdhbJ":5763,"ĠGdafjI":5764,"ĠGdeMbb":5765,"Qhfj":5766,"ĠGUdG":5767,"ĠeGQJ":5768,"ĠYGed":5769,"ĠhGdGS":5770,"ĠGaS":5771,"ĠGjQGf":5772,"ĠaLGI":5773,"ĠhdcfgG":5774,"ĠGdhahO":5775,"YGT":5776,"ĠOhdGQG":5777,"ĠGdfgGFj":5778,"GJXf":5779,"ĠGdjGHGf":5780,"ĠfHOG":5781,"RJ":5782,"ĠGdGSJKeGQ":5783,"haG":5784,"ĠJSJWjYjf":5785,"ĠGHdZ":5786,"ĠhGVMI":5787,"QjOI":5788,"QHjf":5789,"ĠeUGH":5790,"ĠeQGYGI":5791,"hSY":5792,"dGhI":5793,"ĠHGeGf":5794,"ĠSGQI":5795,"ĠGdLGeYI":5796,"ĠddJfejI":5797,"ĠGdShOGf":5798,"Tjd":5799,"ĠGdUGO":5800,"ĠhjY":5801,"ĠGdOQLI":5802,"ĠHGdGJ":5803,"ĠbGOeI":5804,"ĠHGeQ":5805,"ĠGdejO":5806,"ĠGdGSdGejI":5807,"ĠGdLGe":5808,"YeI":5809,"ĠeYce":5810,"ĠGdJfSjb":5811,"dGj":5812,"ĠHGfge":5813,"ĠhGdHQ":5814,"GdHGJ":5815,"ĠGdYLhR":5816,"OQSI":5817,"ĠGdYRjR":5818,"ĠJDOj":5819,"ĠGZfjI":5820,"ĠSdSdI":5821,"ĠWGbe":5822,"hcja":5823,"ĠGdJGHY":5824,"ĠGgdG":5825,"ĠGdYdGbGJ":5826,"ĠSF":5827,"Tjf":5828,"ĠGdaVG":5829,"ĠhGYGOI":5830,"ĠGcJTa":5831,"ĠeSD":5832,"ĠSeY":5833,"ĠGdeMOOI":5834,"ĠehSj":5835,"ĠGYJQa":5836,"Hbj":5837,"ĠQGSj":5838,"ĠGdeG":5839,"Ġbhdg":5840,"ĠGJage":5841,"ĠGdJhLjgjI":5842,"ĠaYGdI":5843,"dhf":5844,"ĠOg":5845,"haI":5846,"ĠhKGFb":5847,"ĠGdXdGe":5848,"ĠdfJ":5849,"ĠGdGjL":5850,"ĠGdTGH":5851,"VJ":5852,"ĠGdWHjI":5853,"HSHH":5854,"MeGe":5855,"ĠGehJ":5856,"FGSI":5857,"ĠjJhba":5858,"ĠJYdjb":5859,"GJH":5860,"ĠeYGgOI":5861,"ĠGdchjJ":5862,"OjOI":5863,"ĠjTHg":5864,"ĠGdGeGe":5865,"ĠVZW":5866,"TjI":5867,"ĠSjGSGJ":5868,"ĠeDbJ":5869,"YWjc":5870,"ĠJbQQ":5871,"ĠddGWaGd":5872,"Ġajge":5873,"Ġjhejf":5874,"GjJgG":5875,"ĠTjN":5876,"ĠGSJjbX":5877,"ĠGQSGd":5878,"ĠGdGHO":5879,"ĠjbhO":5880,"ĠJbQjQG":5881,"Ġade":5882,"ĠSjJe":5883,"jGZI":5884,"ĠNWjQ":5885,"ĠddaJQI":5886,"ĠGdYdGbI":5887,"ĠGdTjWGf":5888,"ĠGUW":5889,"ĠjQZH":5890,"ĠhHMeOg":5891,"Ġfg":5892,"ĠGYWj":5893,"ĠGdgG":5894,"ĠLdSI":5895,"ĠGdahR":5896,"GNHQJc":5897,"ĠGKb":5898,"ĠHOj":5899,"ĠGdHfc":5900,"ĠUhJc":5901,"ĠdGZQGV":5902,"ĠYGT":5903,"ĠGdMhGQ":5904,"hGQY":5905,"ĠGdQUGU":5906,"fGbT":5907,"ĠjaYdg":5908,"ĠGdTcd":5909,"ĠMP":5910,"ĠGdhcGdI":5911,"ĠGaZGfSJGf":5912,"hGa":5913,"ĠhUa":5914,"ĠWQb":5915,"Hhf":5916,"ĠeSQM":5917,"ĠdjShG":5918,"ĠGdKGfhjI":5919,"hjecf":5920,"GJjM":5921,"ĠeGjQGe":5922,"ĠRhGL":5923,"ĠGdJhUjGJ":5924,"hGabI":5925,"ĠGdcHQi":5926,"ĠGdebOe":5927,"ĠjHdZ":5928,"gGLe":5929,"ĠTQWj":5930,"ĠQjGd":5931,"ZdH":5932,"TjN":5933,"hcGfJ":5934,"ĠeSGFd":5935,"ĠHeY":5936,"ĠJdbj":5937,"ĠbQGJ":5938,"ĠGdSjGSI":5939,"ĠSfPgH":5940,"Sb":5941,"jJfG":5942,"ĠNUhU":5943,"ĠdJbOje":5944,"ĠQhH":5945,"ĠGdebHdI":5946,"ĠRhLI":5947,"ĠGSFdI":5948,"ĠJGHY":5949,"chfj":5950,"NjQ":5951,"ĠHecGf":5952,"ĠhGdYTQjf":5953,"ĠGdGgejI":5954,"ĠGdgQGA":5955,"ĠJHQ":5956,"ĠeSe":5957,"jJG":5958,"ĠSGL":5959,"hXja":5960,"ĠHGdQ":5961,"Gfjg":5962,"ĠeYGj":5963,"eeG":5964,"ĠGOY":5965,"ĠGdYbd":5966,"ĠGNHQJ":5967,"ĠdGQ":5968,"ĠTGQY":5969,"LGYI":5970,"ĠhGdJYGhf":5971,"ĠJDcO":5972,"UObGA":5973,"ĠJcPH":5974,"ĠNWhI":5975,"dOi":5976,"ĠOja":5977,"ĠGdGhSW":5978,"jLGO":5979,"ĠRhLc":5980,"ĠZj":5981,"jfZ":5982,"ĠGdGOdI":5983,"jSQ":5984,"GdOjc":5985,"bGHdI":5986,"ĠGdJfajPjI":5987,"bUI":5988,"NaGV":5989,"jfGJ":5990,"ĠefGbTI":5991,"ĠGdGhdGO":5992,"JUGU":5993,"ĠGdeSjM":5994,"Ġddef":5995,"ĠHGYJHGQ":5996,"ĠGdQO":5997,"ĠGHOh":5998,"Mjg":5999,"ĠGdJMV":6000,"ĠGfJX":6001,"ĠGdebJQM":6002,"Ġfh":6003,"ĠSgd":6004,"GFRI":6005,"NPg":6006,"ĠdOYe":6007,"ĠfXe":6008,"ĠfMUd":6009,"ĠgQGA":6010,"ĠcGQd":6011,"ĠHYOe":6012,"ĠhcGfJ":6013,"ĠGbJQGM":6014,"Lhd":6015,"ĠQaY":6016,"ĠVYja":6017,"ĠGWhd":6018,"ĠGdYejd":6019,"LeI":6020,"ĠJJMOKjf":6021,"hgfGc":6022,"ĠGdeYGjjQ":6023,"ĠeZd":6024,"ĠGdVQhQj":6025,"ĠHWGbI":6026,"ĠHjfgG":6027,"ĠbdHc":6028,"ĠJQjf":6029,"GTc":6030,"LghO":6031,"ĠGdQGFY":6032,"ĠddPgGH":6033,"ĠgfQj":6034,"GajI":6035,"hHQJ":6036,"fjJ":6037,"JbQjQ":6038,"hYg":6039,"ĠGHYO":6040,"ĠQUO":6041,"Gi":6042,"ĠMGS":6043,"ĠGdLgGJ":6044,"ĠGUObGFj":6045,"Ydg":6046,"ehQ":6047,"Xa":6048,"ĠGSHGH":6049,"ĠGdhdGjI":6050,"ĠfXQG":6051,"djfG":6052,"ĠddbjGe":6053,"UG":6054,"ĠLGe":6055,"Kbj":6056,"ĠeejR":6057,"GdjGJ":6058,"gGLQ":6059,"UjQ":6060,"GOGJ":6061,"ĠhcGdI":6062,"ĠZdW":6063,"ĠadSW":6064,"ĠGdje":6065,"ĠOhG":6066,"jGM":6067,"ĠdQDjI":6068,"ĠebJ":6069,"ĠGdeda":6070,"ĠajQhS":6071,"hdGjGJ":6072,"Qaj":6073,"ĠeDSSGJ":6074,"ĠHK":6075,"ĠGdeOfjjf":6076,"ĠGdJhba":6077,"ĠGdgjFGJ":6078,"Sjd":6079,"ĠGdZQHjI":6080,"UdGM":6081,"ĠGdaQb":6082,"ĠYGW":6083,"SGdI":6084,"ĠGdegfO":6085,"ĠSGbhe":6086,"hHg":6087,"Ndi":6088,"ĠGdMadI":6089,"ĠehXa":6090,"ĠGdJcGdja":6091,"hjLH":6092,"ĠGdejOGf":6093,"ĠJSjQ":6094,"ĠjeQ":6095,"ĠGYWfj":6096,"ĠNU":6097,"ĠJYGhf":6098,"QGf":6099,"ĠGdJUhjJ":6100,"ĠJSHH":6101,"ĠTeGd":6102,"ĠLSO":6103,"ĠLjej":6104,"ĠGdgGO":6105,"ĠYfOgG":6106,"ĠfGFH":6107,"YdI":6108,"QhjL":6109,"ĠGdLgGR":6110,"ĠjUOb":6111,"jSJ":6112,"ĠeHGQGI":6113,"ĠeYbhd":6114,"aJi":6115,"ĠbhGfjf":6116,"cGJH":6117,"ĠHTGfg":6118,"ĠhGLH":6119,"ĠGdJbOjQ":6120,"ĠGdYGedjf":6121,"ĠjYJeO":6122,"ĠhWfjI":6123,"ĠGShO":6124,"ĠGdGfJNGHGJ":6125,"HjGfGJ":6126,"ĠGdQbU":6127,"QGgje":6128,"ĠNR":6129,"ĠhaO":6130,"HJj":6131,"ĠTQW":6132,"GHYc":6133,"ĠHfSHI":6134,"ĠGdZPG":6135,"ĠHSH":6136,"ĠGdGLd":6137,"ĠGdZGHI":6138,"dGOj":6139,"HOA":6140,"ĠddeQGI":6141,"ĠGfW":6142,"ĠOGYj":6143,"GdjH":6144,"ĠGdaFI":6145,"ĠLjeS":6146,"ĠGdhGQO":6147,"ĠhSGFd":6148,"HYjf":6149,"GFd":6150,"ĠejQ":6151,"eOJ":6152,"ĠGdHhG":6153,"ShQ":6154,"bGdJ":6155,"ĠdGRe":6156,"ĠGdjge":6157,"ĠjXf":6158,"ĠGdOfjG":6159,"ĠGSGYOc":6160,"ĠYeQj":6161,"ĠGNHGQc":6162,"ĠPGJg":6163,"ĠGdVMjI":6164,"ĠJYdehf":6165,"QjL":6166,"Ġdja":6167,"ĠfgL":6168,"ĠYfOfG":6169,"bJjf":6170,"SHg":6171,"ĠHGdbQH":6172,"ĠGfgGA":6173,"SHhY":6174,"RGdJ":6175,"ĠhK":6176,"dQHeG":6177,"ĠeGRdJ":6178,"ĠJOQc":6179,"ĠGdGSd":6180,"eGdj":6181,"ĠUYHI":6182,"hfL":6183,"ĠJRhL":6184,"ĠJLGhR":6185,"ĠSdj":6186,"ĠHGQc":6187,"jJge":6188,"ĠGdLeYI":6189,"ĠGdGWGQ":6190,"hbjY":6191,"ĠbGOQ":6192,"ĠGdjcS":6193,"ĠhbY":6194,"ĠGdeahVjI":6195,"ĠGdgLhe":6196,"XQG":6197,"aQbI":6198,"TjQ":6199,"ĠddGS":6200,"ĠYXjeI":6201,"ĠGdHGdZ":6202,"HGj":6203,"ĠaU":6204,"ĠGdJdaGR":6205,"QbjI":6206,"ĠHGQj":6207,"ĠJeRM":6208,"ĠGfJeG":6209,"ĠeUGOQ":6210,"ĠSfchf":6211,"ĠGdeeGQSGJ":6212,"ĠeHcQG":6213,"FJe":6214,"WdHJ":6215,"ĠGdjef":6216,"ĠaQb":6217,"ĠGdGad":6218,"ĠbUO":6219,"hGW":6220,"ĠZVhf":6221,"ĠJfRd":6222,"ĠddHdOGf":6223,"ĠGdJhUd":6224,"dja":6225,"ĠHJS":6226,"HYKI":6227,"Ma":6228,"ĠJYGed":6229,"ĠGQSdJ":6230,"JYdejf":6231,"ĠGdbWGQ":6232,"NjQG":6233,"ĠHGbj":6234,"HjO":6235,"ĠGdJfG":6236,"ĠGjej":6237,"PGH":6238,"fGOG":6239,"ĠGdGQGA":6240,"ĠbUjQI":6241,"ĠagPG":6242,"ĠgPj":6243,"hJjf":6244,"ĠGdehLhOI":6245,"ĠGdSYQ":6246,"bfG":6247,"QHW":6248,"ĠGfeG":6249,"fQjO":6250,"ĠhgPg":6251,"ee":6252,"ĠGdeLGdGJ":6253,"ĠGdLjOI":6254,"ĠGdMU":6255,"ĠGddGRe":6256,"ĠGdebHd":6257,"ĠSM":6258,"ĠSjGQGJ":6259,"Ġhba":6260,"ĠGdfaWjI":6261,"GUO":6262,"ĠcQG":6263,"ĠGdYjf":6264,"UGe":6265,"Fjf":6266,"hUjI":6267,"ĠJhbY":6268,"ĠGdGeGcf":6269,"ĠGdYScQj":6270,"ĠGdGfSGfj":6271,"jfHZj":6272,"Gdh":6273,"ĠeMWI":6274,"ĠSfg":6275,"YHjQ":6276,"ĠeSDhdjI":6277,"ĠJbhdg":6278,"ĠGMdGe":6279,"QGHI":6280,"ĠGdWjQGf":6281,"ĠGdYGF":6282,"eJgG":6283,"ĠcaGjI":6284,"ĠQGi":6285,"gGf":6286,"ĠeLfhfI":6287,"ĠGdSL":6288,"ĠGjT":6289,"GdK":6290,"ĠjhO":6291,"Ġcje":6292,"ĠfGO":6293,"ĠeJMe":6294,"ĠGdZOGA":6295,"GQjf":6296,"fh":6297,"ĠJYWj":6298,"ĠGSJYOGO":6299,"ĠhGdW":6300,"ĠdGffG":6301,"ĠGLgRI":6302,"ĠGdGKfGf":6303,"ĠhGdeY":6304,"ĠOeGA":6305,"ĠjTha":6306,"ĠbQQ":6307,"ĠLOj":6308,"Wja":6309,"ĠGdYeGd":6310,"JGM":6311,"ĠeJGN":6312,"PGJ":6313,"ĠdOjce":6314,"hdcfc":6315,"ĠeYLH":6316,"ĠGdeZQH":6317,"ĠdGhd":6318,"ĠTGg":6319,"ĠGdOGFeI":6320,"fQ":6321,"ĠHOGNd":6322,"WGdjG":6323,"ĠbefG":6324,"jGNj":6325,"fgG":6326,"hffG":6327,"ĠJMdjd":6328,"ĠGdGfJGL":6329,"ĠGSeGA":6330,"ĠTjd":6331,"GSJKfGFj":6332,"ĠdYOe":6333,"ĠJHGOd":6334,"Xi":6335,"ĠJMbb":6336,"ajGJ":6337,"Ġjecfge":6338,"Hfj":6339,"ĠYfge":6340,"Ydej":6341,"ĠTNUjG":6342,"ĠGdhLg":6343,"GKjQ":6344,"ĠfHMK":6345,"NGH":6346,"ĠePcQI":6347,"ĠhGbY":6348,"hGFe":6349,"ĠhJS":6350,"ĠGHfGA":6351,"ĠfYhO":6352,"ĠGfJgjJ":6353,"bJdc":6354,"ĠHWG":6355,"ĠLQGFe":6356,"QGYj":6357,"Ġdci":6358,"hShah":6359,"ĠGdGaQGO":6360,"ĠfXQJ":6361,"ĠGdaYd":6362,"ĠOYhfG":6363,"ĠhGdN":6364,"gjFI":6365,"hfcJ":6366,"SjS":6367,"hGFO":6368,"ĠddHjJ":6369,"GdOhQI":6370,"ĠYeQg":6371,"ĠHGce":6372,"ĠGdJe":6373,"ĠGdhGMO":6374,"ĠJTLjY":6375,"ĠeJGHYI":6376,"hfcJGO":6377,"bdGd":6378,"ĠGdfGOj":6379,"ĠJfSjb":6380,"ĠdJM":6381,"ĠjJVef":6382,"VQhQI":6383,"ĠGdNUhU":6384,"ĠhJbOje":6385,"ĠGdGZfjI":6386,"ĠGdGOGA":6387,"ĠJLQHI":6388,"ĠGdGdcJQhf":6389,"ĠbeI":6390,"ĠfUd":6391,"GdeY":6392,"ĠGJLGg":6393,"ĠLdSJ":6394,"ĠSQjY":6395,"ĠejJI":6396,"LeY":6397,"ĠGdHQjO":6398,"ĠhGdSjO":6399,"ĠjLOQ":6400,"ĠdYjf":6401,"Ġcdge":6402,"ĠGSJWYJ":6403,"ĠGdJZjjQ":6404,"HYG":6405,"ĠGOQGL":6406,"ĠGdVY":6407,"ĠGdeMQR":6408,"ĠHVY":6409,"ĠGdGJUGdGJ":6410,"ĠQhf":6411,"ĠGPcQ":6412,"ĠUZj":6413,"ĠGdGKGQ":6414,"ĠJMhd":6415,"ĠfSj":6416,"ĠHdGO":6417,"ĠGdgi":6418,"ĠGdJYG":6419,"ĠadJ":6420,"hVhM":6421,"ĠbJdg":6422,"ĠhKjbI":6423,"fSjb":6424,"ĠGdTGf":6425,"ĠaX":6426,"ĠddGSa":6427,"ĠWQjbg":6428,"ĠjTjQ":6429,"ĠGMJjGLGJ":6430,"aGfG":6431,"ĠejJG":6432,"ĠGdJMbjbGJ":6433,"ĠGeRM":6434,"fRjQ":6435,"QYI":6436,"Ri":6437,"ĠjdRe":6438,"ĠGdSh":6439,"ĠGdedcjI":6440,"YbO":6441,"ĠJWdb":6442,"PGf":6443,"ĠbjGe":6444,"ĠHYVge":6445,"ĠGdNdj":6446,"ĠGgOG":6447,"ĠheD":6448,"ĠGdGUGHI":6449,"ĠHjGf":6450,"ĠGfJgGA":6451,"ĠGdebQQI":6452,"ĠNGWF":6453,"ĠeGGdPj":6454,"ĠGdgh":6455,"KQJ":6456,"VHGf":6457,"ĠeTZhd":6458,"OjJ":6459,"HGdfSHI":6460,"ĠGddMe":6461,"ĠGdeJGMI":6462,"ĠGdacQI":6463,"TQhf":6464,"ĠGcJTaJ":6465,"jQh":6466,"ĠbVjJ":6467,"ejRGfjI":6468,"ĠGdGhQhHjI":6469,"jGf":6470,"MaX":6471,"GSJeY":6472,"ĠQShd":6473,"ĠGQJaGY":6474,"ĠcfOG":6475,"ĠehQj":6476,"GaJM":6477,"ĠeNO":6478,"hGdG":6479,"ĠGdhWf":6480,"ĠXQha":6481,"ĠGHb":6482,"HhS":6483,"ĠGdeJYOOI":6484,"ĠTh":6485,"ĠfSNI":6486,"RjG":6487,"ĠddGd":6488,"ĠeSJbHd":6489,"ĠJbhdj":6490,"ĠGdQGj":6491,"SQYI":6492,"ĠhQG":6493,"hSa":6494,"GYg":6495,"ĠGdcfjSI":6496,"ĠebGHdI":6497,"ĠGdMQcI":6498,"hRGQI":6499,"Rg":6500,"ĠbGOQI":6501,"PGc":6502,"ĠSJja":6503,"ĠGSGSG":6504,"ĠGejQ":6505,"ĠUabI":6506,"ĠdWjaG":6507,"Gbhd":6508,"ĠGdbHjd":6509,"ĠGdGSGS":6510,"ĠfMGhd":6511,"ĠGdGSad":6512,"ĠHMj":6513,"SjQ":6514,"ĠSGdJ":6515,"ĠGHJYO":6516,"ĠGdfj":6517,"ĠGSJNO":6518,"ĠGdeYfhf":6519,"bGdjI":6520,"SGYhO":6521,"ĠGHbj":6522,"ĠOQLGJ":6523,"ĠGdGeQjcj":6524,"SHGH":6525,"Jgj":6526,"ĠGdeWGa":6527,"ĠGdJUQa":6528,"ĠGdeSQM":6529,"ĠaGT":6530,"ĠaGS":6531,"Yfg":6532,"SJf":6533,"PgHJ":6534,"ĠcdeGJ":6535,"jSja":6536,"bJQMI":6537,"HdheG":6538,"hda":6539,"ĠMGed":6540,"ĠGdGYJeGO":6541,"ĠGdHQfGeLjI":6542,"ĠcgPg":6543,"ĠGfL":6544,"Ġjh":6545,"ĠGdMed":6546,"OQH":6547,"ĠbQGQgG":6548,"ĠGWa":6549,"ĠeGA":6550,"SjJ":6551,"ĠGdJfXje":6552,"ĠefRdc":6553,"ĠgeG":6554,"ĠaQG":6555,"ĠWGdeG":6556,"ĠSL":6557,"Ġaef":6558,"ĠGhba":6559,"ĠGdGUdGM":6560,"ĠLjOg":6561,"ĠGMG":6562,"ĠHJbOje":6563,"ĠGfGS":6564,"ĠGbJQM":6565,"RhGL":6566,"ĠGYOc":6567,"ĠJYOjd":6568,"ĠGdeSGYO":6569,"ĠGdQhM":6570,"ĠbGfhfj":6571,"WGa":6572,"He":6573,"ĠJhUd":6574,"hJG":6575,"ĠHdh":6576,"ĠcdjG":6577,"ĠeHGOF":6578,"ĠGZdH":6579,"ĠaYGdjI":6580,"ĠcdGQc":6581,"aGO":6582,"ĠGdSQj":6583,"ajS":6584,"WdHGJ":6585,"ĠGeGf":6586,"WQG":6587,"ĠehGabI":6588,"ĠGdJaGUjd":6589,"FgG":6590,"ĠchH":6591,"ĠQMd":6592,"ĠGdJcfhdhLjG":6593,"Gfjjf":6594,"ĠGSJeQGQ":6595,"ĠeSGYOJj":6596,"ĠJHdZ":6597,"UQN":6598,"ĠGfJXQj":6599,"ejRI":6600,"ĠGdGed":6601,"hYj":6602,"ĠGdGdZGe":6603,"ĠQheG":6604,"ĠJJUQa":6605,"ĠTQa":6606,"ĠGdMdh":6607,"ĠGdGLGfH":6608,"ĠGdTGMfI":6609,"HGMI":6610,"ĠYedgG":6611,"ĠSjGSI":6612,"ĠJJVef":6613,"hdcfg":6614,"ĠhGdSdGe":6615,"ĠLfja":6616,"ĠSLf":6617,"ĠjGcd":6618,"Ġchfj":6619,"ĠYGFdJc":6620,"ĠWadG":6621,"ĠhfG":6622,"ĠGdGUObGA":6623,"ĠaYdJgG":6624,"Jbhd":6625,"fhO":6626,"cedgG":6627,"ĠGUOGQ":6628,"ĠGdfbO":6629,"ĠGOaY":6630,"LGLI":6631,"Gdjf":6632,"ĠdGjhLO":6633,"ĠeOg":6634,"ĠGdeWYe":6635,"HU":6636,"ĠGdYQGbj":6637,"ĠddGT":6638,"ĠGdSQjY":6639,"ĠhUdfG":6640,"ĠOGFQI":6641,"ĠGdGMcGe":6642,"ĠJdJ":6643,"ĠMdhg":6644,"QGgG":6645,"ĠZGOQ":6646,"ĠJbG":6647,"QGFH":6648,"jYfj":6649,"ĠGdYOO":6650,"ĠGcJH":6651,"ĠJTZjd":6652,"ĠaFI":6653,"ĠJSG":6654,"ĠbGS":6655,"ĠeTJQcI":6656,"GdGT":6657,"ĠGdNJ":6658,"ĠhLOfG":6659,"ĠGdGdcJQhfj":6660,"ĠQGSg":6661,"ĠGdLhjI":6662,"ĠGdVMGjG":6663,"ĠeNd":6664,"ĠGdGhdhjI":6665,"ĠSQbI":6666,"ĠejR":6667,"ĠGdehba":6668,"MSGH":6669,"ĠGdcGQj":6670,"ĠfHjfG":6671,"ĠGdMGa":6672,"ĠhOGYG":6673,"ĠeHOY":6674,"ĠdMO":6675,"ĠGdfgL":6676,"ĠGdeNJdaI":6677,"ĠdcffG":6678,"ĠUOjbI":6679,"ĠeJGcOG":6680,"ĠGddGJ":6681,"hSWI":6682,"ĠGdWj":6683,"ĠHJM":6684,"ĠGaJM":6685,"ĠJbhdjf":6686,"SS":6687,"MJgG":6688,"ĠhGSY":6689,"ĠGYWjc":6690,"ĠGdGMO":6691,"ĠLSe":6692,"ĠaQV":6693,"Ġefi":6694,"ddG":6695,"ĠGdefX":6696,"eGYj":6697,"ĠGdJYjjf":6698,"bJdg":6699,"ĠeOjf":6700,"QJHI":6701,"ĠGdHjFjI":6702,"ĠdhM":6703,"ĠGdahQ":6704,"Ġdjg":6705,"ĠYGd":6706,"JMJ":6707,"ĠGdGTJQGc":6708,"jfh":6709,"ĠGYjO":6710,"ĠZQj":6711,"ĠGdHQjW":6712,"ĠGdeHGQGI":6713,"ĠddNQhL":6714,"ĠeUGU":6715,"gjR":6716,"ĠVMGjG":6717,"ĠGjgGGd":6718,"ĠhXGFa":6719,"ĠhMJi":6720,"JYJbO":6721,"ĠJKb":6722,"ĠejO":6723,"jeGf":6724,"QhM":6725,"ĠhMT":6726,"ĠGSHhYjf":6727,"ĠchHG":6728,"cdaI":6729,"ĠGdeJc":6730,"ĠhLgg":6731,"ĠddbGfhf":6732,"ĠGdYGT":6733,"hGg":6734,"ĠGVWQ":6735,"RGR":6736,"eeJGR":6737,"ĠUj":6738,"ĠTQG":6739,"ĠGdLh":6740,"ĠeWYe":6741,"YfOj":6742,"ĠaGFOI":6743,"dGbG":6744,"ĠGdGQJ":6745,"ĠGdHjV":6746,"ĠGdJbj":6747,"ceGd":6748,"ĠNWjQI":6749,"ĠJGc":6750,"ĠdPj":6751,"HGdGVGaI":6752,"ĠOjajO":6753,"bGT":6754,"ĠGdLOhd":6755,"hGUdI":6756,"bjO":6757,"ĠJTYQjf":6758,"ĠSJf":6759,"MOGJ":6760,"ĠchShah":6761,"ĠGSeG":6762,"ĠOYhI":6763,"ĠLGfHG":6764,"ĠfaW":6765,"ĠSJbhe":6766,"ĠGdZQag":6767,"ĠNdb":6768,"ĠGdMad":6769,"ĠLjH":6770,"ĠGHfJc":6771,"ĠhfJ":6772,"ĠGdefGbTI":6773,"ĠGfOQ":6774,"ĠGdQMjd":6775,"ĠegJe":6776,"ĠGfb":6777,"ĠGHi":6778,"ĠJJhbY":6779,"ĠdGF":6780,"ĠSJe":6781,"ĠGdGMhGd":6782,"ĠLGgRI":6783,"daRjhf":6784,"Ġche":6785,"hYGJ":6786,"hGdOj":6787,"GcQg":6788,"HGde":6789,"ĠHfaSg":6790,"ĠLhd":6791,"ĠaJjGJ":6792,"HOGJ":6793,"ĠgGQj":6794,"ĠbjGOI":6795,"ĠGdhYj":6796,"fjjf":6797,"ĠGdehSe":6798,"ĠeSO":6799,"ĠcY":6800,"GFf":6801,"ĠGdGYJQGa":6802,"ĠGdQSej":6803,"ĠgGg":6804,"JYQajf":6805,"ĠTghQ":6806,"ĠGHQGgje":6807,"ĠHGcedg":6808,"ĠddeSJ":6809,"TGQj":6810,"ĠGdYGedI":6811,"ĠGfaSge":6812,"YOfj":6813,"ĠfXja":6814,"hbYI":6815,"ĠTQb":6816,"ĠJMVQ":6817,"ĠGTJQj":6818,"ĠGdeYGgOI":6819,"ĠaGfgG":6820,"ĠSej":6821,"ĠhMeGjI":6822,"ĠdeLdS":6823,"gdI":6824,"ĠddGfJ":6825,"ĠLeGYI":6826,"ĠJYQag":6827,"gdc":6828,"ĠeVM":6829,"TJQj":6830,"ĠGdSYhOjg":6831,"ĠGdeWHN":6832,"ĠHjfj":6833,"LjT":6834,"hXa":6835,"ĠYfhGf":6836,"ĠcQje":6837,"ĠaQO":6838,"ĠjYedhf":6839,"ĠGdSjQ":6840,"GFg":6841,"ĠjacQ":6842,"Ġjba":6843,"ĠHebO":6844,"ĠbGfhfjI":6845,"ĠJeGfY":6846,"ĠHjdj":6847,"ĠGdaQU":6848,"Ġhjdj":6849,"ĠddGdajI":6850,"ĠjfRd":6851,"ĠZGO":6852,"ĠGYQac":6853,"dGjG":6854,"Ġaec":6855,"ĠGdYdejI":6856,"Lfhf":6857,"Gfb":6858,"Gei":6859,"ĠGdfgQ":6860,"dcffG":6861,"ĠGdGdcJQhfjI":6862,"NUhUG":6863,"ĠJQGg":6864,"ĠhbJc":6865,"ĠSfJjf":6866,"ĠJbGHd":6867,"ĠeDQN":6868,"ĠYeQc":6869,"hJJ":6870,"ĠeGgh":6871,"ĠGdTcQ":6872,"GMSfJ":6873,"ĠjYLHfj":6874,"GTI":6875,"ĠGdhSWi":6876,"GfJg":6877,"ĠGdTGj":6878,"ĠHhLg":6879,"jgG":6880,"ĠGdUQGYGJ":6881,"ĠcSQ":6882,"TGH":6883,"ĠGdeDbJI":6884,"dQ":6885,"ĠYGQ":6886,"ĠHSjWI":6887,"ĠbOjeI":6888,"ĠGdebJQMI":6889,"ĠfGQ":6890,"ĠeTGgOI":6891,"GdSjOI":6892,"ĠJNjd":6893,"ĠGdeOGQS":6894,"HhQ":6895,"ĠJQcj":6896,"ĠjbY":6897,"ĠhjO":6898,"ĠeGaj":6899,"ĠJYGfj":6900,"ĠdhVY":6901,"ĠehLgI":6902,"Ġhddg":6903,"Ġhjecf":6904,"ĠSjGQJj":6905,"HJg":6906,"SGYI":6907,"ĠGdTYHjI":6908,"ĠGdeSOS":6909,"Hi":6910,"ĠHjJj":6911,"ĠehGbY":6912,"ĠfUj":6913,"ĠGdHQde":6914,"TfWf":6915,"YRjRj":6916,"QGdjG":6917,"ĠGdeeQ":6918,"ĠGdeMd":6919,"ĠGZdb":6920,"Whd":6921,"JaVd":6922,"ĠdHfGf":6923,"ĠHGdcGO":6924,"ĠeeJYG":6925,"ĠGdgdGd":6926,"ĠGdOaY":6927,"ĠLja":6928,"ĠfSH":6929,"ĠUdGM":6930,"ĠhHQfGeL":6931,"ĠJHJ":6932,"ĠGdQc":6933,"ĠaT":6934,"ĠGdSQjI":6935,"eJdcGJ":6936,"QjcG":6937,"ĠJHjf":6938,"NHGQGJ":6939,"KeGQ":6940,"ĠJHbj":6941,"ĠGdcjejGFjI":6942,"QJjf":6943,"ĠGLJeGYGJ":6944,"ĠZGjI":6945,"ĠGdUd":6946,"QJjHGJ":6947,"ĠGdLdhS":6948,"ĠJcfhdhLjG":6949,"ĠGdOdjd":6950,"ĠGdNR":6951,"cGfhG":6952,"Ġfbhd":6953,"ĠVM":6954,"ĠVN":6955,"ĠJbOQ":6956,"ĠGdeQGg":6957,"fGOb":6958,"Whj":6959,"ĠdGY":6960,"bGQ":6961,"ĠGdJLGQj":6962,"ĠGdcJH":6963,"ĠGddZI":6964,"ĠSjaYd":6965,"Hdj":6966,"QGajI":6967,"MGhdJ":6968,"ĠebOeI":6969,"ĠeHGTQ":6970,"ĠGdZGR":6971,"Ġjage":6972,"ĠLhdj":6973,"ĠJhbaJ":6974,"ĠGdKdL":6975,"ĠeSJhjGJ":6976,"ĠGdeQM":6977,"ĠGdUja":6978,"ĠhLgI":6979,"ĠGdbOQ":6980,"ĠGMHg":6981,"ĠGdhXGFa":6982,"QGFjdj":6983,"ĠGdZQV":6984,"eSGA":6985,"ĠGdLfG":6986,"ĠeMGej":6987,"Qcg":6988,"GhjI":6989,"ĠGdHQGR":6990,"ĠGfJHGg":6991,"ĠGNHGQj":6992,"hOg":6993,"NWW":6994,"ĠGdfUQ":6995,"eN":6996,"ĠSdWI":6997,"Th":6998,"ĠJYGdj":6999,"PGcQ":7000,"ĠGLGRI":7001,"hfOj":7002,"ĠMjGJfG":7003,"ĠGfJXGQ":7004,"hfJ":7005,"ĠGSdhH":7006,"ĠfGNP":7007,"ĠGSeM":7008,"ĠGdGMJQGe":7009,"OjfG":7010,"KQI":7011,"ĠcGj":7012,"ĠHYVG":7013,"GFW":7014,"ĠZQjHG":7015,"ĠGdeWQ":7016,"ĠGSWhQI":7017,"ĠhajeG":7018,"ĠSGM":7019,"KK":7020,"eOI":7021,"ĠjhejG":7022,"Gdcd":7023,"ĠhHNGUI":7024,"bVj":7025,"ĠeQH":7026,"ĠJhaj":7027,"ĠGdJNdU":7028,"ĠebGQfI":7029,"Tha":7030,"ĠehGLgI":7031,"ĠgGeI":7032,"ĠecGfg":7033,"ĠGdJUhjQ":7034,"ĠGdGfSI":7035,"JSJWjY":7036,"ĠZQH":7037,"ĠhHfGA":7038,"dfPgH":7039,"ĠWQj":7040,"Ġfjd":7041,"QGOGJ":7042,"ĠGdefTGI":7043,"hdgPG":7044,"Ġajd":7045,"djRj":7046,"ĠLgO":7047,"ĠeVJ":7048,"ĠcGfg":7049,"ĠSHd":7050,"QcGA":7051,"aYGd":7052,"ĠGNJUGU":7053,"ĠcaGdI":7054,"ĠJhRjY":7055,"dGfgG":7056,"YjfG":7057,"Yfa":7058,"fSi":7059,"NHQfj":7060,"eGTGA":7061,"ĠhefXeI":7062,"ĠjSei":7063,"ĠJeG":7064,"ĠeWGQ":7065,"ĠGdeQhQ":7066,"ĠNGQLjI":7067,"ĠQUGU":7068,"ĠdeYQaI":7069,"Ġchjf":7070,"ĠWHYG":7071,"VdGJ":7072,"hdhLjI":7073,"ĠGdI":7074,"ĠRQ":7075,"ĠhhVY":7076,"eGQc":7077,"ĠLhg":7078,"ĠjMW":7079,"heGS":7080,"ĠJMS":7081,"ĠGdfXGaI":7082,"Shj":7083,"ĠGdQMdI":7084,"ĠbGHdJ":7085,"ĠJXfjf":7086,"hVjM":7087,"hOGYG":7088,"GKQ":7089,"GFY":7090,"ĠYjfjc":7091,"aJg":7092,"ĠHhSYj":7093,"SjWQ":7094,"ĠGdSHJ":7095,"ĠGdJQ":7096,"ĠdbGA":7097,"ĠJShj":7098,"ĠHGcedgG":7099,"LQGJ":7100,"ĠJHOjf":7101,"ĠGdNHQ":7102,"ĠeQGcR":7103,"ĠSfjf":7104,"ĠheSJ":7105,"GQbI":7106,"ĠeDSSI":7107,"ĠHSghdI":7108,"ĠJMW":7109,"SGbhe":7110,"GdJc":7111,"ĠJSJeQ":7112,"ĠHhVhM":7113,"ĠGdTQGH":7114,"ĠHQhJhchd":7115,"QSGdI":7116,"UOGQ":7117,"ĠGdeWGQ":7118,"ĠJfejI":7119,"ĠLYdJ":7120,"ĠHGM":7121,"ĠebGWY":7122,"ĠSHYI":7123,"GFjI":7124,"ĠfQ":7125,"ĠbHQ":7126,"jeG":7127,"VGjG":7128,"ci":7129,"ĠGdeMGce":7130,"ĠGMdi":7131,"ĠJQjOfj":7132,"aLQ":7133,"YOGdI":7134,"ĠYbdc":7135,"fGe":7136,"ĠGNhc":7137,"GFR":7138,"ĠGHG":7139,"ĠGKHGJ":7140,"ĠehGba":7141,"ĠGNJGQ":7142,"ĠGdehGabI":7143,"ĠGdaSGO":7144,"eR":7145,"ĠGdYQGbjI":7146,"ĠcHGQ":7147,"ĠJLeY":7148,"Ġehg":7149,"ĠddScGf":7150,"ĠGdJbdjOjI":7151,"ĠGdQbGHI":7152,"ĠHGQJ":7153,"ĠbGehG":7154,"Kjb":7155,"ĠGdMaGX":7156,"ĠGdJYPjH":7157,"ĠGdYfUQj":7158,"QjWGfjG":7159,"ĠGdNha":7160,"ĠGdeNUUI":7161,"ĠehGO":7162,"ĠGdfGaPI":7163,"KGQ":7164,"MjGJ":7165,"ĠGdeSGA":7166,"ĠGdGhGf":7167,"WHjb":7168,"ĠSQG":7169,"ĠGdTHcI":7170,"hGfg":7171,"ĠhGdg":7172,"ĠGdeaJGM":7173,"ĠeaJhM":7174,"fHjI":7175,"ĠGdGSJKfGFjI":7176,"aGjGJ":7177,"ĠGdcGedI":7178,"djdG":7179,"HYGO":7180,"ĠVYa":7181,"ehJ":7182,"ĠGdahVi":7183,"ĠTb":7184,"ĠhQbI":7185,"ĠYfGUQ":7186,"ĠGYJHQ":7187,"ĠGSGSjI":7188,"ĠbGHd":7189,"ĠJfU":7190,"ĠGHfI":7191,"ĠHGcSJGf":7192,"GHYjf":7193,"fhGJ":7194,"ĠgR":7195,"ĠGdeWdhH":7196,"Ġjgefj":7197,"ĠGdGSfGf":7198,"jGSGJ":7199,"ĠGKHJ":7200,"ĠcjJ":7201,"ĠGdabQGJ":7202,"ĠdJT":7203,"ĠGdTc":7204,"Gdjc":7205,"gOjO":7206,"ĠedJ":7207,"jfR":7208,"ĠHGdGeS":7209,"hGSJ":7210,"ejGJ":7211,"Ġjbhehf":7212,"ĠLedI":7213,"ĠfLGM":7214,"ĠGdMGOjI":7215,"Ggjd":7216,"ĠHJfajP":7217,"ĠGdHMGQ":7218,"ĠTQGH":7219,"Vja":7220,"ĠGYhGe":7221,"bGFO":7222,"Fge":7223,"ĠeJYOOI":7224,"HJc":7225,"YGjjQ":7226,"ĠLRQ":7227,"ĠGdGeQGV":7228,"ĠgGf":7229,"ĠYbH":7230,"ĠUMI":7231,"ĠYdGeI":7232,"ĠJaYdjfg":7233,"ĠHPd":7234,"LehYI":7235,"ĠTGedI":7236,"ĠjSHH":7237,"QGJj":7238,"ĠQT":7239,"ĠYOj":7240,"ĠGfaSfG":7241,"ĠYOOG":7242,"ĠGdHQJ":7243,"GJQjOjf":7244,"ĠfbGW":7245,"ĠZGdHG":7246,"ĠGdMQjI":7247,"cdg":7248,"ĠKGHJ":7249,"ĠGdGfVeGe":7250,"ĠGdeLQe":7251,"ĠeYGjjQ":7252,"Ġfc":7253,"SGYOfj":7254,"ĠGdJSLjd":7255,"ĠWGF":7256,"ĠeHfi":7257,"ĠGdNeS":7258,"ĠGdjGJ":7259,"QGK":7260,"aYdJ":7261,"ĠGdYXe":7262,"ĠGdSGOS":7263,"ĠGdhGLH":7264,"ĠGbQG":7265,"ĠShjI":7266,"GfOj":7267,"ĠShj":7268,"GQLh":7269,"hfjd":7270,"ĠJYJeO":7271,"OaY":7272,"ĠWjHI":7273,"ĠhcfJ":7274,"ĠGdJbW":7275,"OcJhQ":7276,"ĠHbJd":7277,"ĠGdgGOF":7278,"ĠGdYGTQI":7279,"gGLQjf":7280,"ĠGdQGMI":7281,"ĠGdSGOI":7282,"SeM":7283,"Ġadh":7284,"ĠGdeLehY":7285,"GQGgf":7286,"ĠSGYhO":7287,"ĠGdhdO":7288,"ĠWGdH":7289,"GMV":7290,"dWGdeG":7291,"MGb":7292,"YOjO":7293,"ĠTa":7294,"ĠMQa":7295,"ĠfTGW":7296,"ĠGdOhdjjf":7297,"SGaYd":7298,"ĠjJecf":7299,"ĠcejI":7300,"ĠHYjOI":7301,"ĠhGdGN":7302,"ĠJJecf":7303,"ĠGQLY":7304,"ĠGMOGK":7305,"ĠJcQg":7306,"ĠGdUdGI":7307,"ĠShb":7308,"hOjI":7309,"ĠMXQ":7310,"ĠHGQO":7311,"GQJj":7312,"ĠchQhfG":7313,"ĠJfXja":7314,"jehf":7315,"ĠScQ":7316,"ĠJGJ":7317,"ĠJYQaj":7318,"ĠSjbhe":7319,"GeS":7320,"ĠHeK":7321,"VGL":7322,"JTGQO":7323,"GHO":7324,"ĠLhfj":7325,"bTGJ":7326,"ĠGfRd":7327,"GUHM":7328,"GMGhd":7329,"Sfi":7330,"GdTjA":7331,"QGab":7332,"ĠhGfgG":7333,"ĠUYHG":7334,"ĠGHfG":7335,"ĠGNJc":7336,"ĠGbUi":7337,"jfc":7338,"ĠbdbI":7339,"ĠGdGSQ":7340,"GFH":7341,"ĠZGVHI":7342,"ĠhGdGWaGd":7343,"ĠhHYOgG":7344,"ĠGdGdYGH":7345,"ĠGdaQY":7346,"efI":7347,"ĠGdUjO":7348,"ĠVj":7349,"ĠGdbd":7350,"ĠjGd":7351,"ĠeJW":7352,"FfGa":7353,"ĠHhUagG":7354,"ĠGdGSJGP":7355,"ĠhGdNOeGJ":7356,"ĠGdhbhO":7357,"ĠSajfI":7358,"ĠGJJ":7359,"ĠdHQfGeL":7360,"ĠGdeaV":7361,"ĠMa":7362,"ĠPhj":7363,"ĠJaJ":7364,"OQj":7365,"ĠGdWGhdI":7366,"ĠbGdg":7367,"ĠGdeaQhV":7368,"ĠTgO":7369,"HjhJQ":7370,"ĠYgO":7371,"ĠSQjI":7372,"ĠfSGA":7373,"ĠbGYI":7374,"ĠGSag":7375,"GNTi":7376,"ĠGdaQO":7377,"ĠUYhHI":7378,"QGcGJ":7379,"aGbjGJ":7380,"ĠHLGf":7381,"dhHI":7382,"QD":7383,"ĠGdeUQj":7384,"hajeG":7385,"ĠGdGfJTGQ":7386,"ĠGfSi":7387,"MGaI":7388,"ĠaYGd":7389,"ĠLeGd":7390,"hGdOc":7391,"ĠjJMQc":7392,"fGjI":7393,"ĠGdGSHGH":7394,"ĠeJY":7395,"ĠGdUMQGA":7396,"hgGJ":7397,"ĠGdchGQK":7398,"ĠGdeLG":7399,"ĠaUd":7400,"MHj":7401,"ĠJGjd":7402,"ĠGdeQcRjI":7403,"ĠSjGQJc":7404,"ĠGdGcd":7405,"ĠGdYfGUQ":7406,"ĠGdeJhbY":7407,"ĠGdMGS":7408,"ĠGddGJjfjI":7409,"Gdje":7410,"YOd":7411,"ĠGaYdgG":7412,"ĠGdQhS":7413,"ĠPGgHI":7414,"ĠGQGVj":7415,"ĠMQjI":7416,"ĠMUhd":7417,"ĠjSHb":7418,"ĠMLR":7419,"jaJ":7420,"ĠJbhO":7421,"ĠGdHfGA":7422,"OGe":7423,"ĠjfLM":7424,"ĠaQGfS":7425,"ĠYejd":7426,"ĠfGMjI":7427,"ĠHGdQZe":7428,"hGHW":7429,"GPgHj":7430,"ĠNWhGJ":7431,"ĠfaP":7432,"ĠghjI":7433,"ĠGdfe":7434,"Ġdhf":7435,"ĠLKI":7436,"hbGdJ":7437,"ĠGdWHjYj":7438,"ĠMOKJ":7439,"hHYOgG":7440,"ĠahR":7441,"GFgG":7442,"ĠgPGGde":7443,"ĠHHSGWI":7444,"ĠGdGdJRGeGJ":7445,"ĠHdjR":7446,"ĠcdjI":7447,"hGFjI":7448,"ĠGNQj":7449,"ĠeGTGA":7450,"LeGJ":7451,"ĠddGgJeGe":7452,"ĠffJXQ":7453,"GdGN":7454,"ĠhGSYI":7455,"ĠdeSGYOI":7456,"ĠPcj":7457,"ĠGdeDJeQGJ":7458,"ĠGfh":7459,"ĠhgfGc":7460,"Ġca":7461,"ĠGddGYH":7462,"LfH":7463,"Gage":7464,"ĠGdSeGM":7465,"Ġdjc":7466,"ĠGdPGJj":7467,"ĠGMOce":7468,"Ġhdcffj":7469,"ĠYWdI":7470,"MJj":7471,"ĠQjJTGQO":7472,"OYh":7473,"ĠeKdeG":7474,"ĠGhQGb":7475,"ĠbHjd":7476,"ĠSgdG":7477,"ĠhGdSd":7478,"ĠhRjGOI":7479,"ĠjaYdhf":7480,"ĠGTJQc":7481,"ĠGdJMVjQjI":7482,"ĠGdbfGI":7483,"ĠGQaY":7484,"WHYG":7485,"ĠHGZ":7486,"ĠJMhjd":7487,"ĠQSejG":7488,"ĠOhQJg":7489,"ĠgQH":7490,"ĠbGJ":7491,"ĠGdeLfhf":7492,"ĠJUOjb":7493,"ĠMQGe":7494,"ĠSchJ":7495,"ĠLgI":7496,"ĠbGFdG":7497,"ĠHeLQO":7498,"fGQ":7499,"ĠJUeje":7500,"ĠfbhO":7501,"YeQ":7502,"ĠHJe":7503,"HZ":7504,"jOh":7505,"ĠGdGaJ":7506,"ghd":7507,"ĠHjfge":7508,"ejgG":7509,"ĠGYQH":7510,"ĠLjd":7511,"hMjO":7512,"ĠGdeSDhdjf":7513,"ĠGdeOYj":7514,"VGjb":7515,"ĠGcJTGa":7516,"ĠGHO":7517,"ĠhGLg":7518,"hfR":7519,"ĠjYjThf":7520,"ĠefXeGJ":7521,"ĠcGP":7522,"ĠGdMOjO":7523,"hGh":7524,"ĠLhdI":7525,"Gjecffj":7526,"ĠGdeYGgOGJ":7527,"WjQI":7528,"ĠGdGdJ":7529,"ĠQGJ":7530,"ĠQDjJg":7531,"ĠGddhf":7532,"Ġjhabc":7533,"ĠjYWj":7534,"Ġddj":7535,"ĠQMdJ":7536,"ĠGdShOGA":7537,"VGFY":7538,"ĠdQHeG":7539,"ĠcGedG":7540,"NGf":7541,"ĠjJhLH":7542,"ĠSQYI":7543,"ĠdGMXJ":7544,"ĠeaQ":7545,"ĠGdHTQj":7546,"hdcffj":7547,"ĠaSJ":7548,"MW":7549,"Ġefa":7550,"hdPdc":7551,"TGQjY":7552,"Mfj":7553,"ĠGdMV":7554,"ĠhGYJ":7555,"ĠddeLdS":7556,"QGaj":7557,"ĠhGTfWf":7558,"ĠeYjf":7559,"ĠJHPd":7560,"ĠGdhXjaI":7561,"ĠGdOQGSjI":7562,"GdGS":7563,"GFc":7564,"ĠeHOG":7565,"ĠHbjJ":7566,"ĠcdGfG":7567,"ĠGdehGW":7568,"JMJGL":7569,"fOQ":7570,"ĠhGdKbGajI":7571,"Ndg":7572,"ĠGMQR":7573,"ĠGdLKI":7574,"ĠHJf":7575,"ĠGdSec":7576,"ĠGOi":7577,"ĠecJHj":7578,"ĠHhbJ":7579,"ĠYGL":7580,"WjA":7581,"ĠjLYdfj":7582,"ĠQaj":7583,"ĠNWH":7584,"Qcfj":7585,"Ġddghd":7586,"ĠGdSM":7587,"ĠhcGfg":7588,"hfjI":7589,"ĠhQHj":7590,"ĠSdeGf":7591,"Ġgjc":7592,"fZ":7593,"ĠGdZPGA":7594,"ĠGYJPQ":7595,"ĠTha":7596,"GfGI":7597,"LhA":7598,"ĠGdSgd":7599,"ĠGdjhJjhH":7600,"hZhS":7601,"ĠGHjV":7602,"ĠGdLdO":7603,"ĠddMXI":7604,"Ġejc":7605,"ĠGdcQje":7606,"ĠdJchf":7607,"ĠhGdGJUGdGJ":7608,"ĠGdSGejI":7609,"ĠGjGgG":7610,"ĠecQ":7611,"Qbe":7612,"ĠQhHQJ":7613,"jfeG":7614,"ĠGdGSJbQGQ":7615,"JjGd":7616,"ĠbHj":7617,"ĠhGdOg":7618,"ĠTGfg":7619,"Ġfedc":7620,"UfY":7621,"ĠjOYh":7622,"ZPjI":7623,"YXje":7624,"ĠQYGjI":7625,"SHM":7626,"ĠbGdhG":7627,"ĠKeGfjI":7628,"ĠGdUfGYjI":7629,"ĠGPgHj":7630,"heg":7631,"ĠGdJUOjb":7632,"ĠGdJhajb":7633,"ĠGJNPJ":7634,"ĠjSG":7635,"hGFQ":7636,"ĠYHOGddg":7637,"ĠdGOGQI":7638,"ĠeHGQ":7639,"ĠJOejQ":7640,"Ġheg":7641,"ĠeaJGM":7642,"bSe":7643,"ĠjGe":7644,"ĠThf":7645,"ĠGdeYGedI":7646,"ĠLejdG":7647,"ĠJac":7648,"HhH":7649,"GdGSJ":7650,"ĠeeJGRI":7651,"ĠGdbQjI":7652,"ĠHhUag":7653,"ĠebH":7654,"ĠhGOGQI":7655,"ĠQGjJgG":7656,"ĠdJS":7657,"ĠGdJNWjW":7658,"ĠGdHQGRjd":7659,"Ġede":7660,"ĠGdUGOQ":7661,"LdO":7662,"ĠZGVH":7663,"ĠdGYGOI":7664,"ĠGdGhQGb":7665,"ĠGdZHj":7666,"ĠHGecGffG":7667,"ĠfaYdg":7668,"aGajI":7669,"ĠbfGJj":7670,"ĠJOYh":7671,"ĠGVGaj":7672,"ĠGJQjO":7673,"ĠHQjO":7674,"ĠZGOQJ":7675,"WYe":7676,"ĠHeKGHI":7677,"ĠjYfi":7678,"ĠGdGbJVGA":7679,"ĠGQb":7680,"GNjQG":7681,"ĠJTHg":7682,"ĠGdfLhe":7683,"ĠaGR":7684,"ĠLjQj":7685,"ĠeKdg":7686,"ĠGjbGa":7687,"ĠGdGhfcJGO":7688,"ĠGaJbO":7689,"jGL":7690,"QJH":7691,"ĠGdGhbGJ":7692,"ĠhGdGbJUGO":7693,"ĠaQjO":7694,"ĠGdLfI":7695,"ĠGdSMQ":7696,"ĠGdJHQ":7697,"ĠdOQLI":7698,"ĠGSHGfjG":7699,"ĠHGdGSad":7700,"ĠhGdJQ":7701,"hWf":7702,"GHbj":7703,"ĠHHW":7704,"ĠeJQ":7705,"OjdGJ":7706,"ĠGdNWH":7707,"ĠGjWGdjG":7708,"ĠGdSN":7709,"GgJe":7710,"ĠGdjce":7711,"THGH":7712,"ĠGSYGQ":7713,"ĠjbOQ":7714,"XQI":7715,"ĠGdJMOjGJ":7716,"ĠjYGfj":7717,"ĠGdSjFI":7718,"ĠejOGf":7719,"ĠHJY":7720,"ĠjZjQ":7721,"ĠUZjQG":7722,"ĠSGNP":7723,"QjLj":7724,"ĠJVWdY":7725,"ĠJYjO":7726,"ĠQhe":7727,"ĠGdeQL":7728,"Thf":7729,"ĠJGejf":7730,"ĠddNGQL":7731,"ĠGdZQjH":7732,"ĠeGdjI":7733,"QaJ":7734,"VZW":7735,"ĠeQGLYI":7736,"ĠGdfLGM":7737,"ĠcGQJ":7738,"LOhd":7739,"ĠhHG":7740,"ĠMOI":7741,"ĠGdNWQ":7742,"ĠGdJhGUd":7743,"jGQH":7744,"ĠGSJQ":7745,"ĠSQGM":7746,"ĠJZGOQ":7747,"ĠHhJ":7748,"WjQ":7749,"eGQS":7750,"ĠYedfG":7751,"ĠjSJeQ":7752,"QGN":7753,"ĠJMOjOG":7754,"ĠMUdfG":7755,"QjGV":7756,"eGe":7757,"gjI":7758,"hdhLj":7759,"JR":7760,"ĠdGfge":7761,"ĠGdhRGQj":7762,"ĠGeg":7763,"ĠGTcQc":7764,"ĠgGd":7765,"ĠeHJ":7766,"ĠGdQMef":7767,"ĠJQMH":7768,"ĠeMGe":7769,"ĠGdRaGa":7770,"ĠJQJOj":7771,"ĠJJfGhd":7772,"ĠgjQ":7773,"hjjf":7774,"ĠGdeNd":7775,"ĠGdGNVQ":7776,"ĠbVGA":7777,"ĠGYWjJ":7778,"ĠddGL":7779,"gjg":7780,"ZHI":7781,"OGc":7782,"YGbH":7783,"ĠGdfS":7784,"bQj":7785,"YQaJ":7786,"ĠGdYGUeI":7787,"ĠGdaQYj":7788,"ĠJba":7789,"JMQc":7790,"ĠNGQLG":7791,"ĠdGfJ":7792,"ĠGdGadGe":7793,"SGNP":7794,"GgOG":7795,"ĠGdUj":7796,"ĠGLdg":7797,"ĠddGejf":7798,"ĠJDKQ":7799,"dgG":7800,"PjQ":7801,"ĠOaYI":7802,"TW":7803,"ĠGdeHGTQ":7804,"ĠajUd":7805,"ĠhjSJ":7806,"JHOjf":7807,"ĠGdeaGhVGJ":7808,"ĠJhbjY":7809,"ĠdGMb":7810,"ĠcPHJ":7811,"GQjG":7812,"ĠQGjJc":7813,"gGcGJ":7814,"ĠcQjS":7815,"ĠGdXgQ":7816,"ĠehGab":7817,"HjYI":7818,"ĠYGgQI":7819,"Ġfcf":7820,"Ġdjdj":7821,"ĠePgd":7822,"ĠjcJH":7823,"gGc":7824,"ĠebOe":7825,"ĠhJc":7826,"TGd":7827,"Pa":7828,"Ġhdcfc":7829,"ĠJfSi":7830,"ĠGdYG":7831,"ĠGdGMJjGW":7832,"ĠGdSfhjI":7833,"GHbi":7834,"ĠGMOK":7835,"ĠGdLeghQ":7836,"ĠHMGdI":7837,"GQgG":7838,"ĠeNOQGJ":7839,"ĠOjc":7840,"ĠecGfG":7841,"ĠjcQg":7842,"ĠJGL":7843,"ĠLOjOG":7844,"ĠgGL":7845,"ĠhaQ":7846,"gdGc":7847,"Hcd":7848,"ĠGdUaMI":7849,"ĠGOdI":7850,"HcGJ":7851,"ĠGMjGA":7852,"ĠHGT":7853,"ĠGdGNJj":7854,"ĠgLhe":7855,"ĠJSJeY":7856,"hGOK":7857,"ĠQeVGf":7858,"LYdc":7859,"ĠNUhUG":7860,"GJQi":7861,"ĠGdTGWF":7862,"GfSI":7863,"ĠdGa":7864,"ĠGRGdI":7865,"JjGf":7866,"ĠcTa":7867,"ĠGfJbd":7868,"ĠfWGdH":7869,"ĠShQjG":7870,"ĠGYXe":7871,"bhf":7872,"ĠGdeYQcI":7873,"ĠGdaQfSj":7874,"SHG":7875,"ĠbHhd":7876,"MJjGLGJ":7877,"ĠJdeS":7878,"ĠTGed":7879,"ĠXghQ":7880,"ĠGdefUhU":7881,"Ġhab":7882,"ĠjMVQ":7883,"ĠeDQNI":7884,"ĠGJHGY":7885,"KGfjG":7886,"hSd":7887,"ĠNjQG":7888,"ĠcfJj":7889,"HhG":7890,"ĠGdbWQjI":7891,"LRI":7892,"ĠHGdfXQ":7893,"Gddj":7894,"bGb":7895,"ĠGdeWGdHGJ":7896,"ĠhSd":7897,"ĠGefI":7898,"ĠcPH":7899,"ĠeMbG":7900,"ĠGdJgOjO":7901,"GJYQajf":7902,"ĠGdQjajI":7903,"ĠGdjf":7904,"ĠGZQGV":7905,"ĠGfgeG":7906,"ĠGSJGP":7907,"ĠGSGSj":7908,"ĠNWj":7909,"ĠhLHI":7910,"ĠbGOQG":7911,"ĠPGdc":7912,"hhO":7913,"bYI":7914,"ĠPcQJ":7915,"ĠeLJeY":7916,"geGJ":7917,"GHOG":7918,"ĠhMjOG":7919,"HQO":7920,"ĠGdMQGQI":7921,"ĠhGfJe":7922,"ĠTQcGJ":7923,"ĠeQhQ":7924,"jSjG":7925,"QGFb":7926,"ĠGYLH":7927,"ĠgjFGJ":7928,"ĠJPgHj":7929,"ĠGdSjGb":7930,"ĠNGdO":7931,"ĠJSde":7932,"bUi":7933,"ĠaeG":7934,"QGYjI":7935,"hcGdGJ":7936,"ĠjQLY":7937,"HGddg":7938,"ĠSQbJ":7939,"Qajf":7940,"ĠjaS":7941,"ĠGJecf":7942,"ĠdGLdc":7943,"jajG":7944,"ĠGYWGA":7945,"QGejI":7946,"ĠGdGSJeQGQ":7947,"ĠHQL":7948,"ĠSGbhd":7949,"ĠJhej":7950,"QGej":7951,"ĠddGO":7952,"ejQ":7953,"ĠGdJGejf":7954,"ĠMSGHGJ":7955,"ĠGdeSJTGQ":7956,"ĠGdbQGf":7957,"ĠYGdej":7958,"afOb":7959,"GfZ":7960,"ĠUOjbJj":7961,"Ġjecfce":7962,"ĠhMjO":7963,"ĠGdeWGdHI":7964,"ĠMjGJgG":7965,"ĠWHjYjI":7966,"ĠJYGdi":7967,"DOj":7968,"ĠGdjhfjSja":7969,"ĠJge":7970,"ĠGdSGHY":7971,"ĠMGQ":7972,"ĠGdHjGf":7973,"HhW":7974,"ĠGdcdGH":7975,"ĠeQjM":7976,"ĠGdeDS":7977,"XQi":7978,"ĠdGT":7979,"ĠhGdR":7980,"ĠhGU":7981,"ĠJbj":7982,"ĠHTGfgG":7983,"ĠTQhW":7984,"ĠZGe":7985,"ĠUOQ":7986,"dHS":7987,"ĠGdcdjI":7988,"ĠGdRj":7989,"ĠGdedMb":7990,"ĠJLdS":7991,"ĠGdeaVdI":7992,"KQjf":7993,"ĠdJfGhd":7994,"ĠLQj":7995,"ĠUdj":7996,"ĠJjehQ":7997,"ĠhaGI":7998,"ĠJaSjQ":7999,"ĠGdgLQI":8000,"RGH":8001,"ĠGdfgGFjI":8002,"ĠMjI":8003,"YPQG":8004,"ĠQGe":8005,"ĠQHfG":8006,"ĠSYhOj":8007,"ĠGdGSQGFjdj":8008,"ĠGUObGFc":8009,"hdeGPG":8010,"dOjgG":8011,"ĠHGdefRd":8012,"ĠGdHGd":8013,"YhH":8014,"ĠRjGQI":8015,"GdSHH":8016,"ĠJNHQjfj":8017,"ĠGdGhdjI":8018,"ĠGMHHJ":8019,"ĠGdePchQI":8020,"ĠGdVeGf":8021,"Ndc":8022,"Od":8023,"GWQI":8024,"ĠdeDJeQ":8025,"OhL":8026,"TGhQ":8027,"ĠWjdI":8028,"SJG":8029,"ĠjJZjQ":8030,"ĠGdZGA":8031,"LjI":8032,"ĠGNQGL":8033,"ĠGUZQ":8034,"fRd":8035,"dMXI":8036,"ĠGdbGA":8037,"ĠGdfWGb":8038,"ĠeHGdZ":8039,"ĠGdMLe":8040,"ĠGdbS":8041,"ĠhGdGH":8042,"eecf":8043,"ĠGdYVhjI":8044,"ĠJYj":8045,"OGjG":8046,"ĠGdJfaS":8047,"LGgd":8048,"hceG":8049,"fJGLGJ":8050,"QK":8051,"fGbTI":8052,"ĠGTHg":8053,"ĠbGQ":8054,"ĠLejdg":8055,"ĠGNJai":8056,"ĠJhUj":8057,"ĠGdeNGWQ":8058,"aYGdjI":8059,"YeGQ":8060,"ĠejGg":8061,"ĠhdbO":8062,"ĠQhSjG":8063,"ĠGYGO":8064,"ĠGdGQbGe":8065,"hOY":8066,"ĠhGUd":8067,"ĠGdHhGHI":8068,"ĠHGdONhd":8069,"ĠGfLdhS":8070,"hJjhHQ":8071,"ĠMPQG":8072,"ĠGdSfhj":8073,"Gffi":8074,"ĠeMehO":8075,"ĠGdeLJeYGJ":8076,"ĠjhGLg":8077,"ĠTYHI":8078,"ĠefWb":8079,"ĠGdKe":8080,"ĠSjGJj":8081,"ĠGdedcI":8082,"ĠGdeJNP":8083,"ĠGJHY":8084,"ĠbUU":8085,"GHMK":8086,"ĠGdMbjHI":8087,"ĠGdeYOGJ":8088,"hcG":8089,"ĠdJMSjf":8090,"ĠJSdje":8091,"ĠOGa":8092,"ĠGUObGF":8093,"ĠhGdOJj":8094,"hGjI":8095,"ĠGdSfjf":8096,"NSQ":8097,"ĠfLhe":8098,"bGYOI":8099,"Ġdjchf":8100,"ĠGdaY":8101,"ĠGSJQGdjG":8102,"ĠeYQV":8103,"ĠadSWjf":8104,"Lejd":8105,"ĠGOfGg":8106,"ĠGdLfhO":8107,"aa":8108,"ĠhGabJ":8109,"QHc":8110,"ĠGdYOh":8111,"ĠReGf":8112,"TGcd":8113,"ĠGdGZQGV":8114,"ĠGei":8115,"Ġac":8116,"UfI":8117,"ĠhjT":8118,"adG":8119,"ĠeJLQ":8120,"ĠGSJfGOG":8121,"ĠddNWQ":8122,"ĠLeGY":8123,"hjT":8124,"OYjfG":8125,"MfG":8126,"ĠGcjO":8127,"ĠQhO":8128,"ĠeaJhMI":8129,"ĠTGHg":8130,"ĠGdcGejQG":8131,"ĠGddjdg":8132,"ĠjdG":8133,"ĠeOQjO":8134,"ĠGdSdY":8135,"ĠGdeUQa":8136,"GYH":8137,"ĠecGdeI":8138,"ĠGfOj":8139,"ĠMSG":8140,"heHjG":8141,"ĠGdUhe":8142,"LQH":8143,"ĠGdOSJhQ":8144,"ĠhGdeDSSGJ":8145,"ĠLjS":8146,"FP":8147,"ĠMGOKI":8148,"ĠeSJbH":8149,"hGRf":8150,"ĠHGSJWG":8151,"ĠddMO":8152,"ĠGacGQ":8153,"ĠGdVQQ":8154,"ĠGdhL":8155,"ĠjeJdc":8156,"ĠeZdbI":8157,"ĠGdaf":8158,"ĠWadI":8159,"ĠJUhjQ":8160,"ĠMchejI":8161,"ĠGdfHjP":8162,"ĠHYVgG":8163,"ĠJQcjG":8164,"ĠGdbOhe":8165,"ĠaSha":8166,"ecGf":8167,"ĠGhb":8168,"ĠGONGd":8169,"ĠJGe":8170,"ĠGOhGJ":8171,"ĠGdWa":8172,"ĠjaJ":8173,"SfG":8174,"SjW":8175,"ĠcJHJ":8176,"bgG":8177,"ĠGdLHd":8178,"ĠRhLgG":8179,"GQHYI":8180,"ĠdhbJ":8181,"Ġhcja":8182,"ĠGdGSeGc":8183,"ĠLRjQI":8184,"ĠhGdHdOGf":8185,"ĠGWdbJ":8186,"YJfG":8187,"ĠJShjI":8188,"ĠGdaVGFjI":8189,"ĠjJHY":8190,"cdeG":8191,"GQJc":8192,"ĠdGNP":8193,"jfJ":8194,"ĠGdbjeI":8195,"Sjg":8196,"OjKI":8197,"ĠaXjY":8198,"QFjS":8199,"ĠGdJUOj":8200,"ĠGdOhGA":8201,"ĠhSf":8202,"ĠJhbaj":8203,"ĠHbQGQ":8204,"ĠdeSJ":8205,"ĠWGQ":8206,"ĠJecfJ":8207,"ĠbWQ":8208,"ĠGdSdhc":8209,"ĠGdGVGajI":8210,"ĠjJhbY":8211,"ĠhGcKQ":8212,"ĠhQHeG":8213,"ĠGdHfGJ":8214,"Ġehb":8215,"ĠGdcJQ":8216,"ĠhHYV":8217,"fjGJ":8218,"ĠGdGLGHI":8219,"Def":8220,"ĠhLejY":8221,"ĠbOQg":8222,"ĠGdeQjV":8223,"ĠJgOjO":8224,"ĠeeJY":8225,"ĠMbjbjG":8226,"ĠSJYhO":8227,"hPdc":8228,"ĠGdGfJbGd":8229,"ĠGdMSGH":8230,"ĠHQa":8231,"ĠWGd":8232,"ĠefNaV":8233,"ĠGdeUdMI":8234,"ĠSjc":8235,"ĠjZGOQ":8236,"ĠMbjHI":8237,"ĠGdeQGbH":8238,"ĠGdGQhGM":8239,"VWQ":8240,"JUGH":8241,"ĠhdJ":8242,"UaI":8243,"ĠGdGeHQGW":8244,"ĠNQhL":8245,"ĠJhfj":8246,"ĠGdYfhGf":8247,"ĠGdThGQY":8248,"ĠYGU":8249,"ĠGdPcQ":8250,"ĠHGdGM":8251,"bhW":8252,"ĠNSQ":8253,"dY":8254,"ĠHGdGecGf":8255,"ĠGdONd":8256,"Ġbhe":8257,"ĠGLH":8258,"ĠTYQc":8259,"ĠSYhO":8260,"ĠGdbWQj":8261,"ĠGdTOjO":8262,"hGdPj":8263,"ĠYhOI":8264,"hQf":8265,"Li":8266,"QOO":8267,"ĠcGfG":8268,"ĠjdJ":8269,"ĠGdgQH":8270,"ĠGUhGJ":8271,"ĠYGj":8272,"QGQG":8273,"GedGJ":8274,"ĠNaV":8275,"Khb":8276,"GddjdI":8277,"ĠGdMVhQ":8278,"MXg":8279,"ĠJSdj":8280,"Ghba":8281,"ĠeTGhQGJ":8282,"YhQ":8283,"ĠbQGAI":8284,"hJf":8285,"ĠhLH":8286,"ĠGdGeJKGd":8287,"ĠGdHOA":8288,"JI":8289,"SGJUd":8290,"cJhQI":8291,"ĠeTGYQ":8292,"dcjI":8293,"ĠGSQ":8294,"ĠGMHgG":8295,"JeI":8296,"ĠML":8297,"ĠHGdMbhb":8298,"ĠJcJ":8299,"ĠSjUHM":8300,"ĠGdTQGcI":8301,"ĠhjfHZj":8302,"ĠGdcGQjHj":8303,"ĠjeJ":8304,"ĠeSd":8305,"ĠjfU":8306,"ĠSfbhe":8307,"ĠJhd":8308,"Phb":8309,"ĠjDKQ":8310,"bV":8311,"ĠGdScQ":8312,"ĠGdejJ":8313,"eYj":8314,"ĠddHMK":8315,"ĠcGajG":8316,"GfJJ":8317,"ĠZHjI":8318,"ĠGdGQOf":8319,"GNHQjfj":8320,"hQfjG":8321,"ĠGQMd":8322,"ĠGdeMGceI":8323,"eMeO":8324,"ĠJcQ":8325,"ĠGdGOhjI":8326,"GfJeG":8327,"ĠGdegfOSjf":8328,"ĠGdJMbb":8329,"GJjI":8330,"ĠYQHj":8331,"ĠQajb":8332,"ĠNGFaG":8333,"ĠeYL":8334,"ĠOh":8335,"GQSd":8336,"ĠSGYg":8337,"ĠcGde":8338,"hMG":8339,"ĠeJT":8340,"ĠGdGacGQ":8341,"ĠThj":8342,"Zdb":8343,"ĠGLRGA":8344,"ĠbQjI":8345,"ĠGddLhA":8346,"ĠGdfGMjI":8347,"ĠhfUa":8348,"OGhd":8349,"ĠQSej":8350,"ĠGdNejS":8351,"ĠJfaP":8352,"bUO":8353,"ĠddhUhd":8354,"ĠJYWjfj":8355,"ĠGdTQa":8356,"ĠGcS":8357,"ZjH":8358,"ĠJcai":8359,"ĠGdeMOO":8360,"ĠGaJQV":8361,"ĠGfUM":8362,"ĠSQjYI":8363,"hje":8364,"Wad":8365,"ĠKGeQ":8366,"ĠeGOI":8367,"ĠJRjO":8368,"ĠhJQc":8369,"ĠHfGJ":8370,"ĠajjfG":8371,"ĠHGA":8372,"ĠGdbhej":8373,"ĠGdGeGQGJ":8374,"QbI":8375,"ĠGdLeGYI":8376,"Rhf":8377,"GYPQ":8378,"ĠaYdfG":8379,"ehdI":8380,"ĠGSgd":8381,"ĠeJc":8382,"Sch":8383,"ĠGdeTQhYI":8384,"ĠjQSd":8385,"ĠdeYGdLI":8386,"heGJ":8387,"SGM":8388,"ĠTOjOI":8389,"ĠQFjSjI":8390,"ĠGSJYGOI":8391,"ĠGdcGaj":8392,"NPj":8393,"GehQ":8394,"ĠHGdGL":8395,"ĠGdcPH":8396,"ĠhLeghQjI":8397,"YV":8398,"ĠGdGQVjI":8399,"QjGA":8400,"YHO":8401,"ĠGdgOhA":8402,"ĠGZdGb":8403,"JHI":8404,"ĠYLhR":8405,"ĠGdHWG":8406,"ĠGdWhjd":8407,"ĠHGdfjGHI":8408,"ahb":8409,"ĠcdjQ":8410,"OfG":8411,"ĠGdTbI":8412,"ĠOhQGJ":8413,"JeJ":8414,"ĠJYdeJ":8415,"ĠdGR":8416,"ĠhYfOeG":8417,"GTJ":8418,"ĠhJhajQ":8419,"ĠPGJgG":8420,"ĠGdfgGQ":8421,"ĠGdGSJaGOI":8422,"ĠLhj":8423,"GNj":8424,"Ġddfhe":8425,"ĠdhdG":8426,"Wi":8427,"ĠhMjOI":8428,"ZhW":8429,"ĠYbOJ":8430,"ĠJVef":8431,"MGK":8432,"ĠZGR":8433,"ĠSjSJ":8434,"ĠHGdJRGe":8435,"ĠbQjHI":8436,"ĠJMHjf":8437,"ĠddHjFI":8438,"ĠfGF":8439,"ĠhGJhH":8440,"ĠGdfhG":8441,"UjO":8442,"ĠMeGe":8443,"ĠGdKef":8444,"ĠebHhd":8445,"ĠGdGjQ":8446,"ĠGShA":8447,"NUI":8448,"ĠGdGYOGe":8449,"GYOG":8450,"ĠJQjOhf":8451,"HdG":8452,"cda":8453,"ĠGOj":8454,"ĠGdNWhGJ":8455,"ĠdJJ":8456,"ĠGRYGL":8457,"YbH":8458,"ĠGhGeQ":8459,"ĠHGdJYjjf":8460,"Sdd":8461,"ĠGcPH":8462,"ĠGdbGQH":8463,"ĠGdSjOGJ":8464,"ĠeTcdJc":8465,"ĠGdGSQGFjd":8466,"ĠQSGFd":8467,"ĠNSQJ":8468,"ĠJYbH":8469,"ĠGdQSGFd":8470,"ĠhHGdJGdj":8471,"ĠYGOJ":8472,"hGMOI":8473,"ĠJMOj":8474,"hbjJ":8475,"ĠQZH":8476,"SjG":8477,"ĠddJYGhf":8478,"ĠGdQGgf":8479,"ĠGdeYQaI":8480,"HQHc":8481,"ĠHYOeG":8482,"ĠagO":8483,"ĠddWGbI":8484,"ĠHGdg":8485,"MGV":8486,"ĠYGdj":8487,"ĠGdeJhSW":8488,"ĠGdeeJ":8489,"Dc":8490,"ĠhdOJ":8491,"TFI":8492,"GHjf":8493,"ĠQFjSj":8494,"ĠGdeYjT":8495,"bHI":8496,"ĠGdjGH":8497,"ĠSdGeI":8498,"WdI":8499,"ĠGdGNJHGQ":8500,"ĠjQL":8501,"ĠGeGfI":8502,"ĠGdajOQGdjI":8503,"GdTQWI":8504,"ĠYVhG":8505,"ĠjMHhf":8506,"hcfJ":8507,"ĠGffJ":8508,"ĠJLjH":8509,"ĠGhLg":8510,"ĠHeGPG":8511,"hGbH":8512,"ĠeQjVI":8513,"ajdO":8514,"ĠGdeMJdI":8515,"SjOJj":8516,"ĠSGYJjf":8517,"ĠafMf":8518,"ĠGdJYdjb":8519,"ĠfYjT":8520,"ĠeMOO":8521,"ĠhGSJNOGe":8522,"ĠGdGSdGej":8523,"ĠGdbGFe":8524,"ĠaTd":8525,"ĠGdcGe":8526,"MHjH":8527,"ĠGdGSQGFjdjI":8528,"ĠGdKdGKGA":8529,"ĠeQGbH":8530,"ĠLGS":8531,"ĠJOYe":8532,"ĠGdJGcO":8533,"ĠJSeYfj":8534,"ĠGMeQ":8535,"ĠchcH":8536,"hRGf":8537,"ĠLhGfH":8538,"Meg":8539,"ĠGdcgQHGA":8540,"WJ":8541,"hGLgI":8542,"fJc":8543,"hGTGQ":8544,"ĠGdGShGb":8545,"ĠGdcMhd":8546,"ĠGdGfJgGA":8547,"ĠGefG":8548,"ĠjOhQ":8549,"aMU":8550,"ĠJGNQJ":8551,"ĠHGMO":8552,"ĠGdGNJjGQj":8553,"OJce":8554,"GdTNU":8555,"ĠhGVMG":8556,"ĠJUO":8557,"Ġhjc":8558,"ĠGdedjhf":8559,"ĠhjLH":8560,"ĠcJGHI":8561,"ĠPGgHhf":8562,"GNjQ":8563,"ĠGdJTZjd":8564,"ĠGQGA":8565,"hGfOG":8566,"ĠHhHj":8567,"ĠGdfghV":8568,"hcGdI":8569,"ĠeSdSd":8570,"ĠGddHf":8571,"ĠeDNQJc":8572,"dGffG":8573,"ĠGdeZGOQI":8574,"ĠShd":8575,"GcS":8576,"ĠJMOO":8577,"ĠeYQcI":8578,"ĠHGdeQGI":8579,"SGFW":8580,",.":8581,"ĠGOGI":8582,"YedjI":8583,"GdYGde":8584,"ĠGdLfhHjI":8585,"ĠGdaQfSjI":8586,"ĠGdGfJHGg":8587,"ĠJaJM":8588,"ĠdGLQGA":8589,"ĠGUjH":8590,"QGVj":8591,"ĠJaGUjd":8592,"ĠTgGOI":8593,"ĠeQab":8594,"ĠSJGf":8595,"ĠTHg":8596,"hHGd":8597,"ĠGdYGW":8598,"ĠJQLY":8599,"ĠKQ":8600,"ĠNWGH":8601,"ĠSfO":8602,"ĠGdGSJLGHI":8603,"ĠGdSYGOI":8604,"ĠGSJY":8605,"ĠJOYi":8606,"ĠeTGY":8607,"ĠXf":8608,"ScY":8609,"ĠHMGL":8610,"ĠbejU":8611,"cdfG":8612,"aQjb":8613,"ĠbdhH":8614,"WGFQ":8615,"ĠGdGZPjI":8616,"ĠGdYfUQjI":8617,"cTGa":8618,"ĠGdeWdhHI":8619,"hHjG":8620,"hQgG":8621,"ĠGMJaX":8622,"WYGe":8623,"ĠGYJeOJ":8624,"ĠGdSWM":8625,"ĠdhMI":8626,"ĠGdGbJQGM":8627,"ĠGgO":8628,"LOjO":8629,"ĠGdGhdj":8630,"ĠSQjQ":8631,"ĠLQG":8632,"ĠJeKjd":8633,"ĠGdhbha":8634,"GaJQV":8635,"ĠHGdJMOjO":8636,"Jhbaj":8637,"ĠGYdf":8638,"ĠJTQj":8639,"ĠGdWHjYI":8640,"ĠhGKbI":8641,"ĠUjGZI":8642,"ĠebGWYI":8643,"Ndb":8644,"GdPjf":8645,"GYJPQ":8646,"ĠGdGUdjjf":8647,"ĠJNajV":8648,"ĠfdJ":8649,"ĠjSJWjYhf":8650,"bf":8651,"ĠGdJONd":8652,"ĠeYQhaG":8653,"ĠGdeMe":8654,"Ggj":8655,"Ġhcjd":8656,"Naja":8657,"ĠGdfUa":8658,"ĠOYjfj":8659,"ĠhYe":8660,"ĠaVdce":8661,"ĠjQJOj":8662,"ĠOhdj":8663,"ĠGdGKQ":8664,"ĠJYQahf":8665,"ĠddeJ":8666,"ĠGHhc":8667,"ĠGdJhUjI":8668,"GeQI":8669,"Ki":8670,"ĠJTLY":8671,"ĠJLQH":8672,"ĠGdMbjQ":8673,"ĠWQ":8674,"hSfI":8675,"ĠHGSJeQGQ":8676,"GQLY":8677,"ĠGdLOGQ":8678,"ĠGdGQgGHjI":8679,"ĠGdWGFQGJ":8680,"Vehf":8681,"ĠGdeJbOeI":8682,"UhJ":8683,"ĠjcPH":8684,"Ġfhe":8685,"ĠJMjW":8686,"ĠdLYd":8687,"Rjd":8688,"ĠYKQ":8689,"ĠJPc":8690,"ĠYcS":8691,"GeSc":8692,"hGYJbO":8693,"ĠSdG":8694,"ĠGdfXe":8695,"ĠGdRQ":8696,"ĠGdZQH":8697,"dJfG":8698,"ĠVGHW":8699,"ĠTZd":8700,"ĠGdHc":8701,"GjVG":8702,"ĠGQVG":8703,"ĠGfVe":8704,"ĠGdeYgO":8705,"ĠJeJdc":8706,"ĠGdYXei":8707,"ĠTbjb":8708,"ĠGdeOI":8709,"ĠJchfjf":8710,"ĠPg":8711,"ĠGdfTGW":8712,"ĠUjO":8713,"TM":8714,"ĠOGFe":8715,"ĠabOGf":8716,"ĠJTGgO":8717,"ĠddbVGA":8718,"YOGJ":8719,"ĠeeKdj":8720,"GQSGd":8721,"hGQjN":8722,"ĠhfYe":8723,"LGd":8724,"ĠdbJd":8725,"jGcd":8726,"ĠjDcO":8727,"fJg":8728,"dOjge":8729,"ĠLdO":8730,"ĠGdGdajI":8731,"YT":8732,"ĠJQcjR":8733,"aaj":8734,"XI":8735,"ĠfbO":8736,"ĠObj":8737,"eYPQI":8738,"ĠKd":8739,"ĠedjFI":8740,"ĠcQg":8741,"ĠGdGQgGHj":8742,"Ġjhf":8743,"ĠGbOGe":8744,"Ggh":8745,"ĠRYje":8746,"ĠGdUO":8747,"ĠGdehGba":8748,"ĠgGJac":8749,"ĠbS":8750,"ĠddJMOK":8751,"ĠjHOhG":8752,"ĠhQb":8753,"ĠXgQJ":8754,"ĠGdgGeI":8755,"ĠhGh":8756,"ĠGdeJNPI":8757,"ghf":8758,"ĠGdeKd":8759,"ĠbhGFe":8760,"fOjI":8761,"ĠdQDjJc":8762,"ĠGdeQGJ":8763,"ĠJheGS":8764,"Ub":8765,"ĠjbUO":8766,"ĠddeGOI":8767,"cJGH":8768,"ĠGdGHJOG":8769,"VGLY":8770,"ĠHGdeNOQGJ":8771,"ĠGadGe":8772,"ĠGdQMH":8773,"FGH":8774,"GSeg":8775,"ĠTGP":8776,"ĠGdgfOSI":8777,"ĠGSGYO":8778,"hGVGa":8779,"ĠGdObjbI":8780,"SJg":8781,"ĠHGdTQWI":8782,"ĠMdbGJ":8783,"ĠJYQja":8784,"ĠddeMceI":8785,"ĠGdeSGgeI":8786,"ĠGdjejf":8787,"ĠGSJeJY":8788,"ĠGdhMT":8789,"ĠdjdG":8790,"ĠGdScf":8791,"ĠGdGVWdGY":8792,"ĠGdehYO":8793,"hQHeG":8794,"ĠGdMeQGA":8795,"adj":8796,"ĠdefXeI":8797,"ĠGdeQVi":8798,"ĠddGQ":8799,"ĠhGdeSJ":8800,"ĠGdUabI":8801,"bS":8802,"HYK":8803,"fJXQ":8804,"ĠhJMSjf":8805,"HGQj":8806,"ĠTQH":8807,"ĠSHY":8808,"eKdI":8809,"ĠGdhaGA":8810,"ĠcgQ":8811,"ĠJTGQc":8812,"ĠGdGWHGA":8813,"ĠcGaj":8814,"GHYO":8815,"ĠGdGhGeQ":8816,"ĠGjeG":8817,"GfJHg":8818,"GeH":8819,"Ġch":8820,"ĠGDef":8821,"ĠGdeSJMjd":8822,"ĠhGfeG":8823,"ĠGdGJMGOjI":8824,"ĠGdGecGf":8825,"ĠhGjVG":8826,"ĠhHGd":8827,"ZhG":8828,"ĠGdefGaSI":8829,"ĠGdHYKGJ":8830,"hdeI":8831,"ĠOYG":8832,"ĠGWdGbG":8833,"ĠGdLZ":8834,"ĠGdUY":8835,"hMJi":8836,"ĠHQD":8837,"ĠebJQM":8838,"ĠJcad":8839,"hjH":8840,"ĠecS":8841,"ĠLg":8842,"ĠVQhQj":8843,"ĠjbQQ":8844,"ĠjKjQ":8845,"ĠGdcgQHG":8846,"ĠGdGSJeGY":8847,"ĠGdedGRe":8848,"gfI":8849,"ĠGdLhj":8850,"ĠJfS":8851,"WGYe":8852,"LGA":8853,"ĠGdGMJaGX":8854,"ĠLGQ":8855,"TGJ":8856,"ĠGeQjcj":8857,"ĠSjQGdjhf":8858,"Ġahd":8859,"ĠGdeYde":8860,"hbjf":8861,"ĠeaGLGI":8862,"ĠMjhGf":8863,"ĠdHfGA":8864,"ĠGdHfJ":8865,"ahR":8866,"eJj":8867,"ĠHLhGQ":8868,"TjT":8869,"SGNHQc":8870,"ĠJYfjf":8871,"ĠhGdGT":8872,"ĠGOeGL":8873,"ĠjSjQ":8874,"ĠSLdGJ":8875,"ĠedGHSc":8876,"ĠGdeTJHg":8877,"MjfeG":8878,"ĠOeGZ":8879,"hjdI":8880,"ĠGdeHGOQGJ":8881,"ĠGdQjGVjI":8882,"ĠajQ":8883,"ĠdGfbGP":8884,"ĠLGAJ":8885,"ĠJbQG":8886,"LOQ":8887,"ĠGdGHdGZ":8888,"ĠGdeeJdcGJ":8889,"ĠGdajQhS":8890,"Ġhdc":8891,"ĠeYde":8892,"faW":8893,"ĠjSeY":8894,"QJjH":8895,"Gjd":8896,"eYc":8897,"ĠTGMfI":8898,"ĠGdbOS":8899,"ĠJHGQc":8900,"ĠGdNdaj":8901,"ĠGdehGVjY":8902,"ĠGfJgjfG":8903,"ĠhGdj":8904,"ĠGdUGOQI":8905,"ĠGQJOj":8906,"ĠaNhQ":8907,"ĠZjH":8908,"ĠGdecGJH":8909,"cdGe":8910,"ĠGTQH":8911,"ĠJTcjd":8912,"Gdjjf":8913,"ZQH":8914,"aQGfc":8915,"JO":8916,"ĠdecGf":8917,"ĠJhdj":8918,"ĠGdGfLGR":8919,"ĠGdeOi":8920,"ĠHjFI":8921,"ĠdJMOjO":8922,"ĠbUjQ":8923,"ĠGdMLR":8924,"ĠdGeQ":8925,"UQI":8926,"ĠGhVM":8927,"ĠdR":8928,"ĠhHQGeL":8929,"ĠdhMOj":8930,"ĠLQGA":8931,"Ġchc":8932,"ĠYQG":8933,"ĠGdSjGQg":8934,"ĠhGdGa":8935,"fGW":8936,"ĠWHjYI":8937,"ĠMGdeG":8938,"fGSH":8939,"aGQ":8940,"ĠJejjR":8941,"Dg":8942,"ĠGdaGQ":8943,"ĠYGLd":8944,"ĠGdGHhGH":8945,"ĠhbJgG":8946,"ĠGTJQGc":8947,"GOdI":8948,"ĠGdGeGf":8949,"ĠJYbO":8950,"ĠMSjf":8951,"ĠHGPf":8952,"ĠhGdgQ":8953,"ĠGdMchej":8954,"YfOgG":8955,"GfJgi":8956,"ĠGNTi":8957,"ĠGdYdhj":8958,"ĠhOYe":8959,"ĠGSJNOGegG":8960,"ĠGOdi":8961,"ĠfhG":8962,"edJ":8963,"ĠfJcde":8964,"GdMbjbI":8965,"OYg":8966,"ĠehLhOG":8967,"aGM":8968,"Medg":8969,"ĠJhSjY":8970,"GJage":8971,"ĠhGdGbJUGOjI":8972,"ĠjSGd":8973,"MGce":8974,"ĠfLMJ":8975,"dbI":8976,"ĠGdeGS":8977,"GZdb":8978,"ĠHOGfG":8979,"ĠOGj":8980,"ĠHR":8981,"ĠQHW":8982,"ĠGdeSJhjGJ":8983,"ĠGdOYhI":8984,"ĠJcJH":8985,"aJgG":8986,"ĠGdJYQa":8987,"hLj":8988,"ĠHGdeSJ":8989,"SGAI":8990,"ĠhJb":8991,"ĠGdNJGejI":8992,"JeGeG":8993,"agh":8994,"ĠjGNj":8995,"ĠUfYJ":8996,"ĠfVY":8997,"hMT":8998,"ĠGdJMQc":8999,"ĠGdMGOK":9000,"ĠdGd":9001,"ĠQLGAG":9002,"ĠddfXQ":9003,"ĠHbO":9004,"ĠGfJi":9005,"ĠVQHI":9006,"ĠGdJGcjO":9007,"ĠMedI":9008,"ĠGdfabGJ":9009,"hKGFb":9010,"ĠjhSa":9011,"GONd":9012,"GZh":9013,"GdSJ":9014,"OhfjSjG":9015,"ĠGdLgI":9016,"ĠHMQjI":9017,"ĠJDef":9018,"hYdGhI":9019,"ĠGdUchc":9020,"hXaj":9021,"ĠOaYJ":9022,"ĠcGHJf":9023,"hOjf":9024,"UW":9025,"ĠGdJYHjQ":9026,"ĠGdOjhf":9027,"fGR":9028,"ĠJQSd":9029,"ĠTbI":9030,"Ġdchf":9031,"ĠGdGSJNHGQGJ":9032,"QGQGJ":9033,"ĠJdh":9034,"ĠSJGJj":9035,"ĠGdehGWfjf":9036,"ĠGdGOGQj":9037,"ĠcGjd":9038,"LhGH":9039,"ĠGdNV":9040,"ĠMVQI":9041,"QGJjLj":9042,"ĠjKHJ":9043,"gOGa":9044,"ĠJYQVJ":9045,"ĠMVhQ":9046,"ĠGdeQA":9047,"hPcQ":9048,"ĠedM":9049,"aQj":9050,"TcGd":9051,"HbjI":9052,"ĠJTGQdR":9053,"GSQY":9054,"ĠGdJcfhdhL":9055,"ĠMGQS":9056,"JSJ":9057,"ĠGdMGVQ":9058,"ĠGdGLgRI":9059,"ĠZjQJ":9060,"RdfG":9061,"ĠGdGSW":9062,"ĠeYOdGJ":9063,"ĠVMc":9064,"ĠefGSHG":9065,"ĠGdeJNUUI":9066,"ĠeabhO":9067,"ĠhGab":9068,"ĠGdYTQjf":9069,"ĠjGQaGb":9070,"ĠehVY":9071,"hGNjQG":9072,"ĠYTGA":9073,"Ġchfc":9074,"Ġjhej":9075,"ĠJJWdH":9076,"ĠHYjf":9077,"ĠGdNjGQ":9078,"ĠGdShQjI":9079,"hGdi":9080,"ĠGdJWhQGJ":9081,"Oeg":9082,"Zfj":9083,"ĠGHWGd":9084,"ĠJJRhL":9085,"ĠGMVGQ":9086,"ĠGSJQGJjLjGJ":9087,"ĠGdQD":9088,"ĠSdhc":9089,"ĠbghI":9090,"ĠGdjSGQ":9091,"MXG":9092,"ĠQFj":9093,"ĠGHfg":9094,"hRjd":9095,"ĠGdGRQb":9096,"ĠebJd":9097,"ĠGdhRf":9098,"ĠJdG":9099,"ĠPcjI":9100,"ĠUGd":9101,"ĠGdeLjA":9102,"ĠGLQjJ":9103,"ĠeGQJf":9104,"ĠeSOS":9105,"GdJgG":9106,"Ofj":9107,"ĠGdJdaRjhf":9108,"ĠbGYO":9109,"ĠJQGLY":9110,"ĠYeheG":9111,"ĠGOQcJ":9112,"ĠLGOI":9113,"ĠfMH":9114,"ĠGdGSJNOGe":9115,"NeSI":9116,"ĠGdhcjd":9117,"hGZd":9118,"ĠGMfG":9119,"ĠGddZGJ":9120,"ĠYGOd":9121,"ĠGdZGHGJ":9122,"ĠcGdja":9123,"ĠGdeOQLI":9124,"ĠObjbg":9125,"ĠGdeLehYGJ":9126,"ĠGdchcH":9127,"ĠhGdeLJeY":9128,"ĠGdGMjGA":9129,"ĠgGJaj":9130,"ĠGdaGFOI":9131,"ĠGdGFJe":9132,"ĠfYJbO":9133,"QU":9134,"GQaY":9135,"ĠGdLeGd":9136,"ĠSjGSjI":9137,"eF":9138,"ĠeGO":9139,"ĠddeQI":9140,"ĠJhLg":9141,"ĠJbe":9142,"fjd":9143,"ĠeHGOQI":9144,"Ġdcfge":9145,"ĠeUO":9146,"ĠGdVQGFH":9147,"aLQGJ":9148,"ĠGSQGQ":9149,"hcI":9150,"ĠGdLfhf":9151,"ĠhcGdGJ":9152,"ĠejKGb":9153,"ĠGdQUO":9154,"ĠGHjc":9155,"ĠeJhSW":9156,"ĠSWM":9157,"ĠGdGfLdjRjI":9158,"ĠJMJGLjf":9159,"ĠGdJaJjT":9160,"ĠOhQG":9161,"ĠcjS":9162,"ĠNHQGA":9163,"ageJ":9164,"ĠGdeThQI":9165,"aGc":9166,"ĠHSQYg":9167,"ĠddeY":9168,"ĠdGjLGO":9169,"ĠSJUHM":9170,"ĠeYGgO":9171,"ĠGTGgO":9172,"GgQ":9173,"ĠNdGa":9174,"QHM":9175,"ĠGfceG":9176,"ĠefWbj":9177,"ĠGdGKGK":9178,"ĠGbdje":9179,"GOGQI":9180,"ĠHYf":9181,"ĠUOjbJc":9182,"ĠJLYdfj":9183,"ĠGdVGHW":9184,"ĠGdegGLQjf":9185,"ĠGSJNOeJ":9186,"ĠJJZjQ":9187,"ĠjVQH":9188,"ĠhbhY":9189,"ĠUQj":9190,"GdGH":9191,"ĠJhfS":9192,"ĠGdGQH":9193,"Ġba":9194,"ĠGdJhGdj":9195,"ĠJNHQj":9196,"ĠGdTJ":9197,"ĠGdGQHYI":9198,"DgG":9199,"eQMdI":9200,"ĠGcO":9201,"ĠGfNaGV":9202,"ĠGdejOGfjI":9203,"GNHQj":9204,"ĠJYdjbj":9205,"ĠTNUj":9206,"NG":9207,"ĠHeHdZ":9208,"ĠGdGSeGA":9209,"ĠeHcQ":9210,"LhG":9211,"UGJ":9212,"bQI":9213,"ĠeYGedI":9214,"ĠGhbGJ":9215,"ĠGdRQGYjI":9216,"QHGg":9217,"ĠhMbhb":9218,"ĠebdH":9219,"bGeI":9220,"ĠeSJYOG":9221,"ĠGfGe":9222,"Ġhdg":9223,"ĠjYQV":9224,"ĠUMjMI":9225,"ĠJNUjU":9226,"abJ":9227,"SDhdjI":9228,"ĠGdTQjW":9229,"fXQ":9230,"ĠHbG":9231,"ĠJfGe":9232,"ĠjDde":9233,"ĠbfHdI":9234,"ĠGdehLgI":9235,"ZWj":9236,"ĠddOhdI":9237,"ĠWGQb":9238,"ĠLOJj":9239,"ĠhGc":9240,"ĠGdZQHj":9241,"ĠGdefJOi":9242,"ĠGdgGe":9243,"ĠMdhd":9244,"SGW":9245,"KeQ":9246,"ĠeWQ":9247,"ĠbHV":9248,"ĠdTjA":9249,"Dd":9250,"ĠGdaQGT":9251,"UdM":9252,"fOj":9253,"OGOGJ":9254,"fhH":9255,"ĠchJ":9256,"ĠGdeDQNI":9257,"ĠeSJTai":9258,"ĠGdMGfI":9259,"ĠGKj":9260,"ĠGdOHdheG":9261,"ĠGdSGYg":9262,"ĠGdgQhH":9263,"ĠJVe":9264,"ĠGJMGO":9265,"GMdi":9266,"ĠGdeQj":9267,"KdGKjf":9268,"SdhH":9269,"ĠSaQ":9270,"ĠHQGO":9271,"ĠhOj":9272,"ĠLHd":9273,"ĠQGjj":9274,"ĠcdGec":9275,"TjG":9276,"ĠJMJhj":9277,"ĠGdKGef":9278,"GYed":9279,"ĠGNPg":9280,"LdhS":9281,"KeGQGJ":9282,"ĠjUfY":9283,"LFJ":9284,"ĠJMce":9285,"ĠGfI":9286,"ĠYjfG":9287,"ĠehR":9288,"ĠeSGMI":9289,"ĠJZjQJ":9290,"ĠddJY":9291,"ĠGdGfJbGdjI":9292,"ĠeJaG":9293,"ĠGdMbjbg":9294,"eQc":9295,"ĠaQGfSjS":9296,"ĠjMGhdhf":9297,"fGY":9298,"ĠeYbO":9299,"Ġghdj":9300,"eD":9301,"cPdc":9302,"ĠGdefJNH":9303,"ĠegfOSj":9304,"ĠZjfjG":9305,"ĠcGfc":9306,"hcPdc":9307,"ĠjahR":9308,"ĠcGdjahQfjG":9309,"ĠhGdJYdje":9310,"ĠGdVj":9311,"ĠTZ":9312,"gOhA":9313,"ĠWdHGJ":9314,"ĠhGdJb":9315,"ĠGX":9316,"hHGdGVGaI":9317,"dbJ":9318,"ĠGdYbGH":9319,"ĠGNHQg":9320,"QjJG":9321,"ĠGeGej":9322,"ĠGdfbWI":9323,"ĠLdSGJ":9324,"ĠMVQ":9325,"ĠhGdYed":9326,"GbJ":9327,"ĠQGFYg":9328,"ĠGdOeGZ":9329,"ĠhGdgQSc":9330,"Ġeed":9331,"acQJ":9332,"ĠGNJQJ":9333,"djej":9334,"ĠHGdcKjQ":9335,"ĠJGH":9336,"NJGQ":9337,"ĠGdeNUU":9338,"ĠjRYL":9339,"ĠLjfj":9340,"ĠdceG":9341,"ĠGTGQ":9342,"ĠfMJ":9343,"ĠQDSGA":9344,"ĠGdeHOG":9345,"ĠVjb":9346,"HJgG":9347,"ĠGSJLGHI":9348,"ĠGdJYdjbGJ":9349,"ĠHebJ":9350,"HMQ":9351,"ĠhjG":9352,"ddJ":9353,"ĠhLOJg":9354,"ĠegGe":9355,"hdcfgG":9356,"GdPi":9357,"PGcQI":9358,"ĠGdMGadI":9359,"ĠGdWdHGJ":9360,"ĠJjSjQ":9361,"ĠeJYH":9362,"ejdj":9363,"Fi":9364,"ĠeUjQ":9365,"ĠGdTg":9366,"ĠehGW":9367,"ĠHGSQY":9368,"deI":9369,"ĠGdeQcRj":9370,"ĠGWQGa":9371,"ĠGJaGbGJ":9372,"ĠjYjO":9373,"ĠMhGQ":9374,"ĠeTGgO":9375,"ĠGdehGbY":9376,"SM":9377,"ĠNG":9378,"ĠhGdeSGYOI":9379,"ĠGdLeGYjI":9380,"ĠdSHH":9381,"ĠTGQc":9382,"HGbj":9383,"fGJj":9384,"ĠbJdj":9385,"ĠGdJGe":9386,"hJe":9387,"OGd":9388,"YdgG":9389,"ĠMQj":9390,"ĠhGdGfJ":9391,"ĠOhdjG":9392,"ĠHhSYc":9393,"QShf":9394,"hRjQ":9395,"ĠTjQ":9396,"ĠGQGOJ":9397,"ĠGdSaf":9398,"eQg":9399,"ĠLdHJ":9400,"ĠGeGec":9401,"GedG":9402,"ĠGNPgG":9403,"ĠGdOQGSGJ":9404,"ĠjJUQa":9405,"ĠShjS":9406,"ĠYdGbGJ":9407,"GOjejI":9408,"TGgOI":9409,"ĠGhR":9410,"ĠGdfaSj":9411,"JjgG":9412,"VGj":9413,"ĠeLGfG":9414,"ĠedGMXI":9415,"ĠhgG":9416,"ĠKGfjg":9417,"ĠeOQ":9418,"ĠdYedjI":9419,"YdGe":9420,"ĠjNHQfj":9421,"LdSI":9422,"ĠGdTQWj":9423,"ĠacQg":9424,"ĠbGOehf":9425,"ĠMdhI":9426,"ReGJ":9427,"ĠHUhJ":9428,"ĠYdGeGJ":9429,"ĠYeQgG":9430,"hGhO":9431,"ĠGdbhe":9432,"GHQGJ":9433,"ĠHGdGfJ":9434,"ĠGdGSJY":9435,"ĠYQT":9436,"hdGf":9437,"bhG":9438,"ĠGSf":9439,"ĠGdKbG":9440,"aGg":9441,"jfL":9442,"ĠgQHJ":9443,"ĠeKGdj":9444,"LdSGJ":9445,"ĠHhf":9446,"ĠjSYO":9447,"ĠGdbUU":9448,"Sfchf":9449,"ĠOjQ":9450,"ĠGUHJ":9451,"ĠgGfc":9452,"edG":9453,"ĠJMQjQ":9454,"ĠfQL":9455,"ĠJeGQS":9456,"ĠSbWJ":9457,"ĠGdGgd":9458,"bhdj":9459,"ĠeFGJ":9460,"ĠjJYQV":9461,"ĠddfSGA":9462,"GfSj":9463,"ĠGdGReI":9464,"cg":9465,"ĠYbhO":9466,"MJQGe":9467,"ĠjhaQ":9468,"ĠGdGLfHj":9469,"ĠdjdJc":9470,"ĠZQaJj":9471,"ĠddGYdi":9472,"eGjcd":9473,"HL":9474,"ĠGdLhGfH":9475,"ĠGdegfjI":9476,"ĠjdGMX":9477,"ĠeSJjbX":9478,"Zf":9479,"ĠVMjI":9480,"QMeI":9481,"ĠGdLGQjI":9482,"ĠTLQI":9483,"ei":9484,"ĠhjdjGe":9485,"SGhGI":9486,"ĠTcQ":9487,"KJ":9488,"ĠNSGQI":9489,"ĠSJLO":9490,"MjH":9491,"ĠjhJjhHQ":9492,"ĠdGNQ":9493,"ĠGdeDSSI":9494,"XjeG":9495,"ĠfgQ":9496,"ĠLejYfG":9497,"ĠQjGV":9498,"Jjc":9499,"ĠehXajf":9500,"LfhH":9501,"ĠGdTNUj":9502,"ĠGabO":9503,"ĠGZGOQ":9504,"ĠhMOGJ":9505,"ĠHGfTGA":9506,"ĠfLe":9507,"NhQ":9508,"ĠGdSadj":9509,"GOY":9510,"ĠYScQjI":9511,"ĠGdUZGQ":9512,"ĠGdeOf":9513,"ĠYGdejI":9514,"ĠGdHjVGA":9515,"ĠgPGGdQLd":9516,"fGJhQ":9517,"aYdg":9518,"ĠJUQjM":9519,"ĠGdYbhO":9520,"ĠghG":9521,"ĠdeSGYOJc":9522,"ĠGLQj":9523,"ĠTGfgG":9524,"ĠjQGbH":9525,"ĠGdGPf":9526,"ĠLfhO":9527,"YdeJ":9528,"ZGQjG":9529,"MbjbI":9530,"ĠGdLfGFj":9531,"GLdS":9532,"ĠGdefb":9533,"ĠdMaX":9534,"ĠjaJM":9535,"ĠQhc":9536,"GdeJ":9537,"ĠGTO":9538,"HGdJhajb":9539,"ĠGdeVj":9540,"ĠYG":9541,"LOI":9542,"ĠefgeG":9543,"ĠGdUjfj":9544,"ĠGdOGFQI":9545,"ĠdgfG":9546,"ĠfGe":9547,"ĠGdZPGFjI":9548,"ĠeYgO":9549,"ĠGdGLfHjI":9550,"ĠhTcQG":9551,"ĠGfY":9552,"ĠHUO":9553,"hGJj":9554,"ĠhGdJM":9555,"ĠTGgOJ":9556,"ĠJbUOjf":9557,"ĠHGdj":9558,"cJI":9559,"ĠGbe":9560,"NJda":9561,"ĠJQej":9562,"ĠJTQH":9563,"ĠZjQgG":9564,"ĠGdGNJUGU":9565,"WQjbI":9566,"ĠeQGab":9567,"ĠdfaSj":9568,"TjW":9569,"ĠGReI":9570,"ĠdcaGdI":9571,"ĠJWhQ":9572,"ĠYGOjI":9573,"YjfGJ":9574,"ĠhGdbGfhf":9575,"gQH":9576,"ĠbhjG":9577,"ĠQheGf":9578,"ĠGdGOfi":9579,"ĠGdSHGMI":9580,"ĠGddWja":9581,"ĠddGYJ":9582,"ĠhMOc":9583,"ĠHJGQjN":9584,"hjdG":9585,"ĠLQM":9586,"ĠGMJLJ":9587,"ĠGdaWhQ":9588,"ĠJNGa":9589,"ĠGdeHGOQI":9590,"ĠddOGNd":9591,"ĠQhL":9592,"ĠJTJ":9593,"ĠGMed":9594,"ĠLGFRI":9595,"ĠGbQ":9596,"ĠScf":9597,"ĠSGJUd":9598,"ĠHMhR":9599,"hGFM":9600,"ĠYfOge":9601,"SYjO":9602,"ĠGdJYhjV":9603,"dGfO":9604,"ĠJfaj":9605,"ĠHYfhGf":9606,"ĠGdQFjSI":9607,"ĠeLQe":9608,"ĠbQj":9609,"ĠhGNP":9610,"ĠGdZVHGf":9611,"ĠGdegGe":9612,"Oc":9613,"ĠGdMjhjI":9614,"GTcQc":9615,"GdOh":9616,"ĠejRGfjI":9617,"ĠGdGTLGQ":9618,"ĠeSJbdI":9619,"ĠGdacQ":9620,"ĠGdeLGhQI":9621,"TGQI":9622,"ĠGdeYe":9623,"ĠJQcR":9624,"ĠGdeGfMI":9625,"hYO":9626,"HGFf":9627,"Hjc":9628,"ĠSjbJd":9629,"jaJQV":9630,"GdGfJ":9631,"ĠeTcdg":9632,"ĠhGP":9633,"ĠGdUHj":9634,"ĠGdQMje":9635,"jOc":9636,"bGa":9637,"ĠGdSc":9638,"ĠGNjc":9639,"HGdefGSHI":9640,"ĠGbHd":9641,"ĠJjO":9642,"bGFeI":9643,"ĠjJLGhR":9644,"ĠGdGQLfJjf":9645,"ĠHdZJ":9646,"Gcj":9647,"ĠhOhf":9648,"ĠhGdSJjf":9649,"RGHj":9650,"ĠHfOQ":9651,"ĠGdebGe":9652,"ĠeOQH":9653,"ĠWQM":9654,"ĠGYLHfj":9655,"dGMbI":9656,"ĠhGdSjGSjI":9657,"ĠGdbdjdI":9658,"ĠdaJ":9659,"ĠJPgHjf":9660,"Fhd":9661,"ĠHGJLGg":9662,"UGAGJ":9663,"ĠJQMd":9664,"ĠHYeQ":9665,"jJGf":9666,"ĠLGFY":9667,"ĠeMJQa":9668,"ĠGdWjH":9669,"ĠefJNH":9670,"ĠGdeHP":9671,"ĠdhMOc":9672,"ĠgfO":9673,"ĠVNe":9674,"ĠGbQGQ":9675,"GdeTcdI":9676,"QMjd":9677,"ĠSJchfjf":9678,"ĠMhV":9679,"ZR":9680,"ĠGdTQbj":9681,"ĠGdeMj":9682,"ĠLGd":9683,"NWjW":9684,"ZGKI":9685,"ĠHQjf":9686,"aGYd":9687,"ĠGdYQ":9688,"dGLd":9689,"ĠWQjbfG":9690,"ĠGdadSWjfjjf":9691,"ĠOjfG":9692,"ĠjSJZQb":9693,"ĠLhfR":9694,"GMOge":9695,"LjQjG":9696,"ĠGdGQHYGA":9697,"hWfGJ":9698,"ĠHYedjI":9699,"ĠJQJjH":9700,"ĠjYWjc":9701,"VYja":9702,"ĠJhQ":9703,"ĠKbI":9704,"ĠSjYhO":9705,"ĠGdTQcGA":9706,"ĠYbdj":9707,"ĠeMJQe":9708,"YGbI":9709,"SJc":9710,"ĠGdJfXjejI":9711,"OgG":9712,"ĠGTcQ":9713,"hJfG":9714,"ĠLhG":9715,"ĠGced":9716,"ĠGddLGf":9717,"ĠHHjGf":9718,"fjY":9719,"HhJ":9720,"ĠGdOLGL":9721,"fJgj":9722,"ĠfehPL":9723,"ĠehSjbi":9724,"ejfG":9725,"Hfi":9726,"ĠGdQDjI":9727,"ĠSGNHQc":9728,"ĠjLdS":9729,"ĠJGNQ":9730,"ĠhdOj":9731,"hMOI":9732,"ĠGeQc":9733,"QJfG":9734,"eGQj":9735,"MOGK":9736,"eGdjI":9737,"ĠGdeaGJjM":9738,"ĠGdeJge":9739,"ĠTjcGZh":9740,"ĠGdMdhi":9741,"YOhG":9742,"ĠeUGO":9743,"UOjbj":9744,"ĠJMOKfG":9745,"ĠJUhjJ":9746,"GfL":9747,"HYGKGJ":9748,"ĠjYJbOhf":9749,"ĠJNd":9750,"abhOI":9751,"ĠHGSJKfGA":9752,"ĠLGH":9753,"ĠGdOjc":9754,"ĠdQLd":9755,"ĠZjQg":9756,"ĠGdhdGOI":9757,"cJg":9758,"ĠGfJgGcGJ":9759,"ĠHjJc":9760,"ĠbV":9761,"ĠGdOH":9762,"ĠJaYdhf":9763,"ĠJbfjI":9764,"ĠUGMHI":9765,"ĠMjGJge":9766,"Ġfjh":9767,"ĠGdGLeGdj":9768,"ĠJNWW":9769,"ĠGdefJLGJ":9770,"ĠJUfY":9771,"ĠhGNHQ":9772,"ĠGQGgG":9773,"ĠcQjSJ":9774,"ĠGdGMUGF":9775,"ĠhGdJOQjH":9776,"ĠGdbfHdI":9777,"GdGL":9778,"ĠSYOGA":9779,"ĠfWdH":9780,"GUHMJ":9781,"ĠGfJHg":9782,"ĠGbdjejI":9783,"ĠGdMQGS":9784,"SQbI":9785,"ĠWjHG":9786,"ĠGdGOYGA":9787,"ĠfeJ":9788,"ĠcjQ":9789,"ĠGXgQ":9790,"ĠGdhGdO":9791,"ĠdYOI":9792,"ĠOGNdjG":9793,"ĠJYhjV":9794,"jbhdhf":9795,"ĠeNja":9796,"Tg":9797,"ĠjJNP":9798,"WS":9799,"ĠHOYe":9800,"eGg":9801,"ĠcSH":9802,"ĠJTj":9803,"ĠddaQjb":9804,"ĠfhYjI":9805,"ĠeajOI":9806,"jGGdgj":9807,"ĠjJfGhd":9808,"ĠddfGS":9809,"ĠjMOO":9810,"dGajG":9811,"HTGf":9812,"ĠeGgj":9813,"ĠGeGefG":9814,"ĠGdGUhd":9815,"ĠGdeVGOI":9816,"ĠJYe":9817,"ĠJYfi":9818,"ĠGJSGAd":9819,"ĠGdGdjI":9820,"ĠGdeSD":9821,"ĠGdJHQYGJ":9822,"ĠHWhdI":9823,"ĠOGfjGd":9824,"ĠGdJLQHI":9825,"ĠecGde":9826,"ĠSJGQ":9827,"ĠGShI":9828,"ĠeSGaI":9829,"ĠeLdI":9830,"ĠGfaG":9831,"ĠGdhMOGJ":9832,"ĠWGbI":9833,"ĠddSd":9834,"ĠGdMGFW":9835,"ĠJcdeJ":9836,"hRjdfOG":9837,"YKQ":9838,"ĠGdQGFYI":9839,"ĠHjfc":9840,"ĠddGN":9841,"ĠGfLj":9842,"ĠSGYOfj":9843,"GgfGc":9844,"GQJgG":9845,"ĠGdaQbI":9846,"Ng":9847,"ĠhbGdJ":9848,"ĠGdLhGQ":9849,"ĠJbQjQg":9850,"ĠGSJMb":9851,"MGVQ":9852,"ĠHGdeL":9853,"HgI":9854,"hdGjI":9855,"ĠGdNajaI":9856,"ĠHOd":9857,"GgI":9858,"ĠjLj":9859,"ĠJSYi":9860,"ĠGdbjG":9861,"ĠGdNQj":9862,"ĠVNeI":9863,"ĠejdG":9864,"ĠGdfRGY":9865,"TQa":9866,"ĠGdSdejI":9867,"ĠJMjGJj":9868,"ĠhGdYOGdI":9869,"ĠHOQ":9870,"ĠJbQjQgG":9871,"ĠjcJ":9872,"ĠJXd":9873,"GQJg":9874,"ĠGdGNQhf":9875,"ĠGfJgGc":9876,"Vjg":9877,"ĠhGdHQGeL":9878,"ĠGdMGOj":9879,"ĠGJSGFd":9880,"ĠHGYeGd":9881,"SjWQI":9882,"ĠMhdc":9883,"ĠeLehYGJ":9884,"ĠeRMI":9885,"ĠdK":9886,"jdR":9887,"ĠGNJaJ":9888,"XGaI":9889,"ĠebQQ":9890,"ĠLhR":9891,"ĠGdGMJaGd":9892,"eKjd":9893,"ĠTgQjf":9894,"ĠJLf":9895,"ĠWHjI":9896,"cheGJ":9897,"ĠeMGhd":9898,"TgO":9899,"ĠeNQL":9900,"QGgjI":9901,"UGM":9902,"ĠGddPjf":9903,"ĠYfUQ":9904,"ĠeYGc":9905,"ĠQaVJ":9906,"ĠcGQJQ":9907,"ĠGdeTGhQGJ":9908,"heQ":9909,"hjc":9910,"ĠGdShjO":9911,"ĠGdHQdeGf":9912,"GdHYV":9913,"YjG":9914,"dfJ":9915,"ĠHGHG":9916,"ĠGdeUOQ":9917,"ĠGdHWd":9918,"ĠebOGQ":9919,"ĠHGLQGA":9920,"faP":9921,"ĠWGhdI":9922,"HfGA":9923,"ĠSjLYd":9924,"WjI":9925,"YGf":9926,"ĠdbH":9927,"ĠJhGLO":9928,"ĠjOg":9929,"ĠdRjGOI":9930,"ĠWHbG":9931,"ĠKb":9932,"ĠGdRLGL":9933,"ĠJjQj":9934,"ĠebQa":9935,"ĠGdeJLQ":9936,"ĠddTQWI":9937,"HGSJ":9938,"ĠGdWQajf":9939,"ĠGdJGKjQ":9940,"ĠTL":9941,"ĠGdGfG":9942,"ĠGdJQJjHGJ":9943,"ĠGQJcGH":9944,"ĠhGdJcfhdhLjG":9945,"ĠjbHd":9946,"ĠNT":9947,"QGHWI":9948,"ĠHWQjb":9949,"ĠcfJJ":9950,"ĠJfLM":9951,"VGYI":9952,"heHj":9953,"ĠGdMbGFb":9954,"ĠHJYjjf":9955,"ĠJNdU":9956,"ĠJVMc":9957,"ĠddYH":9958,"ĠbJdhG":9959,"RYLI":9960,"ZGA":9961,"ĠHMSH":9962,"SGI":9963,"ĠGdNdjL":9964,"ĠJKHJ":9965,"ĠGdJgGH":9966,"ĠdGcKQ":9967,"ĠGdYedGA":9968,"ĠLfOj":9969,"Jjd":9970,"ĠJLfH":9971,"ĠdRhL":9972,"ĠYbhHI":9973,"ĠGdeMGaX":9974,"ĠGfbPJ":9975,"ĠJTha":9976,"ĠJUOQ":9977,"ĠGQbGe":9978,"ĠGdOeGQ":9979,"ĠGdJeKjd":9980,"jdGJ":9981,"ĠNV":9982,"ĠSdje":9983,"ĠfGL":9984,"ĠGdGbGeI":9985,"ĠGdJMaX":9986,"ĠGJU":9987,"eGdc":9988,"ĠHGdSLf":9989,"ĠGdeSdM":9990,"GQge":9991,"ĠGdfGQjI":9992,"ĠddSjO":9993,"ĠjOYe":9994,"ĠgP":9995,"ĠhJbjje":9996,"ĠGdJQLeI":9997,"eGgh":9998,"TQb":9999,"ĠNQ":10000,"ĠchdheHjG":10001,"ĠGdGcJ":10002,"ĠjJSfi":10003,"dhc":10004,"ĠcHjQg":10005,"LgGJ":10006,"ĠgPjf":10007,"ĠRaGa":10008,"VYI":10009,"ĠGdMOjbI":10010,"ĠbdHg":10011,"HjS":10012,"ĠjhGUd":10013,"ĠgQ":10014,"Qjh":10015,"ĠGdLfQGd":10016,"GddLfI":10017,"ĠJdbi":10018,"ĠSeYJg":10019,"ĠhNUhUG":10020,"ĠjMb":10021,"GdeYPQI":10022,"ĠYjhf":10023,"ĠcS":10024,"ĠGdLeGYGJ":10025,"ĠGdfJ":10026,"ĠeJj":10027,"ĠGdNHQI":10028,"ajjf":10029,"YdheI":10030,"ĠjYdehf":10031,"ĠJeGe":10032,"Ġjhdj":10033,"HQGeL":10034,"ĠSjGOJce":10035,"HOd":10036,"ĠGKGQI":10037,"UGdMI":10038,"ĠhGdGbdjejI":10039,"OYhI":10040,"ĠGQLh":10041,"Ġjef":10042,"ĠGdchfZ":10043,"ĠedGc":10044,"ĠSHG":10045,"ĠGdHdG":10046,"ĠeZGOQI":10047,"ĠYXjeG":10048,"ĠGNHQjfj":10049,"ĠaTdJ":10050,"ĠGdYGOj":10051,"ĠGdWadI":10052,"XgQJ":10053,"SjOi":10054,"ĠeeQ":10055,"ĠGdZVH":10056,"ĠGdSajQ":10057,"ĠYUGHI":10058,"ĠGdQjGVI":10059,"ĠSjehJ":10060,"fGWb":10061,"ĠGQgGH":10062,"ĠbJdc":10063,"ZOG":10064,"ĠHdhZ":10065,"ĠeQQJ":10066,"ĠGdWdGH":10067,"ĠeRGL":10068,"ĠGdQbjH":10069,"TGQY":10070,"ĠaGQZ":10071,"ĠddGSad":10072,"eGRdJ":10073,"hOjG":10074,"ĠjHJ":10075,"ĠGUGHI":10076,"ĠJSYI":10077,"ĠGdJMdjd":10078,"ĠJK":10079,"ĠGdGNJjGQ":10080,"ĠLK":10081,"ĠMhdg":10082,"ĠGdaOQ":10083,"ĠJHcj":10084,"ĠGdGfaLGQ":10085,"ĠGdeQg":10086,"ĠJagejf":10087,"ĠGVW":10088,"ĠMGfI":10089,"HjJQ":10090,"ĠcdeGJg":10091,"ĠJJYde":10092,"GfRd":10093,"ĠHGfaS":10094,"OGfj":10095,"Ġhfj":10096,"ĠGQKQ":10097,"ĠGdeNJUI":10098,"ĠGdSG":10099,"ĠhGdejRGfjI":10100,"ĠGdJTQjYjI":10101,"ĠJMSf":10102,"ĠNjGQGJ":10103,"ĠGdMde":10104,"ĠGdcQHhf":10105,"jJhf":10106,"ĠddGSdMI":10107,"jGdg":10108,"aQUI":10109,"hJgG":10110,"ĠadhS":10111,"ĠGdge":10112,"ĠGdGfaGb":10113,"MhU":10114,"dGReI":10115,"ĠHGdMbjbI":10116,"ĠGdeTj":10117,"ĠSDGdG":10118,"eYXe":10119,"YGY":10120,"ĠGdTQhW":10121,"ĠGdfH":10122,"ĠGdYcS":10123,"KGdKG":10124,"GQHI":10125,"LRGc":10126,"ĠhYG":10127,"ĠdjO":10128,"HQjf":10129,"Ġdjh":10130,"TGg":10131,"ajde":10132,"ĠdJY":10133,"ĠNdGU":10134,"Ġbjd":10135,"GdaI":10136,"QGhM":10137,"ĠHQhc":10138,"ĠhJQ":10139,"ĠGdeLQejf":10140,"hab":10141,"ĠGdGUhGJ":10142,"ĠQGMI":10143,"ĠLghOgG":10144,"hSf":10145,"ĠfRdJ":10146,"ĠSjGNP":10147,"GHhf":10148,"ĠHGecGfg":10149,"ĠQDhS":10150,"ĠecJhH":10151,"QjGf":10152,"GdMjGI":10153,"bGHdJc":10154,"ĠeMGaXI":10155,"ĠZRI":10156,"ĠGdeHPhdI":10157,"ĠJGHYI":10158,"ĠGdfaGjGJ":10159,"Ġjhec":10160,"ĠGdGJaGbGJ":10161,"ĠUaQ":10162,"ĠMPG":10163,"ĠGdeNGHQGJ":10164,"Ġjbhdg":10165,"ĠGdeYbhO":10166,"ĠGdJhbjY":10167,"ĠGdGLQGA":10168,"ĠheGPG":10169,"ĠGdcYc":10170,"ĠHdOI":10171,"ĠNdbg":10172,"dLfI":10173,"ĠJGS":10174,"ĠGdMGce":10175,"eGjc":10176,"QGWj":10177,"HK":10178,"ahQO":10179,"ĠGdeYJeOI":10180,"ĠeQJaY":10181,"ĠGfJJ":10182,"ĠGdGjW":10183,"ĠGdebOS":10184,"ĠNGdjI":10185,"bJGd":10186,"ĠLQJ":10187,"ĠhGdJejjR":10188,"ĠYGJ":10189,"ĠSJMUd":10190,"ĠHGdWQjbI":10191,"ĠUOG":10192,"ĠeSGQ":10193,"SGeI":10194,"ĠhZjQg":10195,"ĠebYO":10196,"ĠHaVd":10197,"ĠhRhL":10198,"ĠdhQ":10199,"ĠGdeNJHQ":10200,"ĠeRYL":10201,"fMff":10202,"ĠGdGfJN":10203,"ĠeVMcG":10204,"ĠGdNeQ":10205,"ĠbGHdI":10206,"ĠHJT":10207,"fbd":10208,"ĠefRdg":10209,"ĠGGfJ":10210,"SGb":10211,"ĠGdhLgI":10212,"ĠhGdNeShf":10213,"ĠMGdg":10214,"ĠGdMGL":10215,"ĠGdShQj":10216,"ĠGdeMWI":10217,"ĠJMXi":10218,"ĠdSfhGJ":10219,"bGWY":10220,"ĠfGjJ":10221,"ĠGfaGP":10222,"ĠOjahGQ":10223,"ĠShjJ":10224,"QShe":10225,"GdQLGd":10226,"ĠGbGe":10227,"ĠbWYJ":10228,"ĠGNHQJg":10229,"ĠGdNU":10230,"ĠGMe":10231,"GdYH":10232,"ĠeSde":10233,"ĠeTghQ":10234,"jZ":10235,"ĠHajQhS":10236,"ĠeYQaJg":10237,"ĠGdUheGd":10238,"SGMVQ":10239,"ĠGdSQWGf":10240,"WGbe":10241,"QJcH":10242,"ĠGdGSJTGQj":10243,"ĠGdWGbe":10244,"ĠdjH":10245,"ĠGdRQGYI":10246,"ĠQGTO":10247,"ĠGdeHGMK":10248,"ĠOYjfG":10249,"ĠHGdGSdMI":10250,"ĠhSje":10251,"ĠjQMeg":10252,"hGFj":10253,"ĠhGdfSGA":10254,"dSfG":10255,"ddGSa":10256,"GJjf":10257,"ĠGdMhG":10258,"ĠGdeJab":10259,"Sfbhe":10260,"ĠdecJH":10261,"ĠMjGJi":10262,"ĠJSJWY":10263,"ĠShHQ":10264,"ĠSgdI":10265,"ĠGNGa":10266,"jcI":10267,"ĠGdTQH":10268,"UGf":10269,"ĠLhQO":10270,"cQGfjG":10271,"HYg":10272,"ĠJYdjbGJ":10273,"ĠeNWF":10274,"ĠGdJV":10275,"bGY":10276,"ĠHebJVi":10277,"ĠJbVj":10278,"ĠfjGHI":10279,"ĠYdGb":10280,"ĠhVYgG":10281,"QLGf":10282,"ĠHjV":10283,"ĠGdeTGQcjf":10284,"LFI":10285,"XQc":10286,"ehd":10287,"ĠeSehM":10288,"ĠhhO":10289,"ĠGfTW":10290,"ĠLYdc":10291,"ĠaGffG":10292,"ĠgPGGdGeQ":10293,"ĠGdeHcQ":10294,"JQjOjf":10295,"ĠGdfGTFI":10296,"ĠGdLS":10297,"ĠHTF":10298,"ĠdeJ":10299,"ĠfXjaI":10300,"ĠGdedaGJ":10301,"GFQj":10302,"ĠeSQhQ":10303,"ĠGhZ":10304,"ĠhYOJ":10305,"ĠehSe":10306,"ĠJJLGhR":10307,"ĠGSJO":10308,"ĠjfGSH":10309,"GdJg":10310,"ĠGdHhSfI":10311,"ĠhMOgG":10312,"ĠGdaGYdI":10313,"ĠGjecfc":10314,"GHfj":10315,"ĠGdJTQjYGJ":10316,"ĠHGYOGO":10317,"ĠGdWhjdI":10318,"ĠGdehVhYjI":10319,"ĠMJ":10320,"ĠHhc":10321,"ĠGhSY":10322,"ĠeMGaX":10323,"ĠGdeJYOO":10324,"ĠbdbG":10325,"ĠGdeeGQSI":10326,"aGhV":10327,"hZhSdGajG":10328,"Ug":10329,"ĠhGdGM":10330,"LjcG":10331,"ĠSjPgH":10332,"ĠJUhQ":10333,"ĠddYhOI":10334,"ĠOhfG":10335,"ĠgPGGdecGf":10336,"Ġbhi":10337,"ĠdZI":10338,"ĠLhGR":10339,"ĠGYQGV":10340,"ĠjLjH":10341,"QSg":10342,"ĠGdTG":10343,"GgPg":10344,"ĠGdGYOGO":10345,"ĠUZjQg":10346,"ĠJSH":10347,"ĠGdUOQ":10348,"ĠYQH":10349,"ĠGdJge":10350,"ĠedcI":10351,"ĠHGYGOI":10352,"ĠGfLdJQG":10353,"ĠJhbYJ":10354,"ĠSHGb":10355,"ĠTjf":10356,"ĠfGJ":10357,"ĠjYLHc":10358,"ĠYfi":10359,"ĠWf":10360,"ĠWYe":10361,"ĠcJjQ":10362,"ĠjWdY":10363,"ĠeSJeQ":10364,"ĠGdWjhQ":10365,"ĠGdRYje":10366,"ĠeahVjI":10367,"dhJ":10368,"GdJRGeGJ":10369,"ĠGhG":10370,"ĠHhb":10371,"ĠNGWFI":10372,"ĠQOI":10373,"hVYJ":10374,"ĠeMQL":10375,"GSJZaQ":10376,"GMUd":10377,"NGWQ":10378,"ĠdGSJNOGe":10379,"ĠGdGbGdje":10380,"ĠjTJ":10381,"ĠGdehJi":10382,"ĠGdefGbTGJ":10383,"ĠKbj":10384,"ĠGdHhd":10385,"ĠeNJdaG":10386,"ĠGdJaGhV":10387,"PGQI":10388,"ĠeTZhdI":10389,"beI":10390,"ĠHGdefGSHI":10391,"Ydec":10392,"ĠeGdG":10393,"ĠGdGgdj":10394,"ĠTQjW":10395,"ĠWQjbc":10396,"ĠQFjSI":10397,"ĠGdHOj":10398,"ĠbUQ":10399,"ĠGdUGdM":10400,"ĠPQG":10401,"GJjJ":10402,"ĠMRH":10403,"ĠGdeMGhdI":10404,"Ġadj":10405,"ĠcGKQjf":10406,"hajShQ":10407,"SfPgH":10408,"ĠHdOG":10409,"ĠGdGfJgGcGJ":10410,"ĠHGdeQ":10411,"QhG":10412,"HjcG":10413,"ĠZGVHG":10414,"ĠGdUMGaI":10415,"ĠeOj":10416,"ĠheOGO":10417,"ĠePgdI":10418,"hai":10419,"ĠGdTGedI":10420,"ĠHGdef":10421,"ĠGac":10422,"Fa":10423,"ĠGTJQjJ":10424,"ĠHJU":10425,"PLj":10426,"ĠGdbWGYGJ":10427,"bGFH":10428,"ĠGSJZdGd":10429,"ĠdGLdj":10430,"jag":10431,"Kbja":10432,"ĠafGf":10433,"LRG":10434,"ĠZjGH":10435,"ĠeejRI":10436,"HF":10437,"ĠShOGA":10438,"ĠhHJ":10439,"ĠhGjJ":10440,"SQg":10441,"ĠUdGI":10442,"YTQ":10443,"ĠGdLSQ":10444,"WQO":10445,"ĠHQTd":10446,"ĠahVi":10447,"ĠedjGQ":10448,"ĠGdaFGJ":10449,"ĠJSd":10450,"ĠGdLj":10451,"YjGJ":10452,"Ġcah":10453,"ĠGdOSJ":10454,"ĠGJGcO":10455,"ĠGdMHhH":10456,"ĠhMOj":10457,"ĠGfLR":10458,"ĠceGf":10459,"ĠHZOGO":10460,"ĠJLGgd":10461,"ĠGdbeGeI":10462,"ĠdcQI":10463,"ĠGdJbGYO":10464,"ĠGdLfSGfjI":10465,"ĠSdGMc":10466,"ĠJMV":10467,"ĠJfajPgG":10468,"ĠQjf":10469,"Uf":10470,"Uja":10471,"ĠHUQGMI":10472,"hjPI":10473,"ĠGdGfPGQ":10474,"ĠShjSQG":10475,"ĠGdbUQ":10476,"OGJ":10477,"ĠNHQI":10478,"ĠJbhejf":10479,"ĠeZdb":10480,"ĠGLHQ":10481,"MHJ":10482,"ĠGdPQjI":10483,"ĠGdYhGed":10484,"ĠMSHeG":10485,"Ġhdd":10486,"ĠGjdGA":10487,"ĠZSd":10488,"ĠShG":10489,"ĠGNQhf":10490,"ĠUfGYI":10491,"ĠHGdGYdi":10492,"ĠGWHGA":10493,"ĠGdYXGe":10494,"ĠGdHf":10495,"ĠdeS":10496,"ĠGdeUGOQ":10497,"ĠYSG":10498,"ĠGdLfhHj":10499,"ĠVYjaI":10500,"ĠHGY":10501,"ĠfhO":10502,"hddg":10503,"ĠddGMJ":10504,"ĠbGQH":10505,"ĠGje":10506,"HWGd":10507,"ĠOeG":10508,"ĠGdHQjI":10509,"ĠddehXajf":10510,"Fce":10511,"ĠhfTQ":10512,"hdGj":10513,"ĠhGdGJMGO":10514,"ĠJNWjW":10515,"ĠGHbGA":10516,"TJGjf":10517,"ĠJdbjJ":10518,"ĠJQLeI":10519,"ĠYGR":10520,"ĠGdaQG":10521,"ĠGdaYGd":10522,"ĠGdGSj":10523,"ĠGdeMGej":10524,"GfJi":10525,"ĠGdLfSGfj":10526,"Gjecf":10527,"ĠGSfGf":10528,"ĠdGjecf":10529,"ĠGdeOQH":10530,"ĠSfhjG":10531,"hjY":10532,"jh":10533,"ĠGdeSJbdI":10534,"bQjI":10535,"ĠPgHfG":10536,"jch":10537,"GfSi":10538,"ĠeYd":10539,"ĠHMeGjI":10540,"ĠHdGc":10541,"ĠSGHbI":10542,"HGdQZe":10543,"eMJ":10544,"ĠGdHQjWGfjI":10545,"dcfge":10546,"ĠeOGQ":10547,"ĠhefWbI":10548,"acQI":10549,"Qajg":10550,"HjYGJ":10551,"ĠddMjGI":10552,"ĠGSJeJ":10553,"ĠGdVQhQjI":10554,"ĠebW":10555,"MhK":10556,"ĠGQLGA":10557,"ĠTYhQc":10558,"ĠNdaj":10559,"ĠcjGf":10560,"ĠGSbW":10561,"ĠLYdfj":10562,"HeGPG":10563,"ĠGdeYQha":10564,"Wh":10565,"ĠGfXQhG":10566,"GdeGOI":10567,"ĠGdSGej":10568,"WdM":10569,"ĠfdYH":10570,"ĠJYfjg":10571,"ĠNWHc":10572,"ĠGdTb":10573,"QHhG":10574,"Ġah":10575,"GMeO":10576,"ĠeJhJ":10577,"ĠYdGbJfG":10578,"ĠahQJ":10579,"ĠGdfJjLI":10580,"ĠYPQG":10581,"ĠSejK":10582,"TjO":10583,"ĠeGRGdJ":10584,"ĠjYfjg":10585,"ĠSGMI":10586,"ĠMjKeG":10587,"ĠYKQJ":10588,"ĠeeJYI":10589,"ĠQgjH":10590,"TabI":10591,"ĠOhGA":10592,"ĠHTNU":10593,"ĠLP":10594,"ĠGdKbGajI":10595,"ĠYQTg":10596,"ĠddYjT":10597,"ĠJhUjI":10598,"ĠHNW":10599,"ĠGeScJ":10600,"ĠGdedGMXGJ":10601,"fGOj":10602,"ĠGdYjO":10603,"MbbJ":10604,"fOGJ":10605,"ĠGdebGHd":10606,"ĠddGJMGO":10607,"ĠGfJNGH":10608,"ĠGdNfRjQ":10609,"ĠGQJcHJ":10610,"ĠQGHWI":10611,"ĠGdJMOj":10612,"ĠjhGab":10613,"bGdI":10614,"ĠSjMUd":10615,"ĠeSM":10616,"ĠNWGj":10617,"ĠSGN":10618,"ĠGdHMhK":10619,"ĠGTYGQ":10620,"GdGehQ":10621,"ĠJSbW":10622,"ĠOhGYj":10623,"ĠddeDJeQ":10624,"ehG":10625,"gGOGJ":10626,"dcd":10627,"ĠdGMcGe":10628,"ĠhWfj":10629,"ĠGdebGWYI":10630,"ĠJSJGgd":10631,"ĠGdNjGQGJ":10632,"JbUO":10633,"ecJH":10634,"ĠSjGSj":10635,"ĠNGd":10636,"GdjSJ":10637,"OhG":10638,"GYOc":10639,"ĠGdebU":10640,"ĠjHj":10641,"Ġhfbd":10642,"ĠhQVG":10643,"ĠGdJONjf":10644,"ĠedGFeI":10645,"ĠGdTLQI":10646,"ĠhGjf":10647,"OGQ":10648,"ĠHeSJ":10649,"SGeM":10650,"ĠJMaX":10651,"ĠGdYdhe":10652,"HOGjI":10653,"ĠdGSHGH":10654,"ĠJQL":10655,"ĠMOjbI":10656,"ĠXH":10657,"ĠjVMc":10658,"ĠeOgT":10659,"ĠYdTGf":10660,"ĠeP":10661,"ĠUHj":10662,"ĠGdeOa":10663,"ĠGdLOO":10664,"ĠJGJi":10665,"ĠjSQb":10666,"ĠJeSc":10667,"ĠSjFg":10668,"ĠeWGdH":10669,"ĠOhQc":10670,"ĠGdMRH":10671,"ĠjHMKhf":10672,"ĠchSJ":10673,"ĠeVj":10674,"ĠYP":10675,"Ġegh":10676,"ĠhGdOjc":10677,"ĠGdbQGAI":10678,"GdMH":10679,"ĠhGdMeO":10680,"Ġghd":10681,"SGaQ":10682,"dHjf":10683,"GdYed":10684,"RfI":10685,"ĠJVQH":10686,"HeLQO":10687,"SjGQGJ":10688,"ĠGdOjfjI":10689,"ĠKGfjG":10690,"ĠeJS":10691,"ĠGdGZfjg":10692,"ĠUaMI":10693,"hdjG":10694,"ĠJde":10695,"ĠOQS":10696,"ĠGdQajY":10697,"ĠGdfhQ":10698,"ĠGba":10699,"Gdef":10700,"YedJ":10701,"GcJ":10702,"Ġae":10703,"ĠJhOjf":10704,"ĠNOYI":10705,"ĠGdeSGaI":10706,"ĠGdNdajI":10707,"ĠMHc":10708,"ĠZGdj":10709,"ĠGdcGHJf":10710,"ĠfgGFj":10711,"ĠRjf":10712,"ĠGhdi":10713,"ĠJQJjHGJ":10714,"eGRGd":10715,"SJI":10716,"ĠZQaJc":10717,"Ġjhba":10718,"ĠjQjOg":10719,"ĠGdJfhY":10720,"ĠdhSj":10721,"ZjQGJ":10722,"ĠhdGJ":10723,"ĠghdfOG":10724,"GQHjf":10725,"ĠYeGf":10726,"ĠeMGceI":10727,"ĠJgOa":10728,"ĠhGdGYJ":10729,"ĠdGYJ":10730,"ĠLeG":10731,"ĠGgPG":10732,"ĠGdbhi":10733,"ĠgL":10734,"ĠHGdPfH":10735,"ĠddGa":10736,"ĠejSj":10737,"ĠXgQc":10738,"RjI":10739,"hGjVG":10740,"ĠjSJWY":10741,"ĠhGdGSdMI":10742,"ĠLGjf":10743,"aGfJ":10744,"ĠWdY":10745,"ĠcGfgG":10746,"Ġhje":10747,"jHOhG":10748,"jGY":10749,"Sdg":10750,"LgR":10751,"GQahQ":10752,"ĠhGdMQjGJ":10753,"GfjfG":10754,"ĠGdGSJj":10755,"ĠjXd":10756,"GWdH":10757,"ĠSGfJG":10758,"ĠGfOhfjSjG":10759,"Ġddbdb":10760,"ĠGdedYH":10761,"ĠGdZGdH":10762,"GfUJ":10763,"ĠGdMjGg":10764,"ĠGdWdGb":10765,"ĠjaSQ":10766,"SGFjI":10767,"ĠGdGjc":10768,"ĠJfO":10769,"ĠGjaGf":10770,"ĠaUGYOG":10771,"ĠLejYce":10772,"ĠGdYGdj":10773,"ĠGMSGS":10774,"ecfG":10775,"ĠGdejKGb":10776,"ĠddZGjg":10777,"ĠeUQa":10778,"ĠJYJQa":10779,"ĠdjQ":10780,"ĠGdeSJNOeI":10781,"GjO":10782,"ĠhefgG":10783,"ĠGdKQ":10784,"HOdG":10785,"ĠHjhe":10786,"ĠGefjI":10787,"ĠGdeabhO":10788,"ĠgGPG":10789,"ĠefUH":10790,"ĠGdUMjMI":10791,"ĠGdbGH":10792,"HGecGfc":10793,"ĠhegfOSI":10794,"ĠJYeje":10795,"ĠGdLHGd":10796,"ĠGdGSYGQ":10797,"ĠGDcO":10798,"ĠfXQj":10799,"GfgeG":10800,"ĠGLdH":10801,"hGJje":10802,"ĠGfZ":10803,"ĠSYGOI":10804,"SJgG":10805,"ĠGdUfGOjb":10806,"QZH":10807,"ĠGdae":10808,"hUi":10809,"ĠhGHhS":10810,"ĠjMJhj":10811,"ĠHWj":10812,"ĠhcGfc":10813,"ĠGQJOGA":10814,"ĠdGMV":10815,"jGSI":10816,"ĠGdcQSj":10817,"ĠMOjKG":10818,"ĠdYjfI":10819,"ĠYGdb":10820,"ĠYGejf":10821,"ĠGjLGHjI":10822,"ĠhQGF":10823,"GbOQ":10824,"ĠGNWGJ":10825,"ĠcGQj":10826,"ĠddSdGe":10827,"ĠecGfgG":10828,"ĠhGjQ":10829,"ĠGdeHGQ":10830,"ĠMQc":10831,"ĠGdTghO":10832,"hGJjG":10833,"eGdGJ":10834,"ĠLGcShf":10835,"ĠGdMLQ":10836,"ĠSJbhd":10837,"ĠSdW":10838,"aQfSjI":10839,"GjQ":10840,"bQQJ":10841,"ĠHJMSf":10842,"ĠGdGYJbGd":10843,"ĠGdOQL":10844,"ĠaQY":10845,"ĠTQM":10846,"ĠGdGjQGOGJ":10847,"aJGM":10848,"ĠLjfG":10849,"ĠMdG":10850,"ĠGSGdjH":10851,"ĠfXGaI":10852,"ĠGeJdc":10853,"ĠJZWjI":10854,"ĠGdcHGQ":10855,"ĠjMaXc":10856,"ĠjQLi":10857,"ĠYUQ":10858,"ĠhGfc":10859,"ĠMQGQI":10860,"ĠddNda":10861,"RGHjK":10862,"ĠNha":10863,"ĠLGjc":10864,"ĠOGe":10865,"ĠNGUJj":10866,"ĠHGdR":10867,"cjfG":10868,"Ġcfj":10869,"ĠJJYGed":10870,"HTcd":10871,"ĠeGjf":10872,"ĠGdgjGcd":10873,"ĠGdbjhO":10874,"GSQ":10875,"ĠhGdOhd":10876,"ĠhhG":10877,"ĠGdOhQGJ":10878,"ĠGdGeGej":10879,"QGFW":10880,"ĠdGchf":10881,"ĠGdGMJdGd":10882,"ĠHWGbGJ":10883,"ĠYLH":10884,"ĠGdGOhGJ":10885,"YWj":10886,"ĠYejb":10887,"ĠJTGc":10888,"ĠeeJdc":10889,"ĠJOYj":10890,"ĠfXQjI":10891,"VGaJ":10892,"ĠHZV":10893,"ĠGdGYJOGA":10894,"ĠeOQj":10895,"ĠQDjJgG":10896,"ĠGdJRGeGJ":10897,"ĠJaYdgG":10898,"ĠWQjbgG":10899,"ĠHeSGYOI":10900,"Ġddh":10901,"ĠUQGMI":10902,"ĠjMHc":10903,"ĠGZfj":10904,"ĠJMHfj":10905,"ĠGdeSc":10906,"ĠGdLKK":10907,"ĠjaVd":10908,"ĠGdSGN":10909,"bjeI":10910,"ĠMSGHj":10911,"ĠGdQhSjI":10912,"ĠHLOjI":10913,"ĠfLM":10914,"ĠGdfjQGf":10915,"UaGJ":10916,"ĠQUGUI":10917,"SGHbG":10918,"ĠGdeScjf":10919,"bQH":10920,"ĠjJeJY":10921,"Te":10922,"ĠGhJ":10923,"UGHI":10924,"ĠGdMGQS":10925,"ĠMUI":10926,"ĠUMjI":10927,"ĠGdTJGA":10928,"GaQ":10929,"ĠebGHdJc":10930,"ĠZfj":10931,"ĠJQZHjf":10932,"ĠGdMdjH":10933,"ĠSdWGJ":10934,"ĠdaQjb":10935,"ĠGdJeJY":10936,"dcI":10937,"gOO":10938,"GNPJ":10939,"ĠhYfO":10940,"ĠGJYdejf":10941,"ĠGdJGSY":10942,"ĠWY":10943,"ĠGdVMc":10944,"YGF":10945,"ĠGSJWGY":10946,"ĠUZGQ":10947,"ĠHMO":10948,"ĠeSJTGQ":10949,"ĠhJMbjb":10950,"ĠcKQ":10951,"ĠGdMXQ":10952,"ĠJJMed":10953,"ĠJZWj":10954,"ĠHhSW":10955,"HfG":10956,"ĠSGFb":10957,"ĠGdKGHJ":10958,"ĠGdYeGdI":10959,"JUHM":10960,"ĠJMJaX":10961,"Mdh":10962,"VYg":10963,"ĠhGddLfI":10964,"ĠeYW":10965,"TQGQ":10966,"ĠLhT":10967,"ĠNdG":10968,"ĠhGdGQHYjf":10969,"ĠHdbGFc":10970,"ĠGdGbdjGJ":10971,"ĠjTGgO":10972,"ĠHZQV":10973,"ĠGdYGOI":10974,"ĠGdGSJQGJjLj":10975,"ĠGdHQj":10976,"ĠJSGYOfj":10977,"ĠHYhO":10978,"Ġdff":10979,"Ġcjdj":10980,"ĠGdTeGdj":10981,"hgcPG":10982,"JQLeI":10983,"ĠGdaGJ":10984,"ĠGRO":10985,"Mi":10986,"ĠJVjY":10987,"bjejf":10988,"ĠJYedjf":10989,"ĠNdac":10990,"TQH":10991,"ĠOSJhQ":10992,"ĠGddhMI":10993,"ĠeRjOG":10994,"ĠHGdeY":10995,"ĠGdTQYj":10996,"ĠQhj":10997,"haQI":10998,"SGhjI":10999,"ĠaGTd":11000,"ĠGbGHd":11001,"HjbGJ":11002,"GQVI":11003,"ĠGdQGFMI":11004,"Ġdjhe":11005,"ĠeGFI":11006,"ĠjMbb":11007,"ĠLfSjI":11008,"gGeGJ":11009,"ĠMGLg":11010,"ĠdcfJ":11011,"ĠfJecf":11012,"ĠeMJed":11013,"ĠjGJhf":11014,"DjO":11015,"ĠGdGhZGO":11016,"ĠeeGKdI":11017,"Qag":11018,"ĠeTQhH":11019,"ĠGdGdgI":11020,"ĠTGfc":11021,"ĠGYjf":11022,"ĠJacQjf":11023,"hfge":11024,"GOf":11025,"ĠdTQGA":11026,"gjd":11027,"ĠGbhO":11028,"ĠOhZ":11029,"ĠeUGdM":11030,"jGWj":11031,"ĠjSJeY":11032,"ĠGdYhdeI":11033,"Ġhce":11034,"ĠeecfG":11035,"OQS":11036,"SJja":11037,"ĠGZGfj":11038,"ĠQGc":11039,"ĠGdaGF":11040,"ĠGdeUYO":11041,"ĠHGdGYJ":11042,"ĠdGWdGb":11043,"cdGfG":11044,"ĠdGQj":11045,"GdR":11046,"ĠGdhGMOI":11047,"ĠdeQI":11048,"ĠGdefW":11049,"ĠGdeSGQ":11050,"ĠGdGbdje":11051,"ĠHRjGOI":11052,"ĠKGdK":11053,"ĠGegG":11054,"ĠGhdhjI":11055,"ĠeGJhG":11056,"Ydjce":11057,"ĠGdYUQ":11058,"GdGWaGd":11059,"ZJ":11060,"ĠGSQI":11061,"ĠNGUG":11062,"ĠeeKdI":11063,"ĠVe":11064,"ĠGdYbhHI":11065,"ĠGdeeKdjf":11066,"jQgG":11067,"ĠgGeG":11068,"ĠLQH":11069,"ĠMHhH":11070,"ĠcH":11071,"ĠeMGOK":11072,"ĠGNJQ":11073,"ĠGHGc":11074,"ĠGdMebi":11075,"ĠHMH":11076,"ĠVja":11077,"ĠeDNQI":11078,"ĠOQGSjI":11079,"ĠJOQj":11080,"ĠhGdGLQGAGJ":11081,"ĠGdeSj":11082,"ĠGdYej":11083,"ĠLjc":11084,"ĠHfc":11085,"ĠQjGf":11086,"ĠaVG":11087,"ĠbGW":11088,"ĠbQGQG":11089,"TYQJ":11090,"ĠeajO":11091,"ĠGdeYQV":11092,"MGOj":11093,"ĠbJdJg":11094,"ĠGdLQM":11095,"eLehYI":11096,"ĠcdGgeG":11097,"GdSDGd":11098,"ĠGdebGHdI":11099,"ĠgGOF":11100,"ĠGdGdjGJ":11101,"ĠNdGdgG":11102,"ĠhHGdJ":11103,"HD":11104,"ĠddabQI":11105,"ĠHQhS":11106,"ĠJbhej":11107,"ga":11108,"ĠGdcj":11109,"ĠJHj":11110,"Ġdfbd":11111,"ĠGJNjd":11112,"ĠJJjM":11113,"ĠOjd":11114,"ĠeVGY":11115,"ĠecGfj":11116,"eGgj":11117,"ĠgGfG":11118,"ĠjUOQ":11119,"ĠGdhQb":11120,"aQL":11121,"ĠdbGfhf":11122,"eQJ":11123,"ĠGdeOQ":11124,"LhQL":11125,"bhdI":11126,"ĠHGdPgGH":11127,"ĠjbGd":11128,"ĠYGHO":11129,"ĠdGcf":11130,"ĠJGjjO":11131,"ĠHWdH":11132,"jGWjf":11133,"ĠGdMQjb":11134,"ĠddOhQI":11135,"ĠHJYRjR":11136,"Ġdhj":11137,"ĠjfaP":11138,"ĠHeKd":11139,"ĠQFjSG":11140,"ĠGdYQT":11141,"LjfG":11142,"fYI":11143,"OjgG":11144,"ĠUYjO":11145,"ĠGdNHR":11146,"dGRe":11147,"ĠOYeG":11148,"dGbj":11149,"MbbI":11150,"ĠGdSGMdjI":11151,"cah":11152,"ĠGdhSGFd":11153,"hGdc":11154,"ĠGdMOK":11155,"hch":11156,"ĠHOhfc":11157,"ĠhGTGQ":11158,"ĠRdfG":11159,"ĠGdWGHY":11160,"ĠJfR":11161,"OGf":11162,"ĠdGQi":11163,"ĠHhQhfOj":11164,"ĠOHj":11165,"ĠdjR":11166,"ĠeMOhOI":11167,"ĠJYQH":11168,"ĠSjfJgj":11169,"ĠQbU":11170,"ĠJYHJ":11171,"ĠGdGge":11172,"agj":11173,"MHjHj":11174,"ĠGdfGLeI":11175,"ĠGdYbjO":11176,"ĠaXj":11177,"ĠGdhaGI":11178,"YOjf":11179,"ĠeKGdjI":11180,"ĠdJhajQ":11181,"ĠLhQLjG":11182,"ĠGdJMcje":11183,"ĠGdQhe":11184,"ĠbJGd":11185,"ĠebU":11186,"RMjf":11187,"ĠGdHGF":11188,"ĠGHYGO":11189,"ĠGdSGHbjf":11190,"ĠdGK":11191,"ĠGhUd":11192,"ĠJNaja":11193,"VL":11194,"ĠGdabQGA":11195,"ĠeQGQG":11196,"ĠdGRdJ":11197,"hja":11198,"ĠSjGQJg":11199,"ĠGdjhejI":11200,"ĠGZaQ":11201,"Ġchfg":11202,"bdHj":11203,"GMG":11204,"bWYI":11205,"ĠGdRefj":11206,"ĠGdeTGYQ":11207,"ĠGahR":11208,"ĠddGOGQI":11209,"bGQfI":11210,"ĠGdMHjH":11211,"ĠGdeSJeQ":11212,"ĠGSJQGMI":11213,"hUjd":11214,"ĠGHhGH":11215,"ĠGdeTehdI":11216,"JHY":11217,"ĠGdZGe":11218,"hdc":11219,"ĠRedG":11220,"ĠGYR":11221,"ĠGdeQJHWI":11222,"ĠGbJdc":11223,"gGFf":11224,"ĠjDef":11225,"ĠGdehXa":11226,"ĠGdeUjQ":11227,"ĠHMjGJj":11228,"ĠbdI":11229,"ĠGQhGM":11230,"hhabG":11231,"ĠGYeGdg":11232,"ĠGdGhVGY":11233,"ĠcGR":11234,"hQZe":11235,"ĠGdRGhjI":11236,"ĠGdGfJbGe":11237,"ĠGdQjGM":11238,"ĠHcGed":11239,"ĠeQGMd":11240,"ĠGOhGQO":11241,"ĠHGNP":11242,"ĠcdGej":11243,"ĠHGUOGQ":11244,"ĠGdRjGOI":11245,"hGU":11246,"MGceI":11247,"ĠRGO":11248,"ĠdPjP":11249,"ĠjJab":11250,"ĠGTQM":11251,"ĠajcJhQ":11252,"ĠdSeGY":11253,"ĠSJSJ":11254,"ĠGdTLGYI":11255,"GFfGJ":11256,"ĠddJM":11257,"ĠJKjQ":11258,"ĠGdJcde":11259,"ĠGdSjA":11260,"ĠQjJ":11261,"ĠeSLd":11262,"hQjS":11263,"ĠGdeMGaXI":11264,"ĠHGYJHGQgG":11265,"fhfG":11266,"ĠGdSja":11267,"ĠeQJHW":11268,"ĠGdfQhjL":11269,"ĠNHjQ":11270,"ĠJgQH":11271,"ĠGdfHGJ":11272,"ĠTjdj":11273,"ĠGejGd":11274,"ĠjSYi":11275,"ĠQGjfG":11276,"Ġjbje":11277,"ĠeUdMI":11278,"ĠdfQi":11279,"ĠGdeMQc":11280,"ĠSHHG":11281,"ĠGdMUGf":11282,"ĠaJMJ":11283,"ĠeOa":11284,"ĠGdGfJNGHjI":11285,"ĠGMHce":11286,"ĠGdhaO":11287,"ĠegGQGJ":11288,"SeR":11289,"ĠHGJNGP":11290,"ĠHGhd":11291,"ĠbjG":11292,"SMbG":11293,"fhYI":11294,"ĠGdeMdajf":11295,"QjHjI":11296,"GVYI":11297,"ĠddGY":11298,"aJc":11299,"ĠaYdhG":11300,"gVI":11301,"ĠJaV":11302,"ĠJcdaI":11303,"ĠJSei":11304,"ĠGdNGW":11305,"ĠGdeJQJHI":11306,"ĠOGQahQ":11307,"GcGf":11308,"ĠYTQjf":11309,"ĠajJ":11310,"ĠGfbG":11311,"ĠGdZPGFj":11312,"ĠdGJaGbjI":11313,"ĠNGUJc":11314,"ĠZHjG":11315,"ĠJMJGLg":11316,"hajI":11317,"djb":11318,"hNI":11319,"ĠGdYXjeI":11320,"ĠjVWdY":11321,"ĠddGeGe":11322,"ĠGdeDcO":11323,"ĠJMQchG":11324,"LejYfG":11325,"ĠGdUMa":11326,"ĠGdbVGFj":11327,"ĠGdGHGA":11328,"ĠJTJQj":11329,"UhQI":11330,"jGOjf":11331,"aYdgG":11332,"ĠhGdJfSjb":11333,"ĠHJbQjQ":11334,"ĠhVYg":11335,"hjdj":11336,"ĠGSeYj":11337,"ĠgGOFI":11338,"ĠGdPjj":11339,"ĠjYGfhf":11340,"ĠYjH":11341,"ĠGdMQI":11342,"ĠMeO":11343,"ĠGYJQGV":11344,"jdI":11345,"ĠGfgj":11346,"ajeG":11347,"GVi":11348,"ĠGdeGdc":11349,"ĠGdeJYI":11350,"ĠhGdKdGKjf":11351,"ĠGKjhHjG":11352,"RhLI":11353,"ĠShRGf":11354,"ĠGdTchi":11355,"ĠNWhW":11356,"ĠfJQc":11357,"ĠHMGLg":11358,"efjf":11359,"ĠHGWdGb":11360,"ĠSQWGf":11361,"XQJ":11362,"TQcI":11363,"ĠNPj":11364,"ĠhYj":11365,"ĠGMSfJ":11366,"ĠGdghjI":11367,"ĠGdeSDhdI":11368,"ĠSJGQc":11369,"ĠJchfhG":11370,"ĠJeGf":11371,"Gha":11372,"ĠeYLHI":11373,"ĠGeQj":11374,"ĠaGfj":11375,"ĠjQaY":11376,"ĠTGj":11377,"ĠGdeahV":11378,"cdgG":11379,"GdV":11380,"Rc":11381,"ĠGeQg":11382,"GNQS":11383,"ĠbJdgG":11384,"hdcffG":11385,"ĠGdeQT":11386,"ĠJOQL":11387,"ĠGRGd":11388,"bGSe":11389,"ĠGdUYjOjf":11390,"ĠMdhi":11391,"ĠdMXGJ":11392,"ĠhGjQdfOG":11393,"ĠJJSe":11394,"Jehjd":11395,"ĠQbH":11396,"GdWQjbI":11397,"ĠJHPdgG":11398,"Ġedcj":11399,"ĠYGFdJg":11400,"ĠGdaYdj":11401,"GMVQJ":11402,"NQJj":11403,"ĠjHYO":11404,"ĠLfH":11405,"ĠGNW":11406,"ĠGdLQGMI":11407,"ĠGdbVGI":11408,"ĠTYQj":11409,"ĠJGcO":11410,"ĠHGdGN":11411,"ĠHhL":11412,"ĠHjVGA":11413,"ĠeGeG":11414,"ĠGdNGJe":11415,"hjJQ":11416,"dde":11417,"ĠHGdbQGQ":11418,"hh":11419,"bjM":11420,"ĠOGFeI":11421,"ĠdJehjd":11422,"ĠJefM":11423,"ĠLejYge":11424,"ĠHMQ":11425,"ĠeONd":11426,"ĠSec":11427,"ĠGdGSa":11428,"ĠdWGdeG":11429,"ĠjfaY":11430,"ĠjHjY":11431,"ĠYdHI":11432,"ĠQHY":11433,"hGJjeGdG":11434,"ĠGHOGY":11435,"ĠdSfI":11436,"ĠajOj":11437,"ĠeQJc":11438,"ĠGUYH":11439,"ĠddYGde":11440,"ĠHJhajQ":11441,"hGdJj":11442,"ĠdMSGH":11443,"ĠHGdGTNGU":11444,"ĠGdfaWj":11445,"ĠaQM":11446,"ĠeNWW":11447,"ĠehfJ":11448,"GfGS":11449,"ĠGdLRGAGJ":11450,"ĠJWd":11451,"ĠJJY":11452,"ĠGLQI":11453,"ĠGdedM":11454,"ca":11455,"ĠHjfgeG":11456,"ĠGLJ":11457,"ĠddGed":11458,"ĠedGHSj":11459,"ĠeKjQG":11460,"ĠTf":11461,"HMbc":11462,"ĠGdeJW":11463,"ĠdjG":11464,"ĠeJYdb":11465,"abg":11466,"FhjI":11467,"ĠeNWFG":11468,"ĠGdZHjI":11469,"ĠhGdOgG":11470,"ĠGJQcc":11471,"ĠHGdLhGQ":11472,"dhK":11473,"ĠegJeI":11474,"ĠGdGYdGejI":11475,"ĠJMOjGJ":11476,"ĠHOQLI":11477,"ĠJchjf":11478,"ĠYeGd":11479,"ĠOQL":11480,"ĠGQMe":11481,"ĠHhSYfG":11482,"GKfGf":11483,"ĠSJaYdjf":11484,"ĠGdhKhb":11485,"Hce":11486,"LOj":11487,"ĠGYOJ":11488,"ĠhYOO":11489,"ĠHGdfSHg":11490,"ĠeYOGJ":11491,"ĠjbVj":11492,"ĠehGWf":11493,"ScG":11494,"ĠGdcGQ":11495,"ĠhLhg":11496,"GSGd":11497,"fSjJ":11498,"ĠJYdej":11499,"ĠGdGejQI":11500,"hjJj":11501,"ĠGdMPQ":11502,"HQR":11503,"ĠGdTjhN":11504,"dGfge":11505,"ĠSJehJ":11506,"ĠhJMOjO":11507,"ĠGdGSJbdGd":11508,"hQHj":11509,"ĠhHS":11510,"ĠOGNdj":11511,"ĠGdLhdI":11512,"GQhS":11513,"ĠGUObc":11514,"ĠGdYbhHGJ":11515,"ĠhcGfgG":11516,"ĠGdefXhQ":11517,"ĠhGdGOGQI":11518,"ĠTgQG":11519,"ĠjHbj":11520,"ĠGdMVQ":11521,"ĠGdUhGH":11522,"ĠjgQH":11523,"bOeg":11524,"ĠGdGSJFe":11525,"WQjb":11526,"ĠZVH":11527,"ĠHGhQ":11528,"ĠGJaG":11529,"ĠchHQ":11530,"ĠGOJ":11531,"ĠVQhQjG":11532,"ĠGefj":11533,"ĠeLehYg":11534,"ĠHGdJGdj":11535,"HQZ":11536,"ĠhGfTGA":11537,"ĠUMjaI":11538,"ĠGaJJGM":11539,"SDhdjGJ":11540,"Qbg":11541,"ĠGMQGR":11542,"ĠHGNJ":11543,"hGVY":11544,"ĠGdeKjQ":11545,"dJjf":11546,"ĠSGMVQ":11547,"ĠdhLg":11548,"ĠGdGaYGd":11549,"ĠJYGdL":11550,"ĠGdWbS":11551,"ĠeQa":11552,"Ġdje":11553,"hGQj":11554,"ĠhQFjS":11555,"GYfi":11556,"ĠGdhHGA":11557,"GJhbY":11558,"ĠPGcQ":11559,"RGjOI":11560,"ĠjOQc":11561,"ĠTJi":11562,"JfGhd":11563,"ĠfHbi":11564,"ĠHGgejI":11565,"HGN":11566,"ĠeKdgG":11567,"ĠHGdeFI":11568,"ĠUhH":11569,"GQGO":11570,"ĠTQGHG":11571,"eTQhY":11572,"Ġhgd":11573,"eGcS":11574,"ĠMLQ":11575,"ĠJMHg":11576,"ĠcHQi":11577,"MVQI":11578,"ĠJhVjM":11579,"ĠddYTGA":11580,"ĠfSN":11581,"ĠGdJR":11582,"ĠGJhba":11583,"ĠfSeI":11584,"ĠddTabI":11585,"ĠfXQg":11586,"ĠGdNSGFQ":11587,"ĠhRfI":11588,"ĠTQcGA":11589,"ĠGdeJhSWI":11590,"MSGHGJ":11591,"GPHjI":11592,"ĠJMjI":11593,"ĠGdUQa":11594,"ĠGdGWhGQ":11595,"ĠdMd":11596,"ĠGYJHGQgG":11597,"ĠGdjghO":11598,"ĠJNSQ":11599,"ĠGdeJYG":11600,"jGc":11601,"ĠbOeg":11602,"ĠLfSjG":11603,"hGFR":11604,"ĠHYOjf":11605,"ĠhJO":11606,"ĠbGOQjf":11607,"cJGHI":11608,"ĠJNHQfG":11609,"ĠGdRghQ":11610,"ĠHgOhA":11611,"ĠfacQ":11612,"ĠMXjJ":11613,"WGHJ":11614,"HOGd":11615,"ĠeJMeS":11616,"Ġcdce":11617,"ĠjJPcQ":11618,"ĠQhHf":11619,"fUa":11620,"ĠYRjRJi":11621,"ĠhGNJ":11622,"ĠhcQ":11623,"ĠeHGQc":11624,"ĠaSj":11625,"ĠYOfGf":11626,"ĠHGdYGde":11627,"ĠLOjOg":11628,"JGcO":11629,"ĠHjS":11630,"ĠeYGdL":11631,"GjGJ":11632,"ĠGdfXQI":11633,"JgOjO":11634,"ĠjNWW":11635,"ĠhdcffG":11636,"ĠHYKGJ":11637,"Ġhja":11638,"ĠGdYSd":11639,"hQfG":11640,"ĠGdMQGQ":11641,"ĠGdcQj":11642,"ĠGdhbGjI":11643,"ĠGdeSdSd":11644,"VQQ":11645,"ĠdhLhO":11646,"ĠHGaVd":11647,"ĠeJGHYc":11648,"TjFG":11649,"ĠeHGOQGJ":11650,"ĠeSJYOhf":11651,"ĠGdTa":11652,"ĠJhc":11653,"JGe":11654,"ĠjabO":11655,"ĠGdeQGab":11656,"ĠGdGfO":11657,"ĠRLGL":11658,"ĠGdGZGfj":11659,"ĠGdcJGHI":11660,"ĠcGQKI":11661,"ĠaL":11662,"ĠGdSGa":11663,"ĠGdeaJhM":11664,"ĠTbj":11665,"ĠLejYgG":11666,"ĠQFGSI":11667,"ĠGdMOjKI":11668,"ĠYQVG":11669,"ĠHJgeI":11670,"ĠbGSjI":11671,"Ġcdhj":11672,"ĠjGTjN":11673,"ĠGdejR":11674,"ĠGdefRdj":11675,"ĠGdaYGdI":11676,"ĠhRQGA":11677,"ĠGdGMSGS":11678,"QLe":11679,"ĠdJb":11680,"ĠjQc":11681,"ĠefU":11682,"ĠGdHjhdhLj":11683,"ĠHSHHc":11684,"ĠHGdGQ":11685,"ĠGdJLGQH":11686,"ĠYQVJ":11687,"ĠGSWhQg":11688,"ĠjMJGLhf":11689,"ĠGdbWY":11690,"ĠjJjM":11691,"ĠchO":11692,"WQGHGJ":11693,"YJQa":11694,"ĠGSJSde":11695,"ĠjYLH":11696,"ĠJLdH":11697,"Jhe":11698,"ĠhGdJc":11699,"ĠGSge":11700,"ĠJdHjI":11701,"ĠGSJbHGd":11702,"ĠhGYJbO":11703,"ĠfOGA":11704,"QGHW":11705,"ĠGYQV":11706,"ĠddeLJeY":11707,"ĠGdMGShH":11708,"ĠeVWQ":11709,"JbQjHG":11710,"ĠSJHbi":11711,"Shb":11712,"ĠMXG":11713,"ĠLjSj":11714,"ĠMPGA":11715,"ĠGdNeSI":11716,"ĠGMP":11717,"ĠGdHjY":11718,"ĠHGdbdb":11719,"aUd":11720,"ĠcjejG":11721,"ĠUOjbi":11722,"ĠSGQGc":11723,"ĠGha":11724,"ĠQeR":11725,"ĠGdeYJGO":11726,"ĠHQjJ":11727,"ĠSdha":11728,"GHi":11729,"ĠGNJdGa":11730,"ĠGPc":11731,"NGe":11732,"Mhe":11733,"hJS":11734,"ĠKhGfj":11735,"ĠhJSJ":11736,"ĠWHb":11737,"ĠJRhjO":11738,"hHGdJGdj":11739,"ĠhVeGf":11740,"ĠbHQU":11741,"ĠGdeJcde":11742,"ĠGdGVQGQ":11743,"ĠhGdeMjW":11744,"ĠeMdjI":11745,"ĠQgj":11746,"ĠjLeY":11747,"ĠhNOeGJ":11748,"gPI":11749,"ĠhGQO":11750,"ĠGdbPQ":11751,"ĠGdNWhI":11752,"ĠSHj":11753,"ĠffXQ":11754,"ĠGdHbQ":11755,"ĠaGF":11756,"ĠGdfGJL":11757,"ĠfONd":11758,"ĠGdSGFb":11759,"ĠMbfG":11760,"ĠGdbhj":11761,"ĠGdZQjHI":11762,"bhI":11763,"GPi":11764,"hKj":11765,"ĠhbGfhf":11766,"ĠeQGL":11767,"ĠdSG":11768,"ĠjUYH":11769,"ĠMQG":11770,"ĠJLOjO":11771,"MJe":11772,"ĠeJhbY":11773,"ĠHeJ":11774,"ĠQGg":11775,"WhGd":11776,"ĠJMGhdjf":11777,"ĠGdShA":11778,"ĠJbOegG":11779,"VGI":11780,"ĠGUGHY":11781,"ĠGdMeV":11782,"SjH":11783,"ĠeJYOO":11784,"ĠGfJbdJ":11785,"ĠGOQGc":11786,"ĠGdedGFeI":11787,"ĠLGdS":11788,"hbG":11789,"Ġhjbhd":11790,"ĠQhMj":11791,"ĠGVWQQJ":11792,"NjQI":11793,"ĠdYe":11794,"deJ":11795,"JjQj":11796,"ĠeSJeQI":11797,"ĠGYQagG":11798,"ĠbHdI":11799,"agPG":11800,"ĠddJU":11801,"ĠJWdY":11802,"ĠGYdfJ":11803,"ĠGdJcdaI":11804,"ĠGdYT":11805,"Pjc":11806,"aSjQ":11807,"Ġajce":11808,"aef":11809,"jeR":11810,"ĠMOO":11811,"ĠhJWhjQ":11812,"Uejf":11813,"ĠGdgLeGJ":11814,"ĠQg":11815,"ĠGdedcj":11816,"GdfaW":11817,"hGS":11818,"ghOj":11819,"ĠJGNjQ":11820,"GfeGQ":11821,"fJj":11822,"ĠGfYbGO":11823,"ĠGdLRQjI":11824,"ĠGOG":11825,"ĠGdYGdjI":11826,"SGbhd":11827,"ĠbfGg":11828,"ĠbWGQ":11829,"ĠGdfbGW":11830,"ĠVHW":11831,"eLI":11832,"ĠQDjJj":11833,"TJQGc":11834,"ĠhGdUMI":11835,"ĠGSJKfGA":11836,"ĠGcdJ":11837,"ĠGdYfGjI":11838,"ĠePfH":11839,"GfeQc":11840,"RdL":11841,"ĠGdYdej":11842,"ĠMjR":11843,"ĠZO":11844,"ĠhGdUjf":11845,"GdfG":11846,"eGPL":11847,"JhbjY":11848,"ĠHGdGWaGd":11849,"jYJbO":11850,"ĠGdSLdGJ":11851,"ĠGdSHGb":11852,"ĠdehGLgI":11853,"ĠeDde":11854,"ĠaRJ":11855,"fGYI":11856,"ĠfOY":11857,"ĠhGNQ":11858,"GHjH":11859,"ĠYUjQ":11860,"JeS":11861,"ĠhGdSjOI":11862,"ĠGdeHGdZ":11863,"QNGA":11864,"ĠfabGJ":11865,"hdjO":11866,"JYOj":11867,"ĠRjJ":11868,"bWg":11869,"ĠGdGdI":11870,"ajb":11871,"hSjchf":11872,"ĠGdSLfGA":11873,"ĠGdPGcQI":11874,"ĠMQI":11875,"ĠJbJQM":11876,"ĠcGfh":11877,"fT":11878,"ĠfUjMI":11879,"ĠGHdGZ":11880,"ĠGdQGgfI":11881,"ĠJRhLJ":11882,"baR":11883,"jQJ":11884,"GUeJ":11885,"ĠGfPGQ":11886,"ĠGdaYdjI":11887,"fSJWjY":11888,"ĠSdH":11889,"ĠGdJYdjejI":11890,"ĠGdYdj":11891,"SGYWjc":11892,"HGOdI":11893,"ĠGfaSce":11894,"TjF":11895,"ĠJQaY":11896,"ĠYGej":11897,"ĠeOG":11898,"ĠGdchc":11899,"ĠhLOJgG":11900,"ĠGdceHjhJQ":11901,"GfjGJ":11902,"ĠGdeONd":11903,"ĠJNJGQ":11904,"MQcI":11905,"ĠGdePchQ":11906,"ĠGdGHWGd":11907,"ĠdeQGbHI":11908,"YHK":11909,"ĠJLGQjI":11910,"ĠGdeSJYe":11911,"ĠbdHjI":11912,"ĠhLggG":11913,"ĠddR":11914,"ĠdGTjA":11915,"ĠGdeHGTQI":11916,"aYdG":11917,"ĠeMGce":11918,"ĠGdeSQ":11919,"ĠHGdZI":11920,"ĠGdfXGag":11921,"ĠGdfRGYGJ":11922,"ĠGJe":11923,"ĠHGdGJUGd":11924,"ĠHGR":11925,"ĠVQQ":11926,"ĠeNje":11927,"TGO":11928,"ĠNGf":11929,"ĠTYGQ":11930,"ĠGdYeOI":11931,"hGQJ":11932,"ĠJYjf":11933,"hWI":11934,"ĠcOg":11935,"ĠjfJXQhf":11936,"ĠGdTQja":11937,"ĠGdfehPL":11938,"QHjG":11939,"ĠGhf":11940,"ĠGdJhJQ":11941,"ĠQLYJ":11942,"gjFGJ":11943,"ahQ":11944,"ĠhbHd":11945,"ĠGdJMQjQ":11946,"SGh":11947,"ĠGdecGdeI":11948,"ĠJajO":11949,"bJge":11950,"ĠGdZQ":11951,"ĠGdZfGA":11952,"YHQ":11953,"jQj":11954,"hRhf":11955,"Gdejf":11956,"ĠGdGfc":11957,"ĠGdMjhGf":11958,"cJc":11959,"djgG":11960,"PGFa":11961,"ĠGdeTQOjf":11962,"ĠjJMed":11963,"ĠGdefGRd":11964,"ĠGdaMU":11965,"ĠgGjJj":11966,"ĠeYbOI":11967,"ĠJLQD":11968,"RGc":11969,"ĠJbOeG":11970,"ĠGdSjfeG":11971,"ĠGNHQgG":11972,"ĠhGdLQjeI":11973,"JQcJ":11974,"abQ":11975,"ĠSYO":11976,"ĠhGdeGdjI":11977,"ĠOGNdjI":11978,"ĠHGdehVhY":11979,"ĠGdGMJLGR":11980,"eJfG":11981,"ĠHjOj":11982,"ĠGfTG":11983,"ĠNUj":11984,"ĠGdJGNjQ":11985,"ĠGdaGS":11986,"ĠeNWFI":11987,"ĠZjQc":11988,"hefP":11989,"ĠddehJ":11990,"efg":11991,"ĠGdGYQGV":11992,"ĠgGQaj":11993,"LYdg":11994,"ĠLjJ":11995,"bJGf":11996,"GLYd":11997,"hGdJ":11998,"ĠeThT":11999,"ĠgGPj":12000,"ahVjI":12001,"QGFMI":12002,"ĠGdYGLd":12003,"ĠehdO":12004,"HNjQ":12005,"ajR":12006,"ĠebJQMGJ":12007,"ĠGdeMJedI":12008,"ĠGSYO":12009,"ĠUGe":12010,"ĠeMJGL":12011,"ĠcPHI":12012,"ĠGdOQLGJ":12013,"YWGA":12014,"ĠecGJH":12015,"GfSGfjI":12016,"ĠedGFe":12017,"ĠHjQj":12018,"ĠedcjI":12019,"NHQg":12020,"ĠGdcTa":12021,"ĠGdHMQj":12022,"ĠGLGHI":12023,"ĠcdGceG":12024,"TGQGJ":12025,"GFaI":12026,"MfI":12027,"ĠHeaQOc":12028,"ĠMJeG":12029,"hGQH":12030,"ĠGdJTjcjI":12031,"ĠPcQi":12032,"ĠGdTjF":12033,"ĠGdJhbjJ":12034,"ĠHGg":12035,"SDGd":12036,"ĠajdjH":12037,"ĠMRjf":12038,"ĠhdPdc":12039,"dM":12040,"ĠeMJhi":12041,"ĠeMaX":12042,"ĠSJaYdg":12043,"LhQ":12044,"ĠGdYbdjI":12045,"ĠUaha":12046,"ĠKGf":12047,"ĠHGJQjc":12048,"ĠLH":12049,"ĠJfGhdJ":12050,"ĠeYGdj":12051,"HgPg":12052,"GHgI":12053,"ĠfYQag":12054,"ĠhLOhG":12055,"ĠabGd":12056,"aYjd":12057,"aQZ":12058,"QHhd":12059,"ĠQGjGf":12060,"ĠdNOeI":12061,"ĠHdjhf":12062,"ĠjJMOKhf":12063,"ĠHGdSjGQI":12064,"ĠGJNPJgG":12065,"JQi":12066,"aQOj":12067,"ĠGbVj":12068,"OjS":12069,"ĠdJc":12070,"ĠGdMdbGJ":12071,"LGe":12072,"ĠGPgHhG":12073,"ĠQZHI":12074,"ĠdGLdg":12075,"ĠGNef":12076,"ĠJHYO":12077,"dfQi":12078,"GdJjf":12079,"ĠJbQ":12080,"GdHGH":12081,"hMjI":12082,"ĠJJYQV":12083,"GSJjbX":12084,"HQY":12085,"ĠeJGMI":12086,"ĠdYedjGJ":12087,"ĠGNPc":12088,"GdaJGI":12089,"ĠGdGWd":12090,"bGf":12091,"ĠGdQF":12092,"ĠJjQ":12093,"WGH":12094,"ĠGdYGg":12095,"ĠabOfG":12096,"ĠQhYg":12097,"eNjH":12098,"ĠGdUjfjI":12099,"ĠHcdeI":12100,"ĠGdecJHI":12101,"ĠjSde":12102,"ĠGMXi":12103,"ĠhGQJ":12104,"ĠhbJj":12105,"GdOcJhQ":12106,"ĠHGdK":12107,"ĠjfWHb":12108,"ĠHSdGe":12109,"GdeSJ":12110,"Wai":12111,"ĠefJLGJ":12112,"ĠGdfaSjI":12113,"ĠjUjQ":12114,"ĠGdcGS":12115,"cdeI":12116,"ĠfjQ":12117,"ĠNWhQI":12118,"RhLJj":12119,"ĠJaJjT":12120,"ĠcjhJh":12121,"ĠcGQjf":12122,"ĠfGFe":12123,"ĠGdeJGHYI":12124,"eQVj":12125,"ĠeSJQ":12126,"hajg":12127,"ĠeSDhdI":12128,"ĠhGdJbjje":12129,"ĠGdbje":12130,"ĠGdjhfGf":12131,"ĠGdcGajI":12132,"ĠbOegG":12133,"GdPgGH":12134,"Ġfd":12135,"ĠhdjSJ":12136,"ĠGdJcja":12137,"ĠGdeSe":12138,"ĠeGfj":12139,"ĠGTGQJ":12140,"ĠGdHjQI":12141,"ĠGdche":12142,"ĠGdOHdheGSjI":12143,"ĠGdfehPLj":12144,"OYfi":12145,"OYhfj":12146,"ĠYHA":12147,"eGYGJ":12148,"ĠjSbW":12149,"ĠeJa":12150,"ĠGdYdeGA":12151,"ĠGdGVhGA":12152,"Ġajfj":12153,"ĠGdGMdGe":12154,"ĠLYdJfj":12155,"ĠQShe":12156,"OjGf":12157,"ĠbOQgG":12158,"ĠGYfjg":12159,"ĠUGOb":12160,"ĠYLdI":12161,"TZd":12162,"NUUGJ":12163,"eJjf":12164,"ĠGdGeSGc":12165,"ĠGYWGfj":12166,"hUdJ":12167,"JXf":12168,"ĠGdebYO":12169,"ĠGdUGQ":12170,"ĠNGO":12171,"ĠGdGefj":12172,"GgOGa":12173,"ĠeGOj":12174,"ĠaYdjG":12175,"Na":12176,"ĠJSej":12177,"GSJNOe":12178,"ĠcGejQGJ":12179,"ĠaQL":12180,"ĠbdbgG":12181,"ĠGdQGHWI":12182,"LGHjI":12183,"fRGfI":12184,"ĠdJZWjI":12185,"ĠGdGdj":12186,"ĠGdGhdhjGJ":12187,"ĠQGL":12188,"cdjf":12189,"ĠJYRR":12190,"ĠhJfXje":12191,"ĠOd":12192,"ĠSJS":12193,"ĠGdeOjfg":12194,"ĠGdJSdje":12195,"ĠJMK":12196,"ĠGdeSJNOe":12197,"ĠdMeG":12198,"ĠHbhd":12199,"ĠhdLfI":12200,"ĠGNJQGb":12201,"ĠLfjg":12202,"ĠJOhQ":12203,"ĠGdJGgjd":12204,"ĠJfbd":12205,"ĠHHWA":12206,"ĠHGddZI":12207,"ĠedMhX":12208,"ĠeLGfj":12209,"ĠGYeGdgG":12210,"bGVj":12211,"ĠRGc":12212,"ĠOaG":12213,"ĠGdGHJOGFjI":12214,"ĠGfNaV":12215,"ĠWadj":12216,"ĠYTj":12217,"ĠMUGf":12218,"ĠYedjG":12219,"ĠHGQY":12220,"ĠefWbjG":12221,"ĠGdbQjH":12222,"ĠdGHGS":12223,"ĠGgJeGeG":12224,"ĠGdHK":12225,"MJaX":12226,"cGJg":12227,"hNdGd":12228,"ĠJYHK":12229,"ĠddeQ":12230,"ĠGdehMOI":12231,"ĠehLR":12232,"ĠcGejQG":12233,"jJh":12234,"ĠhecJH":12235,"GfJc":12236,"hXGFa":12237,"ĠGdVYa":12238,"ĠGfaLGQ":12239,"ĠcGdY":12240,"HN":12241,"GgOg":12242,"ĠGOjf":12243,"ĠOeQ":12244,"ĠGdNWW":12245,"KeGfjI":12246,"HOI":12247,"ĠGdHWhdI":12248,"ĠeJGNQG":12249,"ĠGdGYdGfGJ":12250,"ĠbHdJ":12251,"MHjHJj":12252,"TGI":12253,"ĠJSdjeG":12254,"ĠjUdM":12255,"HShf":12256,"ĠHQGjf":12257,"ĠGNaGA":12258,"ĠGdNGWF":12259,"GHQ":12260,"dGHS":12261,"VMGjG":12262,"ĠjefY":12263,"ĠeJGH":12264,"fjgG":12265,"ĠWg":12266,"ĠGdfLGI":12267,"ĠGdabjQI":12268,"ĠhceG":12269,"ĠddJfajP":12270,"ĠGRYL":12271,"ĠGdGjeGf":12272,"ĠHbfGJj":12273,"ĠNWGc":12274,"GdfXQ":12275,"ĠjMd":12276,"GdGQ":12277,"jLOQ":12278,"ĠGdSGMd":12279,"ĠGhGab":12280,"ĠGSJYed":12281,"ĠQHM":12282,"ĠeGQL":12283,"ĠJbJQH":12284,"Ġhcf":12285,"ĠeJRhLI":12286,"ĠGdJMGda":12287,"eSJMjd":12288,"Ġcjdhe":12289,"YL":12290,"Sej":12291,"ĠGYdGe":12292,"hXjaI":12293,"Sec":12294,"TajGJ":12295,"OeL":12296,"ĠeGfY":12297,"ĠGdGQgGHjjf":12298,"ĠZWGA":12299,"ĠHQDjJc":12300,"ĠjeGQS":12301,"HWGf":12302,"ĠhGdehGQO":12303,"ĠJcSGS":12304,"ĠhGR":12305,"ejdg":12306,"GdWHjH":12307,"ĠGNHQj":12308,"WQGa":12309,"ĠGdJYOjdGJ":12310,"ĠQgf":12311,"QjOG":12312,"ĠGdfbGT":12313,"JYGdi":12314,"ĠGdJZjjQGJ":12315,"ĠGdhGbYI":12316,"ĠHdj":12317,"ĠdGSJYQGV":12318,"ĠeGQjG":12319,"ĠLSOj":12320,"ĠGdHGdZI":12321,"GdMdbI":12322,"ejeI":12323,"ĠSGc":12324,"ĠHdOg":12325,"ĠGdhQbI":12326,"hGOQ":12327,"ĠUGMHj":12328,"ĠGNQG":12329,"ĠGdQGFO":12330,"ĠYTJ":12331,"Gedjf":12332,"ĠeJYI":12333,"SjJe":12334,"ĠQLGdc":12335,"ĠeDTQGJ":12336,"JNjd":12337,"Ġbhdj":12338,"ĠJQaV":12339,"eGb":12340,"GeQGI":12341,"ĠfjLjQjG":12342,"ĠNSGFQ":12343,"ĠGddhe":12344,"ĠGdGNWGA":12345,"ĠejS":12346,"ĠSMQ":12347,"ĠGdecQ":12348,"hGYQH":12349,"ĠOQGSGJ":12350,"ĠhZO":12351,"ĠeQGg":12352,"def":12353,"ĠhGdGU":12354,"ĠYQHI":12355,"ĠeGQchS":12356,"ĠGeLO":12357,"hLOfG":12358,"bjbG":12359,"ĠGUHY":12360,"YahG":12361,"ĠYOje":12362,"ĠKhGf":12363,"PcQj":12364,"ĠGNdGb":12365,"ĠcQSj":12366,"ĠUdH":12367,"ĠHYOg":12368,"ĠGdUfGYj":12369,"ĠRLGLI":12370,"ĠJTG":12371,"ĠJfXe":12372,"ĠbaR":12373,"Sja":12374,"ĠNWQG":12375,"ĠGdeDSSjI":12376,"ĠSdjeI":12377,"ĠSGfO":12378,"ĠGdNSGQI":12379,"dfOj":12380,"ĠGdHOjdI":12381,"GJG":12382,"ĠPgHhG":12383,"ĠhJU":12384,"ĠGdeJHbjI":12385,"dGOjT":12386,"ĠGSJNOGeg":12387,"ĠJYgO":12388,"SjOGJj":12389,"jdh":12390,"ĠWdHG":12391,"ĠdjHQjG":12392,"ĠGdHjJRG":12393,"ĠGdVh":12394,"ĠUhJg":12395,"ĠHeQMdI":12396,"ĠcgQHG":12397,"ĠMOG":12398,"ĠddHYKI":12399,"ĠcGPH":12400,"ĠaNhQI":12401,"ĠGdeMGOKI":12402,"ĠLPG":12403,"ĠGhdjaQ":12404,"jeQ":12405,"ĠGdOaYI":12406,"hUa":12407,"ĠHTGfc":12408,"ĠOi":12409,"ĠGdMSG":12410,"ĠGLQ":12411,"dGjhLO":12412,"adM":12413,"Kg":12414,"ĠddGJaGbjI":12415,"ĠaSG":12416,"ĠYdjG":12417,"ĠeLGfjI":12418,"ĠbOeJgG":12419,"ĠeLfhfG":12420,"ĠLeYjI":12421,"gddOjc":12422,"GacQ":12423,"ĠGjUGd":12424,"ĠGdjShf":12425,"hGjf":12426,"ĠeJe":12427,"HGdVHW":12428,"ĠUhJG":12429,"ĠGJRhL":12430,"ĠSGaYdg":12431,"ĠGdSYjO":12432,"ĠGdSLhf":12433,"ĠeLj":12434,"hSe":12435,"ĠhQMeI":12436,"hfYe":12437,"ĠGdJYQV":12438,"ĠHMKJ":12439,"ĠeTJHg":12440,"YQj":12441,"ĠGYJfj":12442,"ĠdhMOg":12443,"ĠeSdM":12444,"ĠYHbQj":12445,"ĠGdaLQ":12446,"ĠJTJQc":12447,"ĠfaSi":12448,"adhf":12449,"fRhjdG":12450,"ĠGdeJhbYI":12451,"ĠGdebGheI":12452,"ĠheQ":12453,"ĠKfGFj":12454,"ĠjOd":12455,"ĠGdHVGFY":12456,"Ġcjdh":12457,"ĠcfJeG":12458,"HGecGfj":12459,"ĠGUfY":12460,"GNHQg":12461,"ĠGdNQ":12462,"ĠGcOJ":12463,"hajG":12464,"ĠXgQj":12465,"ĠMQajG":12466,"OYi":12467,"ĠeROhL":12468,"ĠfSJNOe":12469,"ĠUQa":12470,"ĠGdQjGVj":12471,"ĠGdMQejf":12472,"ĠhGdJhUjGJ":12473,"ĠHGdJbQjQ":12474,"eJGcO":12475,"ĠGfgV":12476,"ĠhSGFW":12477,"GdGK":12478,"ĠGdcdj":12479,"ĠGdeXde":12480,"ĠJOjf":12481,"ĠeSGHbI":12482,"ĠGdHbjI":12483,"ĠHMKG":12484,"ĠGOYc":12485,"ĠGYbGH":12486,"ĠHGF":12487,"ĠGdhGj":12488,"dGej":12489,"ĠhPcQ":12490,"hRY":12491,"ĠGdeQLY":12492,"ĠjMO":12493,"ĠeNGWQ":12494,"ĠGdGfU":12495,"GJUdJ":12496,"ĠJbje":12497,"bWGJ":12498,"ĠeMXhXI":12499,"ĠfjhRjdfOG":12500,"ĠedaGJ":12501,"Ġjhdjh":12502,"GdGZ":12503,"ĠOH":12504,"ĠghH":12505,"ĠGdeYGedGJ":12506,"ĠGdShaj":12507,"ĠdbQGQ":12508,"ĠejGej":12509,"ĠhefY":12510,"ĠfSHjG":12511,"ĠTHM":12512,"ĠTGHI":12513,"ĠGdePcQI":12514,"NWi":12515,"ĠhGdhdGjGJ":12516,"ĠHcQ":12517,"ĠehGVjY":12518,"ĠYOOge":12519,"ĠHgeG":12520,"gOjI":12521,"Ġjcad":12522,"ĠGQGgf":12523,"ĠjQMd":12524,"ĠGdebOSI":12525,"hVG":12526,"GeGcf":12527,"ĠHdLjcG":12528,"jecfg":12529,"ĠhGdRQGYI":12530,"ĠdObjbI":12531,"ĠJSJgOa":12532,"ĠGdabQJjf":12533,"ĠjYHQ":12534,"ĠJNW":12535,"ĠeMbb":12536,"ebQGWj":12537,"MhGdj":12538,"ĠGdGHf":12539,"ĠGdMeOddg":12540,"hZh":12541,"ĠGJYGed":12542,"GTjGA":12543,"ĠSGSJ":12544,"hGdjO":12545,"ĠhGdJY":12546,"ĠGYJQGa":12547,"ĠeXde":12548,"ĠHeaQOj":12549,"ĠJJeJY":12550,"GdMb":12551,"ĠGdGfM":12552,"ĠGPfc":12553,"ĠQMeI":12554,"GdGa":12555,"ĠGTjQ":12556,"ĠjNGa":12557,"ĠHfaSgG":12558,"ĠdHQjWGfjG":12559,"ĠGdHfhO":12560,"ĠjShj":12561,"ĠYdej":12562,"YeG":12563,"hQi":12564,"ĠHQGhf":12565,"ĠMjhGfGJ":12566,"ĠGMaX":12567,"ĠSfLO":12568,"ĠJcaj":12569,"ĠGLdgG":12570,"ĠecJHc":12571,"ĠJQjOjfg":12572,"ĠeMGU":12573,"ĠGdJNdj":12574,"ĠJTQjYGJ":12575,"ĠaQGf":12576,"ĠjZWj":12577,"ĠcYcI":12578,"ĠObjb":12579,"ĠJGjdhQ":12580,"ĠGdNdGjG":12581,"Gge":12582,"ĠGdchd":12583,"cTa":12584,"ĠQLGdj":12585,"ĠjTGQc":12586,"ĠhhabG":12587,"ĠNGJe":12588,"ĠGJUGdGJ":12589,"ĠdGRGd":12590,"ĠeSGgeI":12591,"ĠJecjf":12592,"ĠGdJhGRf":12593,"WGI":12594,"ĠUGQJ":12595,"ĠJfhj":12596,"Ġgjcd":12597,"ĠcaGAI":12598,"ĠddGeQ":12599,"MQQ":12600,"NdY":12601,"ĠGLJeGYjI":12602,"WGQO":12603,"ĠJahR":12604,"ĠHGdeGd":12605,"ĠSGHbi":12606,"PHI":12607,"ĠeDbJI":12608,"hJTed":12609,"ĠePcQ":12610,"ĠGdWGQ":12611,"ĠGdQLhY":12612,"ĠhHQcGJg":12613,"bGWYGJ":12614,"fGRjQ":12615,"gOG":12616,"ĠHGdHMK":12617,"UjH":12618,"Vhf":12619,"ĠjaYdhG":12620,"ĠOGjdQ":12621,"GdYejd":12622,"ĠdJbjje":12623,"ĠGhcQGfjG":12624,"QGFjI":12625,"ĠHQjWGfjG":12626,"ĠcGSJ":12627,"ĠGMJQGej":12628,"YjgG":12629,"ĠGdeYhfI":12630,"YGhO":12631,"ĠSjGQg":12632,"LRGFQ":12633,"ĠfGOQ":12634,"ĠfhhjI":12635,"ĠSJQ":12636,"ĠGdbHh":12637,"ĠGddPj":12638,"ĠcSQJ":12639,"ĠGdfbOjI":12640,"ĠGdjefi":12641,"GPgHhG":12642,"ĠdgeG":12643,"ĠeSc":12644,"ĠJQhj":12645,"Ġjchfhf":12646,"ĠGdacQjI":12647,"ĠJeOjO":12648,"UOjQ":12649,"ĠjLdH":12650,"Mfg":12651,"LGS":12652,"MGdI":12653,"ĠGdTYHI":12654,"LGj":12655,"ĠGdJbjJ":12656,"hQe":12657,"Yb":12658,"ĠGdHMQjf":12659,"jGOGJ":12660,"JfGY":12661,"ĠeFI":12662,"ĠMhG":12663,"ĠGdLdSGJ":12664,"ĠOGja":12665,"ĠeSJGA":12666,"ĠGJGMI":12667,"ĠGNHQfG":12668,"ĠTQjQ":12669,"ĠQhGfOG":12670,"ĠJbGH":12671,"ĠGdjhfjOh":12672,"TQhW":12673,"ĠGdGcS":12674,"ĠGdGSJYOGO":12675,"ĠGdSJI":12676,"ĠGdeTgO":12677,"YR":12678,"ĠHdOfG":12679,"ĠHjQh":12680,"bjG":12681,"XGgQI":12682,"ĠhGdh":12683,"ĠTGa":12684,"ĠGVMc":12685,"ĠJTGA":12686,"HYOgG":12687,"ĠJYHQ":12688,"ĠgGFdI":12689,"ĠHGQcQ":12690,"aQJ":12691,"ĠGdeHQ":12692,"ĠaGQZI":12693,"ĠGddGYHjf":12694,"LYdfj":12695,"ĠdjTJj":12696,"HUQGMI":12697,"NQGL":12698,"ĠGQLhce":12699,"ĠGaYGd":12700,"ĠhaOg":12701,"ĠGdGSJYeGQ":12702,"ĠjOjQ":12703,"ĠjJHbi":12704,"ĠGdMaQ":12705,"ĠbfGJc":12706,"ĠGdGjLGHjI":12707,"ĠGdJeQ":12708,"GFfG":12709,"ĠGdGQHY":12710,"ĠGQjOgG":12711,"ĠhWdH":12712,"NHQGA":12713,"djeI":12714,"ĠGNWGA":12715,"ĠejdGOj":12716,"ĠSjSGYO":12717,"ĠGdbOjS":12718,"ĠHGfTWI":12719,"ĠcHQ":12720,"ĠGdHMjQI":12721,"JYfj":12722,"ĠGdQHjY":12723,"ĠYhGed":12724,"ĠaGfc":12725,"ĠUhJj":12726,"ĠGQg":12727,"ĠddHjY":12728,"ĠSGMUd":12729,"GYWjfj":12730,"GdWQjb":12731,"ĠhGdeM":12732,"HSQYI":12733,"ĠeecfI":12734,"ĠehY":12735,"Gedg":12736,"HjfG":12737,"ĠMhdgG":12738,"jGdgG":12739,"ĠGdGYJfGA":12740,"ĠhdgPG":12741,"ĠjefM":12742,"ĠJfSj":12743,"ĠGdjRGHjK":12744,"ghQI":12745,"ĠefJXeI":12746,"ĠGdegfj":12747,"ĠhMeG":12748,"ĠObjbJjf":12749,"ĠLhQ":12750,"ĠGZdbJ":12751,"ĠhGdOhdjI":12752,"GfJXQhG":12753,"ĠeLjO":12754,"ĠGhdhjGJ":12755,"ĠGaSOJ":12756,"jaGf":12757,"ĠddGTNGU":12758,"ĠGdLdjO":12759,"eYg":12760,"ĠGdGJaGbjGJ":12761,"ĠQhJ":12762,"ĠbjGS":12763,"jJce":12764,"ĠaFGJ":12765,"ĠhbG":12766,"ĠhXjajI":12767,"ĠGdGMUGFjI":12768,"ĠjSJYed":12769,"ĠOaGY":12770,"ĠedGMXGJ":12771,"ĠLQGMI":12772,"ĠQej":12773,"ĠHdGOj":12774,"ĠeUd":12775,"ĠfJefi":12776,"ĠfeW":12777,"ĠGdGegGJ":12778,"ĠGdedGjjf":12779,"ĠGdZGjI":12780,"ĠegJeG":12781,"ĠhLYd":12782,"GTjI":12783,"ĠedjA":12784,"ĠGZjQ":12785,"ĠeeGQSGJ":12786,"ĠSFeJ":12787,"Ġehc":12788,"ĠjROGO":12789,"hGOhQ":12790,"QHY":12791,"ĠGdeYGQa":12792,"ĠJNVY":12793,"ĠSNjaI":12794,"ĠJhUjd":12795,"ĠfHV":12796,"ĠZQGe":12797,"NGFQ":12798,"ĠhQWI":12799,"bGI":12800,"ĠGJfGhd":12801,"ĠGdeUGHjf":12802,"GdYe":12803,"ĠHYedjGJ":12804,"ĠHGYJeGO":12805,"ĠjhQh":12806,"SJJ":12807,"ĠGQgGHj":12808,"ĠLOI":12809,"ĠGMJGLg":12810,"ĠJfWhj":12811,"ĠdWdH":12812,"ĠeMdj":12813,"jOjG":12814,"ĠGSJjbXJ":12815,"ĠGdJWHjb":12816,"ĠJhGaQ":12817,"fGaS":12818,"ĠgJ":12819,"ĠGdGjLGQ":12820,"ĠYOfG":12821,"ĠjehJhf":12822,"Seg":12823,"ĠXde":12824,"ĠYedGA":12825,"ĠNQjWI":12826,"ĠhGdYG":12827,"ĠGdhXja":12828,"SQWGf":12829,"jSi":12830,"JeGYGJ":12831,"VdG":12832,"HGFd":12833,"ĠeDgd":12834,"ĠHfLGM":12835,"ĠhGdOYe":12836,"OGH":12837,"ĠGdGdeGfjI":12838,"ĠcT":12839,"ĠfJMQc":12840,"YJge":12841,"bQjHG":12842,"ĠJMd":12843,"SJjGf":12844,"ĠGdPgHjI":12845,"GdMUhd":12846,"ĠcGjJ":12847,"ĠYbhd":12848,"ĠGddhQO":12849,"GSegG":12850,"ĠGgQH":12851,"ĠSGS":12852,"bGdg":12853,"ĠGQOfG":12854,"ĠHbdjd":12855,"hgQGJ":12856,"ĠGdfeSG":12857,"ĠGdcHO":12858,"ĠGQhY":12859,"ĠJLj":12860,"Ġjhab":12861,"Kjh":12862,"ĠeGQTGd":12863,"GQjcG":12864,"ĠddefJ":12865,"ĠYSd":12866,"ĠKGd":12867,"ĠGdYah":12868,"ĠGdeMH":12869,"bGbjQ":12870,"Ġhjchf":12871,"ĠajLH":12872,"ĠGdafGf":12873,"UYO":12874,"hGVM":12875,"ĠGNhGf":12876,"ĠJda":12877,"ĠJGjdQ":12878,"ĠGeGfOG":12879,"ĠKbGaI":12880,"ĠJLGQI":12881,"ĠeUfY":12882,"OM":12883,"bJQGM":12884,"ĠGdRjGQI":12885,"ĠQGSgG":12886,"ĠhGJaGbjI":12887,"ĠGdGTgQ":12888,"ĠGdXd":12889,"ĠhGjO":12890,"Vjb":12891,"ĠeJdGReI":12892,"ĠjTLY":12893,"ĠGSJF":12894,"hGJjQ":12895,"ĠjKb":12896,"jGJj":12897,"gGL":12898,"ĠHOjd":12899,"ĠhQUO":12900,"ĠLYdg":12901,"ĠJLgjR":12902,"ĠdGfTGA":12903,"GHG":12904,"ĠGHhS":12905,"ĠGdJfjf":12906,"ĠJJNjd":12907,"ĠGdJhGLO":12908,"TQg":12909,"ĠcGfJJ":12910,"ĠGdeNje":12911,"ĠGdfaGP":12912,"NPgG":12913,"ĠJQGbH":12914,"ĠScjf":12915,"ĠjQMH":12916,"jQf":12917,"hVj":12918,"TjhS":12919,"ĠcLRA":12920,"ĠGNQS":12921,"OjQI":12922,"ĠhGdaJjGJ":12923,"ĠGdSY":12924,"ĠGdMedI":12925,"ĠHYhOJc":12926,"cQe":12927,"ĠGVZW":12928,"ĠGdcgQHGFjI":12929,"hMO":12930,"ĠGdLfGM":12931,"ĠddeOQSI":12932,"ĠGbJUGOjI":12933,"ĠfGed":12934,"ĠGdYGUaI":12935,"ĠeDNQJj":12936,"YdjbGJ":12937,"NWhI":12938,"ĠLQYI":12939,"ĠefRdfG":12940,"ĠhGdGSJbQGQ":12941,"ĠGdGeS":12942,"ĠGdeJVQ":12943,"ĠjNHQc":12944,"ĠHQabI":12945,"QcjR":12946,"jhfS":12947,"ĠGfXeI":12948,"ĠddTYH":12949,"GJf":12950,"SGQGc":12951,"SN":12952,"Ydjb":12953,"SQQJ":12954,"ĠZGQ":12955,"ĠJMWe":12956,"ĠhQOJ":12957,"ĠQNUI":12958,"ĠGSJK":12959,"ĠfaPJ":12960,"ĠeKGd":12961,"ĠddQLd":12962,"ĠHGQOI":12963,"JTGQdj":12964,"ĠddeTGQcI":12965,"MXJ":12966,"YjH":12967,"ĠddONhd":12968,"FS":12969,"ĠGfWdb":12970,"ĠeNJHQ":12971,"ĠHGOGQI":12972,"ĠeZQ":12973,"ĠdGUdGM":12974,"MJce":12975,"ĠdGjJ":12976,"ĠeUGHI":12977,"ĠGdQheGf":12978,"ĠGbJQH":12979,"ĠeaGJjM":12980,"ĠGfJNGHGJ":12981,"ĠYScQj":12982,"YOfG":12983,"ĠGdfGFH":12984,"ĠdLeghQjI":12985,"UQG":12986,"ĠcGJH":12987,"ĠMGaX":12988,"ĠJMe":12989,"ĠhLhOc":12990,"ĠYbGH":12991,"ĠGdYjhf":12992,"ĠYQGbj":12993,"ĠGdUeJ":12994,"ĠLhfG":12995,"Udjf":12996,"ĠMGO":12997,"ĠGdNWhW":12998,"ĠZQG":12999,"ĠHJZjjQ":13000,"ĠeSJbd":13001,"ĠHGdVQhQI":13002,"ĠJSJYed":13003,"ĠjfGe":13004,"ĠGdeGfMjf":13005,"ĠGQOJg":13006,"ĠGdLSO":13007,"GUObGA":13008,"ĠYec":13009,"ĠdZQV":13010,"ĠhGNjQG":13011,"MGdeG":13012,"OQGf":13013,"ĠdhQjf":13014,"Gjjf":13015,"ĠhP":13016,"ĠGdVQH":13017,"ĠGYJUGe":13018,"ĠahJ":13019,"ĠJQjOj":13020,"hGaQ":13021,"ĠUOeI":13022,"ĠhJTLjY":13023,"hdOj":13024,"ĠWGHY":13025,"hGHb":13026,"ĠfSeY":13027,"ĠbQGHI":13028,"ĠGTYI":13029,"ĠjLYdg":13030,"ĠbPQ":13031,"ĠeLghd":13032,"ĠJMbbJ":13033,"ĠSO":13034,"ĠGdhU":13035,"ĠSbhW":13036,"ĠefS":13037,"ĠhYed":13038,"ĠHMce":13039,"ĠhGdeYdheGJ":13040,"ĠSJjaf":13041,"GMJaX":13042,"ĠGdLedI":13043,"ĠVQhQjI":13044,"ĠahGFO":13045,"ĠeaGhVGJ":13046,"ĠGdGeI":13047,"Ġjhfjh":13048,"Ġebd":13049,"ĠeJGNQI":13050,"ĠefGRd":13051,"ĠYGOdI":13052,"ĠGdSQjYI":13053,"ĠeYLRI":13054,"ĠSjJj":13055,"ĠGLeGdj":13056,"ĠbOej":13057,"ĠKHJ":13058,"ĠPcQjGJ":13059,"ĠGYJOJ":13060,"GQGjJ":13061,"Ġci":13062,"ĠeJGcOg":13063,"ĠGSJeJYJ":13064,"ĠhGdJS":13065,"ĠJQGeH":13066,"ĠhGZ":13067,"GQf":13068,"ĠGdTaGajI":13069,"hcjh":13070,"ĠeWdH":13071,"ZQaI":13072,"ĠGdeSHM":13073,"ĠGdeJMOK":13074,"ĠGdGNhI":13075,"HGfc":13076,"ĠMbhbge":13077,"ĠGdHGbj":13078,"ĠGdJbGW":13079,"ĠGdbfhGJ":13080,"Gfjhf":13081,"ĠSGMQI":13082,"ĠMRjfI":13083,"ĠGdaN":13084,"ĠMVQJ":13085,"ĠGdGSJFfGa":13086,"ĠGdeJcGedI":13087,"ĠGQgGHjI":13088,"ĠeSGYOJfG":13089,"ĠGdTQjQ":13090,"ĠddeYdheGJ":13091,"HQL":13092,"Pgd":13093,"ĠHGded":13094,"HGdc":13095,"ĠJSGhj":13096,"QLGY":13097,"ĠGYQHJ":13098,"ĠJeTj":13099,"ĠeeKdh":13100,"ĠGNhj":13101,"ĠJPcQJ":13102,"ĠMeQGA":13103,"ĠZQV":13104,"XheI":13105,"ĠeQJGM":13106,"Sdb":13107,"ĠGdejQjG":13108,"GMSf":13109,"ĠdJecjf":13110,"ĠjhUd":13111,"JgeG":13112,"ĠGHQR":13113,"ĠUfGOjb":13114,"LGQH":13115,"QeI":13116,"ĠjYbO":13117,"ĠGdeMdjjf":13118,"ĠGdafj":13119,"fGQjh":13120,"ĠGdeTai":13121,"GXffj":13122,"ebHhd":13123,"ĠGdUYHI":13124,"ĠHUa":13125,"ĠfhGLg":13126,"ĠGdaVGFj":13127,"ĠjQaV":13128,"ĠghO":13129,"ĠGdeGOjI":13130,"ĠGdGLQ":13131,"ĠfYjO":13132,"JHF":13133,"ĠPhb":13134,"MWe":13135,"ĠSJGNP":13136,"ĠfXQgG":13137,"QVi":13138,"ĠGdehMO":13139,"ĠJOeQ":13140,"ĠhGdOhdj":13141,"ĠMQb":13142,"ĠeHd":13143,"ĠGdJMhd":13144,"PhQ":13145,"GdjcS":13146,"ĠGdGYSGQ":13147,"Qcc":13148,"ĠdfXGe":13149,"Jcde":13150,"ĠGYJbGd":13151,"ĠHhSWf":13152,"ĠJHY":13153,"ĠGdegGQGJ":13154,"ĠhJN":13155,"ĠjNJGQ":13156,"ĠjajO":13157,"ĠTQGF":13158,"ĠGdHdOjI":13159,"ĠGdeQMGV":13160,"ĠUOjbG":13161,"ĠeWdb":13162,"ĠbHdG":13163,"ĠHGi":13164,"ĠGjQdfOG":13165,"cGa":13166,"ĠHGdhbJ":13167,"fGI":13168,"ĠedGMX":13169,"Tcjd":13170,"ĠdGMJ":13171,"ĠGdeJGYH":13172,"ĠGdefNaV":13173,"ĠHGdMH":13174,"ĠeJab":13175,"GfJG":13176,"jMJGL":13177,"ĠJZdb":13178,"UGMH":13179,"ĠdefGbTI":13180,"ĠgGOFG":13181,"ĠGdeYOI":13182,"ĠGdKfGFjI":13183,"Ġbhej":13184,"ĠJGNPj":13185,"ĠGdcK":13186,"ĠddefXeI":13187,"ĠjbWY":13188,"MhUGJ":13189,"Ġccd":13190,"UObfj":13191,"ĠJP":13192,"ĠeWdhH":13193,"ĠeJeG":13194,"ĠGdJUMQ":13195,"WGY":13196,"GOQc":13197,"ĠMbjQ":13198,"ĠGdfSGFjI":13199,"ĠGdGOeGL":13200,"ĠeYGgOGJ":13201,"ĠGdJYOjd":13202,"FQGf":13203,"GdGM":13204,"ĠjVef":13205,"Ġehdj":13206,"ĠQhHj":13207,"ĠhHe":13208,"ĠjfS":13209,"ĠLOhi":13210,"ĠHOY":13211,"ĠOQGL":13212,"ĠeSJYOjf":13213,"ĠYjfI":13214,"ĠGdeKjQI":13215,"ĠJJPcQjf":13216,"ĠGdNRGfI":13217,"haGA":13218,"ThI":13219,"ĠGdbdYI":13220,"ĠSGMQ":13221,"ĠSeM":13222,"ĠGdbQa":13223,"ĠjhdO":13224,"ĠGhZfOG":13225,"ĠOeL":13226,"ĠGdNQjWI":13227,"ĠGVQH":13228,"Gdhf":13229,"ĠGdJH":13230,"MGS":13231,"ĠQYG":13232,"OhQ":13233,"ĠGdeTQhHGJ":13234,"ĠGbJdg":13235,"ĠbVGFjI":13236,"ĠWGFQGJ":13237,"ĠHaYGdjI":13238,"ĠYdjI":13239,"ĠGdefM":13240,"ĠHUOO":13241,"ĠJLejY":13242,"ĠGdQGOjh":13243,"gdj":13244,"ĠGMJLGR":13245,"ĠQhfGdOh":13246,"ĠjJY":13247,"QjGd":13248,"ĠGYJHGQG":13249,"ĠWeh":13250,"ĠHhQJ":13251,"ĠGdTMf":13252,"ĠhGdeL":13253,"ĠGdScjf":13254,"ĠhGOj":13255,"ĠeGe":13256,"VGAI":13257,"ĠGdTjc":13258,"ĠjOYj":13259,"ĠGdHWf":13260,"ĠLeghQ":13261,"ĠGdeaQhVI":13262,"ĠGSJZaQGddg":13263,"ĠhbGe":13264,"ĠjYJQa":13265,"ĠGdeNO":13266,"ĠdGNJ":13267,"ĠLfGM":13268,"ĠHGMcGe":13269,"ĠGTJbJ":13270,"ĠJDjO":13271,"ZGa":13272,"cGS":13273,"fJgG":13274,"Kfj":13275,"ĠGYJGO":13276,"ĠGdGQjcI":13277,"GHbhG":13278,"Qei":13279,"ĠGdGZdH":13280,"ĠHJb":13281,"ĠHQGjc":13282,"hGfjI":13283,"ĠjJMbb":13284,"ĠGdTQGcGJ":13285,"ĠSajf":13286,"ĠdhL":13287,"ĠHfi":13288,"ĠGdJUeje":13289,"ĠeGjG":13290,"ĠGjejdj":13291,"YhHI":13292,"ĠHGdMb":13293,"ĠLSOc":13294,"ĠGdeSGYOGJ":13295,"dgi":13296,"ĠdjSG":13297,"ĠGeQGV":13298,"UOI":13299,"GdLRA":13300,"ĠGYOGA":13301,"HjGA":13302,"ĠGdOQhS":13303,"ĠJbGHdfG":13304,"ĠJMHgG":13305,"ĠGdPcQjGJ":13306,"jLYd":13307,"Qjjf":13308,"ĠGdbGSjI":13309,"Gfa":13310,"ĠGdQeR":13311,"jHI":13312,"fNH":13313,"ĠGdGfLdjRj":13314,"VGYa":13315,"fjGA":13316,"ĠHGdJhajb":13317,"ĠjMJaX":13318,"ĠdeTQhY":13319,"ĠeRQYI":13320,"ĠGdMVQjI":13321,"JeJY":13322,"ĠedehSI":13323,"ĠGdTQjMI":13324,"UMGH":13325,"ĠeajOG":13326,"GddYfg":13327,"ĠGdGSYGa":13328,"ĠGdjSQi":13329,"ĠHQO":13330,"ĠefXhQ":13331,"ĠadhQjOG":13332,"ĠGdLOQGf":13333,"ĠGdeTGgO":13334,"ĠbWGYGJ":13335,"hGfgG":13336,"fGOjb":13337,"ĠGdJfXja":13338,"ĠGYfi":13339,"ĠGdeYOd":13340,"ĠdjcS":13341,"ĠeVWQG":13342,"VYa":13343,"YcI":13344,"QJge":13345,"ĠSjW":13346,"ĠfZGOQ":13347,"ĠeJYG":13348,"ĠjGJi":13349,"hSjbi":13350,"Ġced":13351,"ĠGdMdbg":13352,"ĠGdMHd":13353,"ĠcGQhd":13354,"ĠhefXeGJ":13355,"ĠfYO":13356,"ĠeMGOKI":13357,"ĠGdJMOjO":13358,"TOI":13359,"ĠedYH":13360,"LQHI":13361,"GJab":13362,"ĠhGdGJLGQ":13363,"MbGbGJ":13364,"aQjf":13365,"GeQc":13366,"ĠGdSGYGJ":13367,"GdGSHhY":13368,"ĠGddGF":13369,"RYGJ":13370,"ĠjMce":13371,"ĠGdGVGaj":13372,"ĠGdSba":13373,"ĠXGgQI":13374,"ĠGNPhG":13375,"ĠdJN":13376,"GcfJ":13377,"ĠHaJM":13378,"ĠOhc":13379,"ĠZdWI":13380,"ĠGdebJQMGJ":13381,"ĠGdUfGYI":13382,"dhjS":13383,"ĠJSQb":13384,"ĠhdGjGJ":13385,"ĠeMed":13386,"UjdI":13387,"Gdedc":13388,"MjhGfGJ":13389,"ĠbjeJgG":13390,"ĠHGfJXGQ":13391,"ĠSGU":13392,"ĠGfJbGd":13393,"QJGf":13394,"ĠJJL":13395,"GMfGJ":13396,"ĠGfTFJ":13397,"hJge":13398,"ĠJLGQH":13399,"ĠGdHcGA":13400,"ĠddGZ":13401,"ĠGdTNUjGJ":13402,"ĠejdQ":13403,"ĠGdNWjQI":13404,"ĠJPcQI":13405,"ĠJJhdi":13406,"SdjI":13407,"ĠGdQaGb":13408,"ĠGdOhdGQGJ":13409,"ĠGdSdI":13410,"ĠdGGSJWjY":13411,"ĠeMW":13412,"cdge":13413,"ĠGOYGA":13414,"ĠVG":13415,"ĠUGObG":13416,"LgjR":13417,"fhYG":13418,"ĠGdGPG":13419,"ĠGdHfjI":13420,"ĠHUjZ":13421,"eGT":13422,"ĠGTjG":13423,"ĠjJeKd":13424,"ĠGdGfHYGKGJ":13425,"bJQH":13426,"GQJfG":13427,"bHGJ":13428,"OGQS":13429,"ĠGdYVdGJ":13430,"ĠdgDdGA":13431,"Ġdcfi":13432,"HGMjI":13433,"ĠhGdbVGA":13434,"ĠHhe":13435,"ĠGdbHj":13436,"ĠebOej":13437,"ĠGSJKeGQ":13438,"ĠjVQ":13439,"KdGKhf":13440,"aJjT":13441,"SQfj":13442,"cJhQjG":13443,"ĠjJhdi":13444,"GdjO":13445,"eJYI":13446,"ĠjGSjOj":13447,"Ojfj":13448,"ĠGdJZdH":13449,"ĠGdeYGfGI":13450,"HQg":13451,"ĠHeYfi":13452,"ĠGfR":13453,"ĠGNJWGa":13454,"GhdFc":13455,"ĠSYGO":13456,"ĠWQGR":13457,"ĠGSeYc":13458,"GjT":13459,"bOJ":13460,"ĠHGdabQI":13461,"ĠhjdShf":13462,"ĠaGQS":13463,"ĠGdOehjI":13464,"ĠebGJ":13465,"ĠGdfbjH":13466,"ĠOdjdG":13467,"ĠGHd":13468,"ĠGdYQHI":13469,"cJgG":13470,"ĠGdafGOb":13471,"ĠGeGfY":13472,"VYgG":13473,"ĠGdJfHD":13474,"ĠGdLQS":13475,"ĠGdGdGa":13476,"ĠGdeYGgO":13477,"MJge":13478,"ĠfGQjI":13479,"PcQc":13480,"ĠMRGe":13481,"ĠQhLQ":13482,"ĠdOhd":13483,"ĠddhbJ":13484,"SHjI":13485,"TGT":13486,"ĠfTha":13487,"ĠWGQFI":13488,"ĠeeJd":13489,"ĠddGaQGO":13490,"Mdi":13491,"ĠHfObjI":13492,"ĠfTYQ":13493,"ĠHObI":13494,"adjf":13495,"ĠJJQGhM":13496,"Hjdj":13497,"eYG":13498,"ĠGJVM":13499,"ĠJJQcfj":13500,"ĠGdGSJZdGd":13501,"YGQV":13502,"ĠHOaY":13503,"ĠchfZ":13504,"ĠGdWHjHI":13505,"ĠhZjQge":13506,"ĠdHQ":13507,"ĠGdGSHGfjI":13508,"ĠGdQSe":13509,"Gbd":13510,"ĠGdMGOKI":13511,"ĠGjLGOg":13512,"ĠHSd":13513,"ĠJSJfO":13514,"ĠVHGW":13515,"ĠOjQjc":13516,"ĠGjfeG":13517,"ĠGdKbGaj":13518,"fM":13519,"bhS":13520,"ĠGfV":13521,"ĠHhGHI":13522,"ĠGbGH":13523,"ĠebGheI":13524,"ĠddMcheI":13525,"Ġbde":13526,"ĠGdeOGaY":13527,"ĠGjQjc":13528,"ĠGdeYjTI":13529,"ĠdGaQjbjG":13530,"Ġcjaf":13531,"ĠddJLGQI":13532,"ĠQchH":13533,"ĠaR":13534,"Ġjcai":13535,"ĠSYjOg":13536,"JN":13537,"ĠVOg":13538,"ĠGJGHY":13539,"GdYRjR":13540,"ĠZQag":13541,"ĠhGJNGP":13542,"ĠjJYGed":13543,"ĠJDde":13544,"ĠdYHJ":13545,"ĠhecGaMI":13546,"ĠHGdLdhS":13547,"ĠSGJj":13548,"ĠdHbjI":13549,"ĠQajY":13550,"ĠjTajc":13551,"aJbO":13552,"ĠJQcJg":13553,"ĠGdeNGWQI":13554,"ĠHWQb":13555,"ĠGhe":13556,"hjHOh":13557,"ĠHhdfOG":13558,"ĠJQhf":13559,"ĠeVMcI":13560,"JYdehf":13561,"fGge":13562,"ĠGdGSJfJGLGJ":13563,"ĠGSF":13564,"SJchfjf":13565,"ĠGdJZPjI":13566,"GSag":13567,"ĠfJYGed":13568,"ĠhYdj":13569,"GeGe":13570,"ĠHGdJY":13571,"ĠehGYjO":13572,"ĠeSj":13573,"ĠTGF":13574,"ĠhGdOI":13575,"ĠHQdjf":13576,"ĠGdGfhGY":13577,"ĠGQGbH":13578,"Ġjbe":13579,"ĠJchfi":13580,"ĠGdeUGdM":13581,"GdGTjGA":13582,"ĠJfWHb":13583,"ĠdJQ":13584,"ĠJWHb":13585,"ĠehV":13586,"ĠjSJGgd":13587,"ĠehSch":13588,"UjMI":13589,"ĠGdSQbI":13590,"GjecffG":13591,"ĠfLG":13592,"bX":13593,"ĠjJMhd":13594,"ĠJOab":13595,"ĠGdSdHjI":13596,"djdj":13597,"ĠbQGQg":13598,"ĠGfSGfjI":13599,"ĠeJfhYI":13600,"eH":13601,"ĠGdJYQja":13602,"ĠMQGQ":13603,"ĠJYLH":13604,"ĠSjOJi":13605,"ĠGZfjg":13606,"hgfG":13607,"GejQ":13608,"fYQa":13609,"hgI":13610,"ĠOeQJ":13611,"YOi":13612,"fGRd":13613,"JdQ":13614,"fRjf":13615,"ĠGdaGYd":13616,"ĠGNHQJgG":13617,"QGUfI":13618,"ĠdYHg":13619,"ĠHYQV":13620,"hGdOJc":13621,"ĠGUhd":13622,"ĠejGfeGQ":13623,"ĠGHfJg":13624,"ĠGfOQh":13625,"ĠhaOj":13626,"Sdejf":13627,"ĠGdQZHI":13628,"ĠGdLGeYGJ":13629,"ĠYPQ":13630,"ĠajOQ":13631,"ĠShQj":13632,"aSGO":13633,"fGQO":13634,"ĠJfJej":13635,"YcS":13636,"ĠNWJc":13637,"jdG":13638,"djU":13639,"ĠJhH":13640,"Jje":13641,"ĠGMJGLc":13642,"ĠGdeQJc":13643,"hXahf":13644,"jGa":13645,"ajgG":13646,"ĠYQVI":13647,"ĠJgOjOG":13648,"GQZH":13649,"bjfG":13650,"ĠGSJWG":13651,"Ġdjfc":13652,"ĠJHjY":13653,"ĠJYQafj":13654,"ĠddSLf":13655,"ĠjbQH":13656,"ĠddeD":13657,"ĠddJOQjH":13658,"ĠdGYeGd":13659,"ĠefNaVI":13660,"ĠGdKdGLI":13661,"ajT":13662,"ĠGdadHjf":13663,"ĠOaf":13664,"HGdG":13665,"ĠgOaG":13666,"ĠGdLgO":13667,"ĠGaQbI":13668,"ĠJbJdfj":13669,"Ġhbe":13670,"ĠGHcj":13671,"ĠGdLeGYj":13672,"ĠGdGjOj":13673,"ĠJROGO":13674,"ĠSGNQL":13675,"ĠJhLjgjI":13676,"ĠjbJQH":13677,"ĠeTgO":13678,"ĠefJOi":13679,"WQb":13680,"GdGee":13681,"ĠhWdHJ":13682,"ĠGdGHYGO":13683,"FcI":13684,"ĠeHO":13685,"ScGQ":13686,"ĠGdaL":13687,"ĠUObJ":13688,"ĠdTQcI":13689,"ĠJMj":13690,"ĠHjK":13691,"ĠYjT":13692,"ĠSGYOJ":13693,"ĠHGdMce":13694,"GcjG":13695,"ĠVOc":13696,"ĠjcJTa":13697,"ĠSQhQj":13698,"ĠJYhOj":13699,"aVdj":13700,"ĠHQjA":13701,"ĠNjGQG":13702,"ĠQZHJ":13703,"ĠajfS":13704,"ĠhMSf":13705,"chd":13706,"ĠHQeJg":13707,"ĠjbQG":13708,"ĠGdTQYjI":13709,"ĠQLY":13710,"ĠNfRjQ":13711,"MgG":13712,"ĠGdeKGdj":13713,"bUGFjI":13714,"ĠhJdc":13715,"ĠddehGQO":13716,"ĠdGjf":13717,"Yjhf":13718,"ĠhGdJU":13719,"ĠecI":13720,"ĠGdbGgQI":13721,"jGOj":13722,"ĠJMOjK":13723,"ĠWGFQ":13724,"ĠHQc":13725,"ĠGdGSQGQ":13726,"LOG":13727,"hHeG":13728,"ĠfGaPI":13729,"ĠGScJ":13730,"ĠGdeHJ":13731,"ĠNGOe":13732,"ĠLhGf":13733,"ĠfGFeI":13734,"ĠhGHj":13735,"ĠdMb":13736,"Jegd":13737,"Sjhe":13738,"GNHGQ":13739,"ĠGdGJLGgGJ":13740,"VhG":13741,"ĠeaJhMG":13742,"ĠhGMJQGe":13743,"QGHYG":13744,"ĠMebGA":13745,"ĠGdLhGH":13746,"ĠLGFYI":13747,"ĠGdHWGbI":13748,"ĠJbWY":13749,"ĠGdGdH":13750,"ĠjSGhj":13751,"ĠGdPgHj":13752,"ĠHchf":13753,"ĠGdLhGd":13754,"ĠefGbT":13755,"ĠGUeJ":13756,"Ġajdj":13757,"ĠGdeQGcR":13758,"ĠdhQG":13759,"ĠLfhfj":13760,"ĠZPG":13761,"ĠGfM":13762,"JUQa":13763,"ĠWadc":13764,"ĠPQGY":13765,"ĠeGdjRjG":13766,"ĠbUGQi":13767,"HGF":13768,"ĠGdRf":13769,"ĠGdTQWg":13770,"ĠGjgGGde":13771,"ĠcQhGJjG":13772,"RGjG":13773,"ĠdehXaj":13774,"ĠjWhd":13775,"ĠOGd":13776,"ĠHWdG":13777,"eKdeG":13778,"ĠQF":13779,"ĠeMQc":13780,"GdeQab":13781,"hSjf":13782,"aSjI":13783,"ĠGeQjcjI":13784,"ĠeWGdHI":13785,"ĠGjQd":13786,"Ġefb":13787,"ĠGdOhGe":13788,"ĠGdGHQjGA":13789,"ĠLRFjG":13790,"ĠjbGQH":13791,"bOQI":13792,"ĠJYdjeGJ":13793,"ĠMSGS":13794,"ĠGdeX":13795,"ĠJcahf":13796,"JabO":13797,"ĠfgGFjG":13798,"Whf":13799,"ĠGdSdSdI":13800,"JjQjG":13801,"ĠQjH":13802,"ĠeJYHI":13803,"ĠGdPGJjI":13804,"aYhd":13805,"ĠGdJNQL":13806,"ĠGLjH":13807,"OeGf":13808,"ĠGdSeG":13809,"ĠTJ":13810,"ĠLhO":13811,"GgjQ":13812,"ĠGdVeGfGJ":13813,"ĠeSJbHdG":13814,"ĠgGhS":13815,"ĠGdeSJbd":13816,"GdeGJ":13817,"ĠGYWi":13818,"ĠhgeG":13819,"ĠcjQG":13820,"ĠGdJWhQ":13821,"afG":13822,"ĠGdHSGWI":13823,"ĠGddYHg":13824,"bdc":13825,"ĠGdHfObjI":13826,"aO":13827,"adg":13828,"GYWj":13829,"ĠeNdU":13830,"ĠHfZ":13831,"ĠHJc":13832,"ĠHGdafOb":13833,"ĠYLR":13834,"ĠMQjb":13835,"ĠGdMRf":13836,"ĠHQJ":13837,"ĠYXGe":13838,"TQG":13839,"ĠgGA":13840,"ĠLGR":13841,"ĠQjHjcG":13842,"ĠjWGdH":13843,"ĠbHYI":13844,"VO":13845,"ĠjeSc":13846,"hZhGj":13847,"ĠdjHjG":13848,"hbha":13849,"QHjLGf":13850,"ĠjHPd":13851,"LhH":13852,"ĠhYedjGJ":13853,"Ġagd":13854,"ĠehbYg":13855,"ĠeJhQW":13856,"ĠJbW":13857,"ĠSdjeGf":13858,"MGd":13859,"ĠGSGSjG":13860,"HjHI":13861,"ĠHhdG":13862,"ĠGdOQ":13863,"ĠSGOI":13864,"dJhf":13865,"ĠHQTdhfI":13866,"ĠJSMH":13867,"ĠbGdJg":13868,"ĠjUQN":13869,"ĠGdRQbGA":13870,"ĠhGdJcfhdhL":13871,"ĠGdHjFj":13872,"ĠjSLd":13873,"ĠfV":13874,"ĠGNi":13875,"GbJd":13876,"ĠSeG":13877,"ĠGdGMPjI":13878,"GfOQ":13879,"ĠJNJaj":13880,"cSQ":13881,"ĠGdefbMI":13882,"ĠGdSGMI":13883,"ĠKGHJI":13884,"jaj":13885,"ĠGNJd":13886,"jeS":13887,"ĠeKdfG":13888,"ĠgOhA":13889,"SHGf":13890,"ĠddhWf":13891,"hhf":13892,"ĠjJSe":13893,"ĠGdgOGjG":13894,"ĠSGYWjc":13895,"hMj":13896,"ĠehfG":13897,"ĠSGej":13898,"ĠJaQV":13899,"NQLJ":13900,"ĠGdNWGH":13901,"RYje":13902,"ĠHGdbhI":13903,"ĠGdLfg":13904,"ĠegO":13905,"bGdhG":13906,"ĠQOG":13907,"eGfY":13908,"ĠWGFaI":13909,"ĠGdYejdI":13910,"ĠddJUOj":13911,"ĠheLdS":13912,"ĠGdeaJT":13913,"ĠHQH":13914,"ĠJhjJQ":13915,"ĠGdbWH":13916,"ĠbGf":13917,"QGSGJ":13918,"JcGH":13919,"ĠLhOj":13920,"ĠLGfHj":13921,"ĠGdeUGO":13922,"ĠHGU":13923,"ĠdYfI":13924,"ĠGaJQGV":13925,"ĠSfaYdg":13926,"ĠhJWdH":13927,"ĠbdJj":13928,"Ġcjfj":13929,"ĠMdej":13930,"ĠhGaVd":13931,"GVGaI":13932,"ĠOGaY":13933,"ĠLhYG":13934,"ĠGdefWb":13935,"ĠGdbHQ":13936,"GJhf":13937,"gGV":13938,"eKdj":13939,"TQOjf":13940,"Ljej":13941,"ĠSDGdc":13942,"YHFI":13943,"ĠGdGReGJ":13944,"ĠHSe":13945,"ĠGXgQJ":13946,"gGQj":13947,"Mhf":13948,"GdQZe":13949,"ĠGdGSJMeGe":13950,"ĠGdGhfI":13951,"ĠYVhjI":13952,"ĠGdeGFjI":13953,"ĠWQaG":13954,"ĠjQcR":13955,"ĠGdbf":13956,"ĠUQJ":13957,"GdeRjO":13958,"ĠGdHYO":13959,"MbI":13960,"GSJeJY":13961,"HWQjbI":13962,"ĠTHcGJ":13963,"ĠhGdehGO":13964,"ĠeJYGhf":13965,"Ġahf":13966,"ĠGdecS":13967,"ĠeTQhYI":13968,"ĠGdNVQGA":13969,"ĠjHjf":13970,"ĠddQFjS":13971,"ĠGdGUW":13972,"ĠVQHJ":13973,"ĠSdc":13974,"ĠGdGTcGd":13975,"hSjdI":13976,"ĠJGf":13977,"ĠSGQg":13978,"fGTO":13979,"GdGhd":13980,"faSj":13981,"ĠJQGfj":13982,"dGbjI":13983,"ĠMdb":13984,"ĠGLf":13985,"ĠbGSj":13986,"ĠGdJYGbO":13987,"GhJ":13988,"ĠGfaQGO":13989,"ĠQajbj":13990,"ĠGddhM":13991,"jajI":13992,"ĠGdeJY":13993,"ĠUhGH":13994,"ĠGdQjGVjGJ":13995,"ĠGcQQ":13996,"Sejf":13997,"fRg":13998,"fJGf":13999,"ĠdeLQO":14000,"ĠLOO":14001,"ĠJJeKd":14002,"ĠGdJMJ":14003,"ĠGdNTH":14004,"ĠjMjW":14005,"HhOjG":14006,"GYPQfj":14007,"ĠJYLHfj":14008,"ĠJGfj":14009,"ĠHGdaQfSjI":14010,"ZWi":14011,"hjGA":14012,"RdI":14013,"Gbhe":14014,"ĠGdeecfI":14015,"ĠGdYHK":14016,"ĠHeSGYO":14017,"ĠGdGjef":14018,"ĠNRGfI":14019,"ĠaJGg":14020,"ĠQjh":14021,"ĠGdQUGUI":14022,"ĠhdSJ":14023,"ĠGdeLdO":14024,"ĠeUa":14025,"ĠShAG":14026,"ĠGJMed":14027,"ĠGdaVd":14028,"ĠGhbY":14029,"ĠJQjc":14030,"ĠGdTGTI":14031,"jdj":14032,"ĠHfbd":14033,"ĠGgGfI":14034,"ĠeOe":14035,"ĠJacjQ":14036,"ĠYa":14037,"jheG":14038,"OYc":14039,"ĠJUQN":14040,"ĠhHOG":14041,"bhej":14042,"ĠhGQjO":14043,"ĠddHQfGeL":14044,"ĠHbhGJ":14045,"ĠhXjaJj":14046,"ĠhGef":14047,"ĠGdeDTQGJ":14048,"HMhK":14049,"LRjQI":14050,"ĠGdVjha":14051,"ĠGfTGJ":14052,"ĠGdeJcGed":14053,"SchjJ":14054,"hNi":14055,"ĠYQhV":14056,"Ġhed":14057,"ĠGdage":14058,"ĠeTZhdG":14059,"ĠjTQH":14060,"ĠJOQjHjI":14061,"bWGQ":14062,"ĠGdbPQI":14063,"geJ":14064,"ĠhHj":14065,"ĠLhfShf":14066,"ĠGNHQge":14067,"Ġhej":14068,"ĠdGJNGP":14069,"ĠGdejOGfj":14070,"ĠJhbahG":14071,"ĠeLeh":14072,"ĠedY":14073,"ĠGdONGf":14074,"HZi":14075,"ĠJeS":14076,"hbYJ":14077,"ĠMadGJ":14078,"ĠTghO":14079,"ĠJGLQ":14080,"JGc":14081,"ĠGdQJHI":14082,"ĠGYWjJc":14083,"ĠMc":14084,"ĠbfhGJ":14085,"ĠZQjf":14086,"ĠGdbGYI":14087,"Wjf":14088,"GjGe":14089,"ĠGeK":14090,"ĠGdLHf":14091,"Mde":14092,"fgGjI":14093,"ĠehabG":14094,"ĠGdGNJdGa":14095,"ĠHYfGjI":14096,"ĠeSDhdjGJ":14097,"ĠGdGSJQGJjLjGJ":14098,"ĠGdWGFQ":14099,"ĠJNJda":14100,"ĠGMJQe":14101,"WHbI":14102,"GdaGJ":14103,"ĠjhZhSdGajG":14104,"ĠGdTiA":14105,"ĠJTQ":14106,"TQJ":14107,"ĠaVj":14108,"ĠGdLhY":14109,"ĠdfaSg":14110,"ĠhGdGW":14111,"ĠeQVi":14112,"GfXQi":14113,"ĠRGhjI":14114,"ĠjTZd":14115,"ĠGdQShe":14116,"ĠhHOhf":14117,"jfjg":14118,"bdg":14119,"gGeG":14120,"ĠGdbQO":14121,"ĠbHGdI":14122,"ĠJZj":14123,"ĠhGKbG":14124,"ĠecG":14125,"QVJ":14126,"fe":14127,"ĠGdTQGA":14128,"ĠfLYd":14129,"GdWad":14130,"ĠbQGQj":14131,"ĠJeRMjf":14132,"ĠGfUJ":14133,"Ġgjdjf":14134,"ĠGfYOGe":14135,"ĠZHGA":14136,"ĠeQcHGJ":14137,"ĠdGfgGA":14138,"ĠGNhce":14139,"ĠdLeY":14140,"OHQ":14141,"ĠSJMJGL":14142,"GJQjf":14143,"ĠJRGjO":14144,"HYhf":14145,"ĠHGdSd":14146,"ĠHLGfHc":14147,"ĠZhGJjeGdG":14148,"ĠUG":14149,"NQjI":14150,"ĠGddjHjI":14151,"GaD":14152,"ĠGdGHOG":14153,"GdeQGI":14154,"ĠeDS":14155,"ĠjhUj":14156,"ĠGdXg":14157,"ĠHeSGdI":14158,"ĠfUjH":14159,"ĠGYLGH":14160,"QGgGe":14161,"ĠGdeRQYI":14162,"ĠVQHG":14163,"ĠGdhLhO":14164,"ĠGjeGf":14165,"ĠHGQH":14166,"ĠGdeYJUejf":14167,"cfg":14168,"dGGSJWjY":14169,"haGJ":14170,"ĠGQJcH":14171,"ĠGLYdc":14172,"HGQO":14173,"ĠHTQjI":14174,"QgG":14175,"Yej":14176,"ĠHTj":14177,"GdZGe":14178,"bhH":14179,"jRGd":14180,"ĠJYHFI":14181,"ĠMQGS":14182,"ĠYGFO":14183,"ĠeJJ":14184,"ĠGdfSHI":14185,"ĠddMaGX":14186,"ĠeUWai":14187,"ĠHdi":14188,"ĠGSJeGQI":14189,"Ġjedchf":14190,"ĠGfZhdG":14191,"QjMI":14192,"GdehJ":14193,"jbhe":14194,"ĠHQM":14195,"ĠHbGjG":14196,"ĠGdHQJZGd":14197,"ĠcGO":14198,"ĠfNH":14199,"ĠGee":14200,"ĠdjRG":14201,"ĠYGLdG":14202,"TGQO":14203,"GNQI":14204,"ĠHGcKQ":14205,"hHfGA":14206,"ĠGPQHjLGf":14207,"SGAdI":14208,"ĠGfhj":14209,"GJYJbOjf":14210,"ĠeYScQ":14211,"SGJj":14212,"ĠGdOQGLI":14213,"ĠJdej":14214,"ĠfQLh":14215,"ĠJDPj":14216,"ĠGHhj":14217,"hSJQ":14218,"Ġfjcj":14219,"ĠJOQjL":14220,"ĠaNQ":14221,"ĠJYdb":14222,"ĠGdMhV":14223,"GeGjcG":14224,"ĠhGdGY":14225,"ĠJGag":14226,"ĠGdGNP":14227,"ĠGdKhQI":14228,"ĠGdGcGOjejI":14229,"ĠGdeJeQ":14230,"ĠGdGfb":14231,"ĠGdSYj":14232,"ĠGdOjfG":14233,"ĠGdKbGaI":14234,"eQG":14235,"ĠGdJbjfG":14236,"ĠZG":14237,"hOh":14238,"ĠeYQhaI":14239,"ĠGHdZJ":14240,"GdYOjO":14241,"aQU":14242,"Wjc":14243,"ĠGdgjcd":14244,"hbQ":14245,"ĠGdeYfjjf":14246,"ĠhWf":14247,"ĠYGQa":14248,"hGQjO":14249,"ĠKhQ":14250,"aGUjd":14251,"hKeI":14252,"VYj":14253,"YGde":14254,"ĠGdSdjeI":14255,"ĠGddHfGfjI":14256,"ĠjbhehG":14257,"ĠQR":14258,"ĠGdHU":14259,"ĠSGOJj":14260,"fGa":14261,"ĠddOaGY":14262,"ĠTcdg":14263,"ĠhVYJgG":14264,"ĠNdGjG":14265,"GHc":14266,"ĠafjI":14267,"ĠJYd":14268,"dGjc":14269,"ĠddJGcO":14270,"ĠjPgHhf":14271,"ĠHGdGYeGd":14272,"Qjcj":14273,"ĠbQGQc":14274,"ĠhUfOhb":14275,"SjWI":14276,"SGge":14277,"ĠYGg":14278,"MJfG":14279,"ĠNajaI":14280,"eGgPG":14281,"ĠGdLhg":14282,"ĠJQGgG":14283,"ĠGYPQ":14284,"ĠhSGO":14285,"ĠTaG":14286,"ĠRejd":14287,"ĠcGQdhS":14288,"ĠGdGbOGe":14289,"ĠPfH":14290,"ĠjhfS":14291,"Gjc":14292,"ĠhGdMO":14293,"Jgi":14294,"ĠaQUg":14295,"ĠjhVM":14296,"ĠGdeUQjI":14297,"ĠbOejc":14298,"ff":14299,"ĠbGOI":14300,"SHGfjI":14301,"ĠddhdGjGJ":14302,"ĠGMJL":14303,"ĠGdUdjH":14304,"ShGA":14305,"MHgG":14306,"GNHQJ":14307,"ĠcjfjG":14308,"gV":14309,"ĠGdOGfeQc":14310,"ĠUOhQ":14311,"ĠjNVY":14312,"SGgeI":14313,"ĠGfLjdG":14314,"ĠfQMd":14315,"ĠdJU":14316,"ĠjbJQM":14317,"hbGjI":14318,"ĠGdeQcHI":14319,"ĠffJgj":14320,"ĠGdeWGdH":14321,"ĠGJT":14322,"ĠGSJYGO":14323,"ĠGdebjejf":14324,"ĠJbdjd":14325,"ĠjJYde":14326,"dGHGS":14327,"ĠHdWa":14328,"ĠedReI":14329,"ĠGdLQ":14330,"ĠdHj":14331,"ĠjGf":14332,"ĠGdajOQGdj":14333,"ĠYGUaI":14334,"ĠGdGHJYGO":14335,"ĠGdGSJKeGQGJ":14336,"ĠdGYOGO":14337,"ĠeabhOI":14338,"ĠMPQ":14339,"ĠLfO":14340,"ĠhGdSYI":14341,"ĠeGQJj":14342,"ĠdGfcG":14343,"ĠjUjH":14344,"ThQI":14345,"ĠMeV":14346,"Yeb":14347,"ĠHGdShA":14348,"ĠGdeGehQ":14349,"gT":14350,"ĠQcHJj":14351,"jecffi":14352,"ĠQhMc":14353,"ĠGdeNQL":14354,"ĠGdbPGQI":14355,"ĠYhGbH":14356,"ĠLfSj":14357,"ĠeYbhdI":14358,"GLQI":14359,"ĠaQGfcj":14360,"ĠeGcGf":14361,"ĠdGFMI":14362,"haGf":14363,"ĠhJfajPgG":14364,"QjVI":14365,"ĠGdGWdGY":14366,"ĠGMJhGA":14367,"ĠJNWj":14368,"LfQGd":14369,"ĠGdhMhT":14370,"ĠGdHTQI":14371,"Shd":14372,"ĠGdbfGHd":14373,"ĠJfVe":14374,"ĠGdUHQ":14375,"JUGQ":14376,"hYjf":14377,"ĠHGdGH":14378,"ĠGdQMe":14379,"ĠOhfj":14380,"YHg":14381,"ĠHGdGa":14382,"hYH":14383,"ĠfZ":14384,"ĠjfJej":14385,"ĠGjLGHj":14386,"ĠGfJXQJ":14387,"ĠGbdb":14388,"ĠeOef":14389,"ĠGfaUd":14390,"aJQ":14391,"Rdc":14392,"OGbI":14393,"ĠGdeQGLYI":14394,"ĠGddGJj":14395,"ĠGdGSO":14396,"ĠLdSJgG":14397,"QGFO":14398,"jMOK":14399,"ĠKed":14400,"ĠHMjGI":14401,"ĠGdejc":14402,"ĠdSd":14403,"ĠJJMhd":14404,"fjS":14405,"ĠHMjGJc":14406,"ĠGdajf":14407,"ĠGdNGUg":14408,"ĠjMXi":14409,"ĠhGdGfTWI":14410,"ĠGdeSLO":14411,"ĠNGdj":14412,"ĠOhGFQ":14413,"ĠhSjchf":14414,"ĠhGdhcGdGJ":14415,"Ġgjf":14416,"RGQ":14417,"ĠdhKQ":14418,"GdgG":14419,"ĠeQJHWI":14420,"ĠQGLY":14421,"ĠHGdX":14422,"ĠjeS":14423,"ĠYTQhf":14424,"GhQ":14425,"VGLYI":14426,"ĠGdeYhbjf":14427,"GJSGFd":14428,"ĠSGNHQ":14429,"ĠddJYGed":14430,"ĠddHbGA":14431,"ĠLQGM":14432,"GQjNj":14433,"ĠGdebW":14434,"GdeGd":14435,"ĠGYKQ":14436,"ĠGdGLhGA":14437,"ĠYdjcj":14438,"PcQi":14439,"ĠGdYfUQ":14440,"ĠGdQGb":14441,"Taj":14442,"ĠYjfg":14443,"ĠGMde":14444,"ĠTGQcJ":14445,"HYjOG":14446,"MdjI":14447,"ĠGdGfXeI":14448,"hfXQG":14449,"ĠHhO":14450,"ĠHYOO":14451,"ĠOf":14452,"ĠGdGTHGM":14453,"JQGLY":14454,"ĠOhQjI":14455,"ĠhJcQ":14456,"ĠGdRfGO":14457,"MOQ":14458,"ĠdcGf":14459,"Yge":14460,"ĠGSS":14461,"ĠGdGbUi":14462,"ĠeHGQjGJ":14463,"ĠLhGd":14464,"ĠeQjVG":14465,"ĠSDGdj":14466,"ĠGdcjGfGJ":14467,"ĠMdbg":14468,"ĠGdYGQ":14469,"ĠGdMTQGJ":14470,"ĠfGUQ":14471,"ĠGdGSge":14472,"ĠYGdjG":14473,"ĠefOg":14474,"ĠLGcj":14475,"ĠGdMGQ":14476,"ĠGdaOjh":14477,"ĠHGdeGOI":14478,"ĠHbjeI":14479,"GQja":14480,"ĠfehJ":14481,"ĠMOOJ":14482,"ĠGNHQce":14483,"NjUI":14484,"Yedg":14485,"ĠSGbj":14486,"Rjg":14487,"Ġcjajf":14488,"ĠafdfOG":14489,"ĠGJY":14490,"ĠGSJOY":14491,"ĠGdUNhQ":14492,"hHjfeG":14493,"ĠGdOghf":14494,"SHYI":14495,"ĠHGQSGd":14496,"ĠJMSH":14497,"ĠHTQj":14498,"cGHJf":14499,"eGOj":14500,"ĠWHbI":14501,"ĠOGje":14502,"ĠGfJbGdjI":14503,"jGHGf":14504,"ĠQhYI":14505,"ĠJGT":14506,"ĠGSJgdGc":14507,"ĠMbjbi":14508,"ĠGdWQjbg":14509,"ĠeGde":14510,"ĠeGS":14511,"ĠJPGcQ":14512,"ĠMGShH":14513,"ĠeQJaYI":14514,"ĠGdYehe":14515,"ĠJUfja":14516,"ĠQHMJ":14517,"ĠGdSLd":14518,"ĠTH":14519,"ĠSaf":14520,"QjZ":14521,"ĠGLdG":14522,"ĠGdeGL":14523,"ĠjSGYOc":14524,"ĠHhfj":14525,"ĠGdWGQFI":14526,"ĠjGa":14527,"eGgjQjI":14528,"ĠcdGH":14529,"ĠedcG":14530,"LjJ":14531,"ĠeSJbQI":14532,"Ġi":14533,"ĠUMaj":14534,"ĠGNjQI":14535,"ĠGbWY":14536,"GfbP":14537,"gPggj":14538,"ĠhSGFQ":14539,"Sdj":14540,"ĠecJHg":14541,"GdMeOddg":14542,"ĠddMOjK":14543,"GcHQ":14544,"WahdI":14545,"dW":14546,"HSe":14547,"Ujf":14548,"ĠGdedGFe":14549,"ĠfMff":14550,"ĠMSGSjI":14551,"ĠeSGYOJg":14552,"ĠSjHbi":14553,"ĠeGdg":14554,"ĠGXfg":14555,"ĠhGUHM":14556,"ĠeDSa":14557,"ĠaLQ":14558,"ĠJJYG":14559,"ĠOhe":14560,"ĠbdJgG":14561,"NJHQ":14562,"ĠXdJ":14563,"ĠJSGdfj":14564,"deGf":14565,"ĠGhdjajG":14566,"ĠjJLg":14567,"ĠGbJQ":14568,"LYdgG":14569,"ĠGdMPGA":14570,"GdeQLY":14571,"ĠddQLGd":14572,"ĠJNUU":14573,"ĠGdGRYGL":14574,"ĠGeQfG":14575,"ĠjSJfO":14576,"ĠjGS":14577,"ĠhLgG":14578,"ĠGdgfOj":14579,"ĠGdeHGfj":14580,"ĠOYhi":14581,"edcg":14582,"ĠGecfc":14583,"ĠSeGYc":14584,"ĠGdJMJjI":14585,"ĠhhcGdGJ":14586,"ĠhJchf":14587,"jafj":14588,"ĠGdbi":14589,"ĠHjL":14590,"dRe":14591,"ĠGdade":14592,"ĠJTOO":14593,"Ghhg":14594,"ĠcQH":14595,"ĠcQGJ":14596,"NdI":14597,"ĠJNaj":14598,"YTQI":14599,"ĠGMOfG":14600,"GbJQM":14601,"gJ":14602,"ĠcQGaJ":14603,"ĠhGdOJg":14604,"ĠaO":14605,"ĠGdGeHQGWhQ":14606,"GjjO":14607,"ĠhGYQH":14608,"jYQa":14609,"ĠYQb":14610,"ĠGdcaGAI":14611,"NUjU":14612,"ĠbGfhfG":14613,"ĠGdeJUd":14614,"NdG":14615,"ĠGSJZ":14616,"LjQj":14617,"ĠfGcd":14618,"eZ":14619,"WGQjI":14620,"ĠGdLfOj":14621,"ejfjG":14622,"ĠJfajPG":14623,"SGY":14624,"ĠGdYTQ":14625,"ĠaQjbG":14626,"ĠQGbj":14627,"ĠLhdjG":14628,"ĠeSDhdG":14629,"SjGf":14630,"ĠGdefJL":14631,"ĠfMJGLg":14632,"ĠGdMhGOK":14633,"QGce":14634,"hGfjG":14635,"ĠjHQ":14636,"ĠGTQ":14637,"ĠHGdGOGQI":14638,"ĠHGfJXGe":14639,"ĠdGh":14640,"jYLHfj":14641,"ĠGdeOQSg":14642,"ĠHQJHI":14643,"ĠGdGYJPGQ":14644,"ĠGdLZQGajI":14645,"ĠHhdj":14646,"ĠGdGSJFeGfj":14647,"ĠjYQag":14648,"ĠGdcejI":14649,"GQJce":14650,"ĠGdHjhdhLjI":14651,"ĠGdSH":14652,"ĠGdGNJHGQGJ":14653,"YeO":14654,"ĠeSLdI":14655,"ĠGdUQGN":14656,"ĠHUMI":14657,"ĠHRjGQI":14658,"ĠGYGfj":14659,"jeg":14660,"aJT":14661,"ĠSjSJZQb":14662,"ĠGdGfJGLjI":14663,"ĠhGhd":14664,"eGgjQ":14665,"ĠJQbU":14666,"ĠcO":14667,"ĠjOeQ":14668,"TcQ":14669,"ĠdJZjjQ":14670,"ĠGSGAI":14671,"ĠGdVNe":14672,"ĠSGF":14673,"WGe":14674,"NdGU":14675,"ĠddUfOhb":14676,"ĠGdQShd":14677,"ĠTQGcI":14678,"Ġdbhd":14679,"Ġajecf":14680,"HjgG":14681,"ĠfHGJ":14682,"dGdG":14683,"Ġejdj":14684,"ĠJSJWjYj":14685,"jGddg":14686,"ĠLQjf":14687,"ĠhGdYfa":14688,"ĠejTjd":14689,"ĠcGT":14690,"ĠSJbJd":14691,"ĠNdag":14692,"ĠhGVGa":14693,"ĠGdaJjGf":14694,"GdGaVd":14695,"ĠJhVM":14696,"ĠYUj":14697,"ĠHGdJfejI":14698,"ĠGJNGPgG":14699,"ĠGTQGc":14700,"WHbG":14701,"ĠhGdHjFI":14702,"ĠGdeQa":14703,"ĠGdehLhOGJ":14704,"jcaj":14705,"ĠGdaJGg":14706,"ĠGdGNWGQ":14707,"GdeQI":14708,"ĠJMej":14709,"ĠPQGYj":14710,"ĠeGVj":14711,"Gdge":14712,"ĠeJGSa":14713,"ĠdWa":14714,"MHI":14715,"OGbjI":14716,"ĠdSGfc":14717,"ĠGdJYde":14718,"GSeM":14719,"ĠdQFjS":14720,"ĠbOjQ":14721,"aU":14722,"ĠGdGNJaGA":14723,"KGdI":14724,"JhQ":14725,"ĠOQhS":14726,"GdLOhd":14727,"ĠdgfGc":14728,"ZHjGA":14729,"ĠHfTGW":14730,"ĠGdYGTQ":14731,"ĠMhGOK":14732,"aGge":14733,"ĠeJGHYjf":14734,"ĠTed":14735,"ĠhGYW":14736,"ĠddfXGe":14737,"GdYG":14738,"ĠGbO":14739,"ĠJQcg":14740,"ĠGdebGJ":14741,"ĠGdKGfjg":14742,"ĠJSJeJY":14743,"ĠjeTj":14744,"hjLQj":14745,"ĠGdGdeGf":14746,"Vh":14747,"dJge":14748,"RbI":14749,"QcjI":14750,"ĠGdeHjfI":14751,"ĠjVGjb":14752,"ĠhJbhd":14753,"ĠGSJbQGQ":14754,"haVdG":14755,"ĠehSi":14756,"ĠGMJQ":14757,"ĠGdeejR":14758,"SchJ":14759,"hcQ":14760,"adGJ":14761,"ĠJhHj":14762,"ĠhGdeedcI":14763,"ĠHGdQjGV":14764,"ĠHjT":14765,"ĠchfgG":14766,"ĠGdSJjf":14767,"ĠddTDhf":14768,"HNUhU":14769,"ĠUOjbg":14770,"ĠYjfc":14771,"GHYg":14772,"ĠGhGNQ":14773,"hLjf":14774,"ĠGdeMbbI":14775,"HGdcGO":14776,"ĠTgOJ":14777,"ĠNWjQG":14778,"ĠJhQW":14779,"ĠGdGHGOI":14780,"ghjI":14781,"ĠfLeI":14782,"ĠGdOhGFQ":14783,"ĠaGYd":14784,"GNHQJfj":14785,"ĠGSJMOGK":14786,"ZGS":14787,"ĠcPGdc":14788,"ĠSGQJ":14789,"SQgG":14790,"ĠhGLQGAGJ":14791,"ĠJMhdJ":14792,"ĠGdQGHW":14793,"ĠMaQI":14794,"djh":14795,"ĠGdMOjOjI":14796,"OQc":14797,"eeI":14798,"ĠGdGfJUGa":14799,"bQG":14800,"ĠejL":14801,"ĠafRhjdG":14802,"ĠGdGKfGA":14803,"ĠGdGLRGA":14804,"MjGI":14805,"GSW":14806,"ĠGdahGFO":14807,"ĠGdbGQI":14808,"bJi":14809,"ĠHJMbjb":14810,"ĠYdeGA":14811,"ĠTGfj":14812,"ĠajaG":14813,"TQWj":14814,"ĠZGH":14815,"ĠWHjYjG":14816,"ĠJVQ":14817,"ĠGdejfGA":14818,"ĠWdGH":14819,"fJbd":14820,"ĠHYVce":14821,"ĠfjI":14822,"ĠGdeYjTjI":14823,"ĠehJg":14824,"ĠadjS":14825,"hfh":14826,"fOI":14827,"ĠhGdSjGSGJ":14828,"ĠGdReGf":14829,"ĠGdGfJMGQ":14830,"WdYJ":14831,"ĠaQGfSjSch":14832,"ĠGdJaGYd":14833,"ĠUH":14834,"ĠSeGYj":14835,"jJi":14836,"hGba":14837,"ĠjDjO":14838,"ĠcfjSI":14839,"ĠGdMQhH":14840,"ĠGdJhRjY":14841,"ĠGdRhLI":14842,"ĠMGOI":14843,"ĠGdfLe":14844,"ĠddafOb":14845,"ĠGdbaR":14846,"ĠdRj":14847,"YOh":14848,"ĠKhQI":14849,"RhLj":14850,"ĠGdGTQGQ":14851,"ĠeDcO":14852,"OJc":14853,"ĠGdGMG":14854,"ĠRaG":14855,"ĠebOhfjG":14856,"HJhf":14857,"ePcQI":14858,"ĠHGdYhOI":14859,"ĠGdOSJhQjI":14860,"YJGO":14861,"ĠGYJbGO":14862,"ĠNdGdg":14863,"ĠGdJMhjd":14864,"YOg":14865,"ĠUQHjG":14866,"ĠheT":14867,"egfO":14868,"OGg":14869,"ĠLGgRG":14870,"ĠhJMdjd":14871,"cK":14872,"ĠGYei":14873,"YLd":14874,"ĠGdMadGJ":14875,"hjSJ":14876,"ĠefJL":14877,"ĠOQSG":14878,"ĠMGdJc":14879,"ĠHVQhQI":14880,"YHGf":14881,"ĠGdJcfhdhLjGJ":14882,"HjK":14883,"ĠhGdGbdjej":14884,"ĠJGjdfO":14885,"ĠYOdG":14886,"ĠdHd":14887,"ĠgGJag":14888,"ĠJTZd":14889,"ĠGJd":14890,"ĠajQL":14891,"ĠJJMbb":14892,"ĠfJhba":14893,"JjfG":14894,"ĠhJhUjGJ":14895,"ĠJfGSH":14896,"ĠjJRhL":14897,"ĠGbUOg":14898,"ĠGdeQcHGJ":14899,"Ġghf":14900,"ĠhGdeQGI":14901,"GdgOa":14902,"ĠJfJbd":14903,"ĠjSGYOfj":14904,"ĠQhd":14905,"ĠJOjQ":14906,"ĠdYGF":14907,"jYed":14908,"ĠGdQYH":14909,"ĠheDSSGJ":14910,"ĠGdGTYI":14911,"ĠGeJdGc":14912,"ĠJYcS":14913,"ĠGdeQJcHI":14914,"ĠGdLjQGf":14915,"GfJJYQa":14916,"ĠeMRf":14917,"ĠHhK":14918,"ĠGRQb":14919,"ĠGVYGa":14920,"ĠddJMbjb":14921,"ĠeJYdbI":14922,"KjGf":14923,"ĠLhOI":14924,"ĠhHGA":14925,"ĠeQT":14926,"ĠjTJQc":14927,"ĠGdehQ":14928,"eQcR":14929,"ĠadbO":14930,"ĠJOQS":14931,"ĠHGdJMOK":14932,"ĠddGNJ":14933,"ĠHGdOe":14934,"ĠjYQahG":14935,"NGQ":14936,"ĠeMOhO":14937,"HGQg":14938,"ĠMGdJg":14939,"Ġjbdb":14940,"ĠhGdGNQ":14941,"ĠGWaGdj":14942,"ĠWHjHI":14943,"ĠJQHW":14944,"ĠgGJjf":14945,"ĠjMJed":14946,"ĠHefGSHI":14947,"Ġbf":14948,"QjHj":14949,"ĠMbd":14950,"ĠHGYJHGQg":14951,"ĠHGdHjJ":14952,"ĠGdJeG":14953,"ĠefceG":14954,"ĠGfTWJgG":14955,"Ġdjhf":14956,"ReG":14957,"ĠGdefGRYGJ":14958,"YfOc":14959,"ĠHGcQG":14960,"ĠGdNO":14961,"ĠHGdMjGI":14962,"ĠJhdi":14963,"ĠGhUJ":14964,"ĠefGbTGJ":14965,"gQhH":14966,"ĠGPci":14967,"hGjG":14968,"ĠGdgHhW":14969,"ĠGdeNdhbGJ":14970,"ĠOS":14971,"ĠdGFb":14972,"dShA":14973,"hOGf":14974,"ĠGdaGFR":14975,"ĠNdjd":14976,"ĠQGbH":14977,"MjfgG":14978,"GSeYhG":14979,"Hgj":14980,"ĠGdLGQj":14981,"ĠjGHh":14982,"ĠejdGOc":14983,"ĠGJgGe":14984,"adSW":14985,"ĠhcGffj":14986,"ĠeedcI":14987,"ĠGdGaZ":14988,"ĠGdYQhV":14989,"ĠGhc":14990,"ĠhdjO":14991,"ĠbjhO":14992,"ĠGdNHjQ":14993,"ĠddGWQGa":14994,"Gdege":14995,"egG":14996,"ĠeQcHI":14997,"ĠGdSHd":14998,"ĠGdeMQ":14999,"ĠJQcfG":15000,"ĠSGNf":15001,"ĠSGjehf":15002,"ĠGdbWYI":15003,"dfO":15004,"ĠddQH":15005,"ĠGLQH":15006,"DhS":15007,"SGYOg":15008,"HYKGJ":15009,"ĠHUeGJ":15010,"hWjO":15011,"GdaQjb":15012,"ĠGdYUGHGJ":15013,"QjOg":15014,"KGdK":15015,"ĠjGGdgj":15016,"ĠGdGfT":15017,"ĠjYRR":15018,"ĠeefhY":15019,"ĠdGbhd":15020,"ĠGSeMhG":15021,"OYgG":15022,"GJSGAd":15023,"Gdbj":15024,"cedI":15025,"ĠGdJcGed":15026,"cQQI":15027,"aeG":15028,"ĠjOQj":15029,"ĠddGH":15030,"ĠLHGf":15031,"JeKd":15032,"bGX":15033,"ĠGdeJaLQGJ":15034,"ĠdMVhQ":15035,"ĠaW":15036,"ĠGdbSQj":15037,"ĠYHGS":15038,"ĠZfi":15039,"gje":15040,"jOjf":15041,"ĠhGdeeGQSGJ":15042,"ĠJTGO":15043,"ĠQhG":15044,"ĠYdGhI":15045,"ĠhGJefi":15046,
[...]
